{
  "version": "1.0",
  "truncation": null,
  "padding": null,
  "added_tokens": [
    {
      "id": 0,
      "content": "[UNK]",
      "single_word": false,
      "lstrip": false,
      "rstrip": false,
      "normalized": false,
      "special": true
    },
    {
      "id": 1,
      "content": "[CLS]",
      "single_word": false,
      "lstrip": false,
      "rstrip": false,
      "normalized": false,
      "special": true
    },
    {
      "id": 2,
      "content": "[SEP]",
      "single_word": false,
      "lstrip": false,
      "rstrip": false,
      "normalized": false,
      "special": true
    },
    {
      "id": 3,
      "content": "[PAD]",
      "single_word": false,
      "lstrip": false,
      "rstrip": false,
      "normalized": false,
      "special": true
    },
    {
      "id": 4,
      "content": "[MASK]",
      "single_word": false,
      "lstrip": false,
      "rstrip": false,
      "normalized": false,
      "special": true
    }
  ],
  "normalizer": null,
  "pre_tokenizer": {
    "type": "Whitespace"
  },
  "post_processor": null,
  "decoder": null,
  "model": {
    "type": "BPE",
    "dropout": null,
    "unk_token": null,
    "continuing_subword_prefix": null,
    "end_of_word_suffix": null,
    "fuse_unk": false,
    "byte_fallback": false,
    "vocab": {
      "[UNK]": 0,
      "[CLS]": 1,
      "[SEP]": 2,
      "[PAD]": 3,
      "[MASK]": 4,
      "&": 5,
      "(": 6,
      ")": 7,
      "+": 8,
      ",": 9,
      "-": 10,
      ".": 11,
      "/": 12,
      "0": 13,
      "1": 14,
      "2": 15,
      "3": 16,
      "4": 17,
      "5": 18,
      "6": 19,
      "7": 20,
      "8": 21,
      "9": 22,
      "A": 23,
      "B": 24,
      "C": 25,
      "D": 26,
      "E": 27,
      "F": 28,
      "G": 29,
      "H": 30,
      "I": 31,
      "J": 32,
      "K": 33,
      "L": 34,
      "M": 35,
      "N": 36,
      "O": 37,
      "P": 38,
      "Q": 39,
      "R": 40,
      "S": 41,
      "T": 42,
      "U": 43,
      "V": 44,
      "W": 45,
      "X": 46,
      "Y": 47,
      "Z": 48,
      "[": 49,
      "]": 50,
      "a": 51,
      "b": 52,
      "c": 53,
      "d": 54,
      "e": 55,
      "f": 56,
      "g": 57,
      "h": 58,
      "i": 59,
      "j": 60,
      "k": 61,
      "l": 62,
      "m": 63,
      "n": 64,
      "o": 65,
      "p": 66,
      "q": 67,
      "r": 68,
      "s": 69,
      "t": 70,
      "u": 71,
      "v": 72,
      "w": 73,
      "x": 74,
      "y": 75,
      "z": 76,
      "": 77,
      "": 78,
      "": 79,
      "": 80,
      "": 81,
      "": 82,
      "": 83,
      "": 84,
      "": 85,
      "": 86,
      "": 87,
      "": 88,
      "": 89,
      "": 90,
      "": 91,
      "": 92,
      "": 93,
      "": 94,
      "": 95,
      "": 96,
      "": 97,
      "": 98,
      "": 99,
      "": 100,
      "": 101,
      "": 102,
      "": 103,
      "": 104,
      "": 105,
      "": 106,
      "¡": 107,
      "¢": 108,
      "£": 109,
      "¤": 110,
      "¥": 111,
      "¦": 112,
      "§": 113,
      "¨": 114,
      "©": 115,
      "ª": 116,
      "«": 117,
      "¬": 118,
      "­": 119,
      "®": 120,
      "¯": 121,
      "°": 122,
      "±": 123,
      "²": 124,
      "³": 125,
      "´": 126,
      "µ": 127,
      "¶": 128,
      "·": 129,
      "¸": 130,
      "¹": 131,
      "º": 132,
      "»": 133,
      "¼": 134,
      "½": 135,
      "¾": 136,
      "¿": 137,
      "Â": 138,
      "Ã": 139,
      "Ä": 140,
      "Å": 141,
      "É": 142,
      "Ë": 143,
      "Ì": 144,
      "Î": 145,
      "Ï": 146,
      "Ð": 147,
      "Ñ": 148,
      "Ó": 149,
      "×": 150,
      "á": 151,
      "â": 152,
      "î": 153,
      "ï": 154,
      "in": 155,
      "th": 156,
      "re": 157,
      "on": 158,
      "an": 159,
      "at": 160,
      "the": 161,
      "en": 162,
      "ed": 163,
      "al": 164,
      "er": 165,
      "ti": 166,
      "of": 167,
      "as": 168,
      "or": 169,
      "es": 170,
      "and": 171,
      "ro": 172,
      "is": 173,
      "ic": 174,
      "to": 175,
      "ar": 176,
      "ati": 177,
      "ing": 178,
      "ent": 179,
      "ac": 180,
      "el": 181,
      "ec": 182,
      "it": 183,
      "st": 184,
      "ation": 185,
      "ul": 186,
      "ol": 187,
      "si": 188,
      "le": 189,
      "res": 190,
      "we": 191,
      "di": 192,
      "us": 193,
      "co": 194,
      "wi": 195,
      "de": 196,
      "ly": 197,
      "ur": 198,
      "tion": 199,
      "with": 200,
      "ve": 201,
      "pro": 202,
      "for": 203,
      "tr": 204,
      "me": 205,
      "se": 206,
      "con": 207,
      "ter": 208,
      "mp": 209,
      "ch": 210,
      "un": 211,
      "ph": 212,
      "be": 213,
      "ce": 214,
      "lo": 215,
      "was": 216,
      "id": 217,
      "ated": 218,
      "mo": 219,
      "su": 220,
      "ex": 221,
      "ag": 222,
      "ab": 223,
      "ad": 224,
      "po": 225,
      "ts": 226,
      "il": 227,
      "were": 228,
      "uc": 229,
      "am": 230,
      "ut": 231,
      "per": 232,
      "im": 233,
      "no": 234,
      "ff": 235,
      "that": 236,
      "by": 237,
      "ho": 238,
      "ig": 239,
      "ell": 240,
      "red": 241,
      "ap": 242,
      "ity": 243,
      "tic": 244,
      "um": 245,
      "ate": 246,
      "ents": 247,
      "ir": 248,
      "ma": 249,
      "ine": 250,
      "ver": 251,
      "so": 252,
      "ant": 253,
      "gen": 254,
      "rom": 255,
      "if": 256,
      "ase": 257,
      "pres": 258,
      "te": 259,
      "ren": 260,
      "wh": 261,
      "cl": 262,
      "sp": 263,
      "ted": 264,
      "cell": 265,
      "em": 266,
      "ther": 267,
      "qu": 268,
      "ical": 269,
      "are": 270,
      "ne": 271,
      "comp": 272,
      "pl": 273,
      "ind": 274,
      "tiv": 275,
      "pati": 276,
      "ib": 277,
      "ment": 278,
      "ain": 279,
      "from": 280,
      "dis": 281,
      "od": 282,
      "igh": 283,
      "sis": 284,
      "this": 285,
      "cy": 286,
      "ess": 287,
      "inc": 288,
      "sion": 289,
      "str": 290,
      "patients": 291,
      "do": 292,
      "gn": 293,
      "und": 294,
      "sy": 295,
      "mon": 296,
      "ay": 297,
      "reas": 298,
      "low": 299,
      "he": 300,
      "up": 301,
      "vi": 302,
      "ect": 303,
      "ations": 304,
      "li": 305,
      "fo": 306,
      "og": 307,
      "ific": 308,
      "vel": 309,
      "est": 310,
      "hy": 311,
      "eff": 312,
      "pe": 313,
      "mal": 314,
      "min": 315,
      "tive": 316,
      "cont": 317,
      "bo": 318,
      "ci": 319,
      "pre": 320,
      "par": 321,
      "ty": 322,
      "mic": 323,
      "ten": 324,
      "one": 325,
      "pa": 326,
      "ra": 327,
      "sign": 328,
      "resp": 329,
      "form": 330,
      "ha": 331,
      "ri": 332,
      "ous": 333,
      "val": 334,
      "ular": 335,
      "iz": 336,
      "not": 337,
      "ure": 338,
      "bet": 339,
      "tre": 340,
      "tor": 341,
      "ence": 342,
      "these": 343,
      "activ": 344,
      "ob": 345,
      "ved": 346,
      "cells": 347,
      "tran": 348,
      "ser": 349,
      "op": 350,
      "ang": 351,
      "sho": 352,
      "gro": 353,
      "diff": 354,
      "stu": 355,
      "ary": 356,
      "ca": 357,
      "cor": 358,
      "all": 359,
      "ug": 360,
      "anti": 361,
      "cent": 362,
      "high": 363,
      "inf": 364,
      "age": 365,
      "ich": 366,
      "eren": 367,
      "os": 368,
      "car": 369,
      "rel": 370,
      "ely": 371,
      "than": 372,
      "resul": 373,
      "prote": 374,
      "ion": 375,
      "ort": 376,
      "yl": 377,
      "sub": 378,
      "signific": 379,
      "reg": 380,
      "wo": 381,
      "uced": 382,
      "ally": 383,
      "significant": 384,
      "ia": 385,
      "tions": 386,
      "ance": 387,
      "med": 388,
      "show": 389,
      "differen": 390,
      "which": 391,
      "protein": 392,
      "olog": 393,
      "com": 394,
      "ers": 395,
      "inter": 396,
      "can": 397,
      "ative": 398,
      "end": 399,
      "reased": 400,
      "et": 401,
      "have": 402,
      "inv": 403,
      "rol": 404,
      "ass": 405,
      "use": 406,
      "cur": 407,
      "fac": 408,
      "respon": 409,
      "but": 410,
      "aly": 411,
      "mul": 412,
      "cr": 413,
      "lu": 414,
      "clu": 415,
      "br": 416,
      "dy": 417,
      "ial": 418,
      "able": 419,
      "pr": 420,
      "ects": 421,
      "tho": 422,
      "mat": 423,
      "treat": 424,
      "trans": 425,
      "ep": 426,
      "imp": 427,
      "out": 428,
      "sur": 429,
      "spec": 430,
      "ear": 431,
      "ong": 432,
      "cal": 433,
      "na": 434,
      "hib": 435,
      "rat": 436,
      "der": 437,
      "dur": 438,
      "sed": 439,
      "ven": 440,
      "des": 441,
      "group": 442,
      "sa": 443,
      "ween": 444,
      "between": 445,
      "used": 446,
      "cep": 447,
      "ected": 448,
      "ms": 449,
      "ox": 450,
      "ast": 451,
      "soci": 452,
      "bi": 453,
      "fi": 454,
      "its": 455,
      "dec": 456,
      "both": 457,
      "sti": 458,
      "has": 459,
      "ech": 460,
      "results": 461,
      "been": 462,
      "ach": 463,
      "tu": 464,
      "meth": 465,
      "ari": 466,
      "activity": 467,
      "treatment": 468,
      "ta": 469,
      "more": 470,
      "expres": 471,
      "ip": 472,
      "using": 473,
      "analy": 474,
      "may": 475,
      "gg": 476,
      "fol": 477,
      "also": 478,
      "amin": 479,
      "oc": 480,
      "during": 481,
      "two": 482,
      "duc": 483,
      "present": 484,
      "les": 485,
      "control": 486,
      "valu": 487,
      "studi": 488,
      "ater": 489,
      "inhib": 490,
      "tis": 491,
      "af": 492,
      "col": 493,
      "nor": 494,
      "ding": 495,
      "mun": 496,
      "tial": 497,
      "unc": 498,
      "other": 499,
      "ev": 500,
      "associ": 501,
      "ies": 502,
      "trac": 503,
      "phy": 504,
      "centr": 505,
      "syn": 506,
      "ke": 507,
      "increased": 508,
      "my": 509,
      "ree": 510,
      "sugg": 511,
      "ases": 512,
      "ory": 513,
      "ight": 514,
      "blo": 515,
      "esti": 516,
      "had": 517,
      "ection": 518,
      "man": 519,
      "tes": 520,
      "ugh": 521,
      "ility": 522,
      "main": 523,
      "ces": 524,
      "del": 525,
      "gr": 526,
      "bas": 527,
      "ses": 528,
      "arg": 529,
      "there": 530,
      "ating": 531,
      "dro": 532,
      "dr": 533,
      "dise": 534,
      "pol": 535,
      "under": 536,
      "gene": 537,
      "ates": 538,
      "tal": 539,
      "acter": 540,
      "immun": 541,
      "ared": 542,
      "por": 543,
      "concentr": 544,
      "plas": 545,
      "ble": 546,
      "chang": 547,
      "rease": 548,
      "level": 549,
      "clin": 550,
      "ized": 551,
      "micro": 552,
      "ulation": 553,
      "ays": 554,
      "meas": 555,
      "vir": 556,
      "obser": 557,
      "uld": 558,
      "vari": 559,
      "ane": 560,
      "ist": 561,
      "found": 562,
      "stem": 563,
      "requ": 564,
      "significantly": 565,
      "induced": 566,
      "effect": 567,
      "over": 568,
      "dep": 569,
      "whe": 570,
      "om": 571,
      "non": 572,
      "deter": 573,
      "medi": 574,
      "sh": 575,
      "their": 576,
      "T3": 577,
      "normal": 578,
      "du": 579,
      "after": 580,
      "showed": 581,
      "expression": 582,
      "fe": 583,
      "ceptor": 584,
      "av": 585,
      "indic": 586,
      "lic": 587,
      "effects": 588,
      "mol": 589,
      "cle": 590,
      "path": 591,
      "T0": 592,
      "dition": 593,
      "peri": 594,
      "associated": 595,
      "cess": 596,
      "ded": 597,
      "mil": 598,
      "hum": 599,
      "ors": 600,
      "fir": 601,
      "compared": 602,
      "act": 603,
      "velop": 604,
      "tain": 605,
      "enti": 606,
      "ss": 607,
      "sec": 608,
      "follow": 609,
      "ide": 610,
      "develop": 611,
      "study": 612,
      "action": 613,
      "CS": 614,
      "ties": 615,
      "struc": 616,
      "ological": 617,
      "ata": 618,
      "clinical": 619,
      "fr": 620,
      "most": 621,
      "disease": 622,
      "system": 623,
      "our": 624,
      "inclu": 625,
      "type": 626,
      "phos": 627,
      "ii": 628,
      "receptor": 629,
      "therap": 630,
      "human": 631,
      "cardi": 632,
      "rec": 633,
      "wever": 634,
      "however": 635,
      "inding": 636,
      "phosph": 637,
      "ectiv": 638,
      "tra": 639,
      "als": 640,
      "when": 641,
      "inhibit": 642,
      "mg": 643,
      "ds": 644,
      "cer": 645,
      "gre": 646,
      "method": 647,
      "ins": 648,
      "estig": 649,
      "investig": 650,
      "bin": 651,
      "ced": 652,
      "comple": 653,
      "ite": 654,
      "different": 655,
      "ile": 656,
      "ens": 657,
      "func": 658,
      "sup": 659,
      "depend": 660,
      "produc": 661,
      "ting": 662,
      "posi": 663,
      "ucle": 664,
      "data": 665,
      "only": 666,
      "ici": 667,
      "cul": 668,
      "stimul": 669,
      "wn": 670,
      "observed": 671,
      "olu": 672,
      "def": 673,
      "acid": 674,
      "mi": 675,
      "perform": 676,
      "gl": 677,
      "aff": 678,
      "into": 679,
      "related": 680,
      "met": 681,
      "mar": 682,
      "ish": 683,
      "ris": 684,
      "factor": 685,
      "ability": 686,
      "studies": 687,
      "pos": 688,
      "vid": 689,
      "cyto": 690,
      "analysis": 691,
      "suggest": 692,
      "time": 693,
      "blood": 694,
      "year": 695,
      "test": 696,
      "ber": 697,
      "echan": 698,
      "poten": 699,
      "well": 700,
      "less": 701,
      "response": 702,
      "ge": 703,
      "men": 704,
      "demon": 705,
      "demonstr": 706,
      "poly": 707,
      "kin": 708,
      "mechan": 709,
      "ization": 710,
      "iv": 711,
      "mes": 712,
      "char": 713,
      "ks": 714,
      "ective": 715,
      "ill": 716,
      "rate": 717,
      "increase": 718,
      "enz": 719,
      "inal": 720,
      "cin": 721,
      "thro": 722,
      "formation": 723,
      "ments": 724,
      "ful": 725,
      "gener": 726,
      "diag": 727,
      "det": 728,
      "ism": 729,
      "hydro": 730,
      "rats": 731,
      "ectively": 732,
      "cri": 733,
      "sive": 734,
      "CA": 735,
      "diagno": 736,
      "gra": 737,
      "three": 738,
      "wor": 739,
      "identi": 740,
      "sequ": 741,
      "contr": 742,
      "higher": 743,
      "ked": 744,
      "fore": 745,
      "ute": 746,
      "mus": 747,
      "sing": 748,
      "neu": 749,
      "cd": 750,
      "fer": 751,
      "sel": 752,
      "changes": 753,
      "character": 754,
      "such": 755,
      "rent": 756,
      "mean": 757,
      "tissu": 758,
      "addition": 759,
      "fur": 760,
      "genes": 761,
      "hyper": 762,
      "bl": 763,
      "port": 764,
      "fied": 765,
      "pop": 766,
      "ants": 767,
      "sco": 768,
      "evalu": 769,
      "function": 770,
      "cases": 771,
      "nucle": 772,
      "au": 773,
      "sure": 774,
      "mut": 775,
      "pat": 776,
      "alph": 777,
      "ions": 778,
      "tro": 779,
      "cre": 780,
      "simil": 781,
      "tox": 782,
      "chem": 783,
      "xim": 784,
      "ond": 785,
      "num": 786,
      "assess": 787,
      "tical": 788,
      "typ": 789,
      "some": 790,
      "partic": 791,
      "import": 792,
      "endo": 793,
      "role": 794,
      "invol": 795,
      "his": 796,
      "lif": 797,
      "ency": 798,
      "tern": 799,
      "combin": 800,
      "similar": 801,
      "hypo": 802,
      "occur": 803,
      "dependent": 804,
      "idence": 805,
      "onic": 806,
      "zed": 807,
      "determin": 808,
      "further": 809,
      "mem": 810,
      "abol": 811,
      "mice": 812,
      "treated": 813,
      "those": 814,
      "grow": 815,
      "flu": 816,
      "ons": 817,
      "examin": 818,
      "therapy": 819,
      "molec": 820,
      "kno": 821,
      "cap": 822,
      "pred": 823,
      "ual": 824,
      "who": 825,
      "ie": 826,
      "drug": 827,
      "king": 828,
      "first": 829,
      "did": 830,
      "ner": 831,
      "ication": 832,
      "ition": 833,
      "mm": 834,
      "respectively": 835,
      "atory": 836,
      "ace": 837,
      "ody": 838,
      "ard": 839,
      "py": 840,
      "ung": 841,
      "based": 842,
      "neur": 843,
      "samp": 844,
      "ture": 845,
      "ric": 846,
      "tur": 847,
      "ensi": 848,
      "appro": 849,
      "long": 850,
      "phen": 851,
      "ures": 852,
      "C2": 853,
      "ni": 854,
      "vas": 855,
      "oid": 856,
      "years": 857,
      "heal": 858,
      "exp": 859,
      "process": 860,
      "mr": 861,
      "lin": 862,
      "inj": 863,
      "lower": 864,
      "tent": 865,
      "ster": 866,
      "itro": 867,
      "tained": 868,
      "risk": 869,
      "ail": 870,
      "patient": 871,
      "vent": 872,
      "model": 873,
      "potential": 874,
      "body": 875,
      "impro": 876,
      "enzy": 877,
      "could": 878,
      "fib": 879,
      "kg": 880,
      "mor": 881,
      "though": 882,
      "specific": 883,
      "reduced": 884,
      "reduc": 885,
      "tech": 886,
      "ically": 887,
      "radi": 888,
      "mis": 889,
      "repor": 890,
      "amine": 891,
      "very": 892,
      "subj": 893,
      "new": 894,
      "ak": 895,
      "rang": 896,
      "ology": 897,
      "ied": 898,
      "gan": 899,
      "presence": 900,
      "amp": 901,
      "direc": 902,
      "stat": 903,
      "activation": 904,
      "neuro": 905,
      "ign": 906,
      "prim": 907,
      "bec": 908,
      "ps": 909,
      "contain": 910,
      "growth": 911,
      "reve": 912,
      "PS": 913,
      "ited": 914,
      "ple": 915,
      "isol": 916,
      "decreased": 917,
      "ogra": 918,
      "thy": 919,
      "levels": 920,
      "concentration": 921,
      "ured": 922,
      "within": 923,
      "plasma": 924,
      "ves": 925,
      "bio": 926,
      "days": 927,
      "while": 928,
      "concentrations": 929,
      "finding": 930,
      "total": 931,
      "metr": 932,
      "dia": 933,
      "surg": 934,
      "synthe": 935,
      "fl": 936,
      "vious": 937,
      "ml": 938,
      "frequ": 939,
      "abs": 940,
      "wee": 941,
      "cs": 942,
      "istic": 943,
      "sible": 944,
      "go": 945,
      "metabol": 946,
      "temp": 947,
      "important": 948,
      "da": 949,
      "ft": 950,
      "reveal": 951,
      "ither": 952,
      "complex": 953,
      "vis": 954,
      "ste": 955,
      "side": 956,
      "due": 957,
      "ini": 958,
      "mac": 959,
      "vo": 960,
      "ll": 961,
      "studied": 962,
      "immuno": 963,
      "performed": 964,
      "organ": 965,
      "alpha": 966,
      "virus": 967,
      "ectro": 968,
      "ages": 969,
      "dna": 970,
      "prog": 971,
      "cus": 972,
      "stand": 973,
      "proteins": 974,
      "exper": 975,
      "usion": 976,
      "lim": 977,
      "ature": 978,
      "cat": 979,
      "beta": 980,
      "ths": 981,
      "without": 982,
      "appe": 983,
      "sever": 984,
      "ew": 985,
      "previous": 986,
      "ters": 987,
      "period": 988,
      "cular": 989,
      "day": 990,
      "each": 991,
      "four": 992,
      "multi": 993,
      "ild": 994,
      "mer": 995,
      "cytes": 996,
      "led": 997,
      "oxid": 998,
      "anim": 999,
      "increas": 1000,
      "lit": 1001,
      "lab": 1002,
      "sin": 1003,
      "line": 1004,
      "including": 1005,
      "positive": 1006,
      "current": 1007,
      "renal": 1008,
      "gly": 1009,
      "cis": 1010,
      "number": 1011,
      "ption": 1012,
      "ck": 1013,
      "erg": 1014,
      "ived": 1015,
      "mu": 1016,
      "clo": 1017,
      "through": 1018,
      "chol": 1019,
      "io": 1020,
      "experim": 1021,
      "child": 1022,
      "istr": 1023,
      "ired": 1024,
      "membr": 1025,
      "oral": 1026,
      "ene": 1027,
      "ery": 1028,
      "smal": 1029,
      "tissue": 1030,
      "transp": 1031,
      "divid": 1032,
      "measured": 1033,
      "hip": 1034,
      "following": 1035,
      "tum": 1036,
      "ax": 1037,
      "compar": 1038,
      "common": 1039,
      "enh": 1040,
      "findings": 1041,
      "lam": 1042,
      "regul": 1043,
      "ving": 1044,
      "chr": 1045,
      "small": 1046,
      "although": 1047,
      "conclu": 1048,
      "view": 1049,
      "revealed": 1050,
      "appl": 1051,
      "ately": 1052,
      "ital": 1053,
      "ub": 1054,
      "ze": 1055,
      "sensi": 1056,
      "coun": 1057,
      "lymp": 1058,
      "que": 1059,
      "acc": 1060,
      "known": 1061,
      "larg": 1062,
      "post": 1063,
      "demonstrated": 1064,
      "obtained": 1065,
      "investigated": 1066,
      "reported": 1067,
      "log": 1068,
      "muscle": 1069,
      "techni": 1070,
      "sugges": 1071,
      "sal": 1072,
      "ement": 1073,
      "active": 1074,
      "pressure": 1075,
      "oper": 1076,
      "pur": 1077,
      "among": 1078,
      "face": 1079,
      "sus": 1080,
      "either": 1081,
      "mod": 1082,
      "vely": 1083,
      "aneous": 1084,
      "pti": 1085,
      "isms": 1086,
      "resist": 1087,
      "admin": 1088,
      "genic": 1089,
      "ities": 1090,
      "predic": 1091,
      "onal": 1092,
      "dose": 1093,
      "AS": 1094,
      "toxic": 1095,
      "order": 1096,
      "remain": 1097,
      "ulin": 1098,
      "eng": 1099,
      "vere": 1100,
      "arter": 1101,
      "way": 1102,
      "subjects": 1103,
      "early": 1104,
      "oxy": 1105,
      "identified": 1106,
      "case": 1107,
      "para": 1108,
      "pho": 1109,
      "region": 1110,
      "measure": 1111,
      "they": 1112,
      "thus": 1113,
      "coll": 1114,
      "greater": 1115,
      "rele": 1116,
      "consis": 1117,
      "ct": 1118,
      "ily": 1119,
      "histo": 1120,
      "extrac": 1121,
      "ditions": 1122,
      "again": 1123,
      "PC": 1124,
      "determined": 1125,
      "methyl": 1126,
      "ished": 1127,
      "flow": 1128,
      "gram": 1129,
      "types": 1130,
      "MM": 1131,
      "conditions": 1132,
      "influ": 1133,
      "examined": 1134,
      "ld": 1135,
      "gi": 1136,
      "oma": 1137,
      "whereas": 1138,
      "membrane": 1139,
      "differences": 1140,
      "ath": 1141,
      "direct": 1142,
      "actions": 1143,
      "atic": 1144,
      "responses": 1145,
      "tures": 1146,
      "beca": 1147,
      "til": 1148,
      "pepti": 1149,
      "vitro": 1150,
      "rest": 1151,
      "infection": 1152,
      "pul": 1153,
      "SE": 1154,
      "CF": 1155,
      "ality": 1156,
      "agon": 1157,
      "pic": 1158,
      "sol": 1159,
      "recent": 1160,
      "induc": 1161,
      "targ": 1162,
      "several": 1163,
      "months": 1164,
      "phase": 1165,
      "gu": 1166,
      "bacter": 1167,
      "amic": 1168,
      "icient": 1169,
      "single": 1170,
      "ester": 1171,
      "survi": 1172,
      "work": 1173,
      "same": 1174,
      "reco": 1175,
      "production": 1176,
      "duced": 1177,
      "hor": 1178,
      "shown": 1179,
      "samples": 1180,
      "eu": 1181,
      "theli": 1182,
      "lead": 1183,
      "CG": 1184,
      "diagnosis": 1185,
      "local": 1186,
      "elec": 1187,
      "against": 1188,
      "gf": 1189,
      "olution": 1190,
      "mine": 1191,
      "evidence": 1192,
      "rati": 1193,
      "vascular": 1194,
      "crib": 1195,
      "values": 1196,
      "loc": 1197,
      "children": 1198,
      "developed": 1199,
      "aging": 1200,
      "set": 1201,
      "electr": 1202,
      "primary": 1203,
      "individ": 1204,
      "ateral": 1205,
      "prot": 1206,
      "molecular": 1207,
      "groups": 1208,
      "expo": 1209,
      "inflam": 1210,
      "old": 1211,
      "stimulation": 1212,
      "ness": 1213,
      "animals": 1214,
      "pi": 1215,
      "inhibition": 1216,
      "whether": 1217,
      "aim": 1218,
      "relations": 1219,
      "myo": 1220,
      "morph": 1221,
      "cir": 1222,
      "ques": 1223,
      "RP": 1224,
      "carcin": 1225,
      "before": 1226,
      "abl": 1227,
      "second": 1228,
      "CL": 1229,
      "vs": 1230,
      "part": 1231,
      "about": 1232,
      "lympho": 1233,
      "air": 1234,
      "bone": 1235,
      "transcri": 1236,
      "int": 1237,
      "acute": 1238,
      "water": 1239,
      "binding": 1240,
      "appear": 1241,
      "detected": 1242,
      "emo": 1243,
      "genetic": 1244,
      "ites": 1245,
      "ann": 1246,
      "left": 1247,
      "rece": 1248,
      "here": 1249,
      "state": 1250,
      "range": 1251,
      "ole": 1252,
      "RT": 1253,
      "development": 1254,
      "surface": 1255,
      "hem": 1256,
      "decrease": 1257,
      "determine": 1258,
      "ior": 1259,
      "weight": 1260,
      "equ": 1261,
      "osis": 1262,
      "chronic": 1263,
      "inte": 1264,
      "report": 1265,
      "xy": 1266,
      "strain": 1267,
      "free": 1268,
      "involved": 1269,
      "nec": 1270,
      "quanti": 1271,
      "lung": 1272,
      "ational": 1273,
      "ack": 1274,
      "because": 1275,
      "dex": 1276,
      "ret": 1277,
      "proper": 1278,
      "sul": 1279,
      "signal": 1280,
      "electro": 1281,
      "enzyme": 1282,
      "glo": 1283,
      "modi": 1284,
      "provid": 1285,
      "fem": 1286,
      "lant": 1287,
      "rap": 1288,
      "intra": 1289,
      "mark": 1290,
      "SS": 1291,
      "weeks": 1292,
      "women": 1293,
      "sto": 1294,
      "isolated": 1295,
      "contrast": 1296,
      "administr": 1297,
      "vement": 1298,
      "chemical": 1299,
      "play": 1300,
      "compon": 1301,
      "oph": 1302,
      "auto": 1303,
      "itu": 1304,
      "ye": 1305,
      "tivity": 1306,
      "tional": 1307,
      "cm": 1308,
      "receptors": 1309,
      "health": 1310,
      "severe": 1311,
      "EC": 1312,
      "any": 1313,
      "should": 1314,
      "ator": 1315,
      "neg": 1316,
      "ellular": 1317,
      "epi": 1318,
      "reduction": 1319,
      "ns": 1320,
      "indicate": 1321,
      "fy": 1322,
      "caused": 1323,
      "amo": 1324,
      "atively": 1325,
      "brain": 1326,
      "lor": 1327,
      "symp": 1328,
      "differenti": 1329,
      "glu": 1330,
      "erature": 1331,
      "mechanisms": 1332,
      "evaluated": 1333,
      "cro": 1334,
      "contrib": 1335,
      "synthesis": 1336,
      "pt": 1337,
      "species": 1338,
      "vivo": 1339,
      "exer": 1340,
      "bil": 1341,
      "various": 1342,
      "compo": 1343,
      "administration": 1344,
      "fat": 1345,
      "tomy": 1346,
      "dies": 1347,
      "patho": 1348,
      "ium": 1349,
      "mit": 1350,
      "produced": 1351,
      "bal": 1352,
      "ography": 1353,
      "SC": 1354,
      "enhan": 1355,
      "describ": 1356,
      "contin": 1357,
      "hr": 1358,
      "antigen": 1359,
      "review": 1360,
      "fam": 1361,
      "ano": 1362,
      "resi": 1363,
      "az": 1364,
      "like": 1365,
      "stic": 1366,
      "cellular": 1367,
      "proced": 1368,
      "cho": 1369,
      "confir": 1370,
      "physi": 1371,
      "tered": 1372,
      "secre": 1373,
      "mechanism": 1374,
      "lip": 1375,
      "vide": 1376,
      "maxim": 1377,
      "controls": 1378,
      "many": 1379,
      "pd": 1380,
      "IC": 1381,
      "kine": 1382,
      "ju": 1383,
      "prof": 1384,
      "bodies": 1385,
      "mrna": 1386,
      "parame": 1387,
      "ot": 1388,
      "care": 1389,
      "genesis": 1390,
      "ently": 1391,
      "PE": 1392,
      "CR": 1393,
      "ury": 1394,
      "survival": 1395,
      "tw": 1396,
      "phic": 1397,
      "mediated": 1398,
      "ome": 1399,
      "regulation": 1400,
      "uted": 1401,
      "ive": 1402,
      "diet": 1403,
      "trib": 1404,
      "pri": 1405,
      "OD": 1406,
      "containing": 1407,
      "etal": 1408,
      "ning": 1409,
      "plac": 1410,
      "population": 1411,
      "tumor": 1412,
      "loss": 1413,
      "previously": 1414,
      "suc": 1415,
      "fail": 1416,
      "relationship": 1417,
      "ratio": 1418,
      "mass": 1419,
      "art": 1420,
      "dist": 1421,
      "need": 1422,
      "dyn": 1423,
      "promo": 1424,
      "ules": 1425,
      "bp": 1426,
      "take": 1427,
      "possible": 1428,
      "rates": 1429,
      "pec": 1430,
      "methods": 1431,
      "ress": 1432,
      "therefore": 1433,
      "nm": 1434,
      "chro": 1435,
      "pattern": 1436,
      "bility": 1437,
      "ice": 1438,
      "pression": 1439,
      "strong": 1440,
      "aden": 1441,
      "structure": 1442,
      "prolif": 1443,
      "hel": 1444,
      "prolifer": 1445,
      "ord": 1446,
      "termin": 1447,
      "complic": 1448,
      "amino": 1449,
      "continu": 1450,
      "pan": 1451,
      "IB": 1452,
      "femal": 1453,
      "characteristic": 1454,
      "six": 1455,
      "ae": 1456,
      "yo": 1457,
      "rapid": 1458,
      "ably": 1459,
      "sequen": 1460,
      "drome": 1461,
      "approxim": 1462,
      "intrac": 1463,
      "thal": 1464,
      "ick": 1465,
      "area": 1466,
      "mono": 1467,
      "gas": 1468,
      "syndrome": 1469,
      "beha": 1470,
      "lesions": 1471,
      "mag": 1472,
      "recor": 1473,
      "mid": 1474,
      "intr": 1475,
      "leu": 1476,
      "phosphor": 1477,
      "tension": 1478,
      "surgery": 1479,
      "elev": 1480,
      "expressed": 1481,
      "ans": 1482,
      "uce": 1483,
      "psy": 1484,
      "serum": 1485,
      "establ": 1486,
      "insulin": 1487,
      "PT": 1488,
      "presented": 1489,
      "five": 1490,
      "light": 1491,
      "cardiac": 1492,
      "transfer": 1493,
      "inhibited": 1494,
      "pc": 1495,
      "hepat": 1496,
      "provide": 1497,
      "mgkg": 1498,
      "nal": 1499,
      "site": 1500,
      "mito": 1501,
      "antibodies": 1502,
      "jor": 1503,
      "behavi": 1504,
      "exhib": 1505,
      "frequency": 1506,
      "tested": 1507,
      "monary": 1508,
      "then": 1509,
      "major": 1510,
      "glut": 1511,
      "strate": 1512,
      "mater": 1513,
      "properties": 1514,
      "affected": 1515,
      "reaction": 1516,
      "multiple": 1517,
      "sensitivity": 1518,
      "resistance": 1519,
      "inten": 1520,
      "size": 1521,
      "negative": 1522,
      "hal": 1523,
      "AF": 1524,
      "ression": 1525,
      "matic": 1526,
      "SN": 1527,
      "result": 1528,
      "stain": 1529,
      "eld": 1530,
      "throm": 1531,
      "conduc": 1532,
      "lat": 1533,
      "oxygen": 1534,
      "PR": 1535,
      "roph": 1536,
      "els": 1537,
      "ental": 1538,
      "volu": 1539,
      "bon": 1540,
      "allow": 1541,
      "rh": 1542,
      "tially": 1543,
      "pain": 1544,
      "discus": 1545,
      "CT": 1546,
      "rever": 1547,
      "combination": 1548,
      "degre": 1549,
      "technique": 1550,
      "ino": 1551,
      "L1": 1552,
      "iso": 1553,
      "atures": 1554,
      "avail": 1555,
      "GA": 1556,
      "characterized": 1557,
      "cise": 1558,
      "peptide": 1559,
      "parameters": 1560,
      "target": 1561,
      "dynamic": 1562,
      "particular": 1563,
      "domain": 1564,
      "degrees": 1565,
      "increasing": 1566,
      "aver": 1567,
      "fication": 1568,
      "perf": 1569,
      "male": 1570,
      "iciency": 1571,
      "approximately": 1572,
      "adul": 1573,
      "taneous": 1574,
      "ht": 1575,
      "gs": 1576,
      "cc": 1577,
      "hormon": 1578,
      "kinase": 1579,
      "emp": 1580,
      "microm": 1581,
      "cancer": 1582,
      "transcription": 1583,
      "ways": 1584,
      "via": 1585,
      "difference": 1586,
      "life": 1587,
      "tics": 1588,
      "cyte": 1589,
      "ule": 1590,
      "dam": 1591,
      "her": 1592,
      "acy": 1593,
      "imaging": 1594,
      "volume": 1595,
      "pu": 1596,
      "pose": 1597,
      "fil": 1598,
      "pathway": 1599,
      "performance": 1600,
      "described": 1601,
      "followed": 1602,
      "aged": 1603,
      "independent": 1604,
      "nf": 1605,
      "anes": 1606,
      "content": 1607,
      "simul": 1608,
      "clear": 1609,
      "design": 1610,
      "assessed": 1611,
      "vol": 1612,
      "aro": 1613,
      "tri": 1614,
      "bro": 1615,
      "pulmonary": 1616,
      "hosp": 1617,
      "gluco": 1618,
      "tol": 1619,
      "thelial": 1620,
      "hour": 1621,
      "association": 1622,
      "las": 1623,
      "chlor": 1624,
      "fold": 1625,
      "indicated": 1626,
      "immune": 1627,
      "sk": 1628,
      "times": 1629,
      "eg": 1630,
      "cause": 1631,
      "antibody": 1632,
      "change": 1633,
      "BB": 1634,
      "pp": 1635,
      "novel": 1636,
      "value": 1637,
      "TPS": 1638,
      "sor": 1639,
      "even": 1640,
      "ids": 1641,
      "support": 1642,
      "calci": 1643,
      "required": 1644,
      "arr": 1645,
      "stage": 1646,
      "chemo": 1647,
      "grad": 1648,
      "viron": 1649,
      "highly": 1650,
      "environ": 1651,
      "ori": 1652,
      "rial": 1653,
      "ize": 1654,
      "vant": 1655,
      "inhibitor": 1656,
      "detect": 1657,
      "therapeu": 1658,
      "alter": 1659,
      "tissues": 1660,
      "ores": 1661,
      "increases": 1662,
      "app": 1663,
      "will": 1664,
      "assi": 1665,
      "cere": 1666,
      "suggesting": 1667,
      "toxicity": 1668,
      "amoun": 1669,
      "phosphoryl": 1670,
      "resulted": 1671,
      "ections": 1672,
      "ologic": 1673,
      "atin": 1674,
      "asp": 1675,
      "CE": 1676,
      "sympto": 1677,
      "rna": 1678,
      "prob": 1679,
      "lex": 1680,
      "uter": 1681,
      "scopy": 1682,
      "uni": 1683,
      "den": 1684,
      "drugs": 1685,
      "earch": 1686,
      "motor": 1687,
      "skin": 1688,
      "research": 1689,
      "where": 1690,
      "factors": 1691,
      "calcium": 1692,
      "separ": 1693,
      "percent": 1694,
      "subst": 1695,
      "surgical": 1696,
      "cit": 1697,
      "matory": 1698,
      "hypothe": 1699,
      "ga": 1700,
      "expl": 1701,
      "nerve": 1702,
      "relative": 1703,
      "atur": 1704,
      "ening": 1705,
      "accum": 1706,
      "position": 1707,
      "experiments": 1708,
      "class": 1709,
      "la": 1710,
      "enhanced": 1711,
      "lig": 1712,
      "dium": 1713,
      "estim": 1714,
      "down": 1715,
      "information": 1716,
      "contrac": 1717,
      "chrom": 1718,
      "cardio": 1719,
      "success": 1720,
      "marked": 1721,
      "remo": 1722,
      "affect": 1723,
      "useful": 1724,
      "AD": 1725,
      "mental": 1726,
      "inflammatory": 1727,
      "injury": 1728,
      "omic": 1729,
      "metry": 1730,
      "bre": 1731,
      "mouse": 1732,
      "liver": 1733,
      "cycl": 1734,
      "uses": 1735,
      "seen": 1736,
      "given": 1737,
      "mission": 1738,
      "demonstrate": 1739,
      "stric": 1740,
      "ually": 1741,
      "antagon": 1742,
      "being": 1743,
      "occurred": 1744,
      "analyzed": 1745,
      "correlated": 1746,
      "dys": 1747,
      "therapeutic": 1748,
      "regions": 1749,
      "wa": 1750,
      "ire": 1751,
      "lik": 1752,
      "consistent": 1753,
      "hol": 1754,
      "neurons": 1755,
      "phar": 1756,
      "models": 1757,
      "generation": 1758,
      "ution": 1759,
      "dens": 1760,
      "ones": 1761,
      "diseases": 1762,
      "since": 1763,
      "investigate": 1764,
      "mix": 1765,
      "cut": 1766,
      "fibro": 1767,
      "come": 1768,
      "ists": 1769,
      "tak": 1770,
      "ines": 1771,
      "tim": 1772,
      "carcinoma": 1773,
      "exercise": 1774,
      "cp": 1775,
      "prevent": 1776,
      "abnormal": 1777,
      "suggested": 1778,
      "bs": 1779,
      "index": 1780,
      "atten": 1781,
      "nucleus": 1782,
      "apop": 1783,
      "ets": 1784,
      "ring": 1785,
      "evaluate": 1786,
      "relation": 1787,
      "ances": 1788,
      "cu": 1789,
      "condition": 1790,
      "chain": 1791,
      "interaction": 1792,
      "photo": 1793,
      "apopto": 1794,
      "don": 1795,
      "PA": 1796,
      "rand": 1797,
      "tle": 1798,
      "furthermore": 1799,
      "ventric": 1800,
      "suff": 1801,
      "seg": 1802,
      "rho": 1803,
      "subsequ": 1804,
      "bel": 1805,
      "approach": 1806,
      "bu": 1807,
      "camp": 1808,
      "sidered": 1809,
      "recogn": 1810,
      "considered": 1811,
      "key": 1812,
      "random": 1813,
      "derived": 1814,
      "included": 1815,
      "pregn": 1816,
      "sity": 1817,
      "NC": 1818,
      "ney": 1819,
      "transi": 1820,
      "carri": 1821,
      "ade": 1822,
      "smo": 1823,
      "pair": 1824,
      "incidence": 1825,
      "ified": 1826,
      "tric": 1827,
      "ined": 1828,
      "overall": 1829,
      "intest": 1830,
      "tural": 1831,
      "cence": 1832,
      "sex": 1833,
      "initial": 1834,
      "hd": 1835,
      "orig": 1836,
      "short": 1837,
      "agents": 1838,
      "eric": 1839,
      "eth": 1840,
      "phosphate": 1841,
      "strains": 1842,
      "RA": 1843,
      "fraction": 1844,
      "systems": 1845,
      "SP": 1846,
      "kid": 1847,
      "exten": 1848,
      "put": 1849,
      "hospital": 1850,
      "construc": 1851,
      "mort": 1852,
      "kidney": 1853,
      "agg": 1854,
      "improved": 1855,
      "term": 1856,
      "mia": 1857,
      "influence": 1858,
      "absence": 1859,
      "bar": 1860,
      "CP": 1861,
      "might": 1862,
      "distrib": 1863,
      "identify": 1864,
      "repe": 1865,
      "trial": 1866,
      "invas": 1867,
      "pig": 1868,
      "oly": 1869,
      "feren": 1870,
      "sc": 1871,
      "chromo": 1872,
      "iat": 1873,
      "sens": 1874,
      "standard": 1875,
      "thir": 1876,
      "rence": 1877,
      "chann": 1878,
      "ef": 1879,
      "agement": 1880,
      "SM": 1881,
      "available": 1882,
      "mas": 1883,
      "dig": 1884,
      "suppres": 1885,
      "cum": 1886,
      "ancy": 1887,
      "tub": 1888,
      "heter": 1889,
      "oxide": 1890,
      "posed": 1891,
      "suggests": 1892,
      "itor": 1893,
      "physiological": 1894,
      "received": 1895,
      "family": 1896,
      "genous": 1897,
      "ng": 1898,
      "features": 1899,
      "dop": 1900,
      "comparis": 1901,
      "particip": 1902,
      "mt": 1903,
      "assay": 1904,
      "label": 1905,
      "accur": 1906,
      "ergic": 1907,
      "rare": 1908,
      "iratory": 1909,
      "achie": 1910,
      "induction": 1911,
      "lear": 1912,
      "sider": 1913,
      "lipo": 1914,
      "thyro": 1915,
      "cour": 1916,
      "pheno": 1917,
      "agen": 1918,
      "ling": 1919,
      "ultr": 1920,
      "compound": 1921,
      "eral": 1922,
      "made": 1923,
      "least": 1924,
      "orders": 1925,
      "inary": 1926,
      "pharmac": 1927,
      "week": 1928,
      "uptake": 1929,
      "ward": 1930,
      "zation": 1931,
      "emia": 1932,
      "management": 1933,
      "sd": 1934,
      "confirmed": 1935,
      "conclusion": 1936,
      "accor": 1937,
      "understand": 1938,
      "cross": 1939,
      "elevated": 1940,
      "scal": 1941,
      "mortality": 1942,
      "load": 1943,
      "tests": 1944,
      "secretion": 1945,
      "fic": 1946,
      "mel": 1947,
      "myocardi": 1948,
      "average": 1949,
      "histolog": 1950,
      "HR": 1951,
      "consider": 1952,
      "coron": 1953,
      "net": 1954,
      "temperature": 1955,
      "ger": 1956,
      "abil": 1957,
      "applied": 1958,
      "density": 1959,
      "nas": 1960,
      "often": 1961,
      "individual": 1962,
      "tp": 1963,
      "metric": 1964,
      "metabolism": 1965,
      "verse": 1966,
      "characteristics": 1967,
      "SD": 1968,
      "polar": 1969,
      "doses": 1970,
      "scre": 1971,
      "breas": 1972,
      "prac": 1973,
      "cept": 1974,
      "atp": 1975,
      "ential": 1976,
      "death": 1977,
      "sour": 1978,
      "tyl": 1979,
      "solution": 1980,
      "anal": 1981,
      "lantation": 1982,
      "synap": 1983,
      "asis": 1984,
      "techniques": 1985,
      "chond": 1986,
      "healthy": 1987,
      "vation": 1988,
      "venous": 1989,
      "appa": 1990,
      "duration": 1991,
      "combined": 1992,
      "breast": 1993,
      "nu": 1994,
      "stress": 1995,
      "leng": 1996,
      "ially": 1997,
      "ana": 1998,
      "ulations": 1999,
      "lipid": 2000,
      "bene": 2001,
      "lateral": 2002,
      "medical": 2003,
      "measurements": 2004,
      "followup": 2005,
      "residu": 2006,
      "sodium": 2007,
      "program": 2008,
      "ise": 2009,
      "cholester": 2010,
      "phys": 2011,
      "itis": 2012,
      "procedure": 2013,
      "andor": 2014,
      "intracellular": 2015,
      "quantit": 2016,
      "LT": 2017,
      "pen": 2018,
      "arterial": 2019,
      "integr": 2020,
      "apoptosis": 2021,
      "functional": 2022,
      "strateg": 2023,
      "likely": 2024,
      "fully": 2025,
      "PI": 2026,
      "adi": 2027,
      "visual": 2028,
      "damage": 2029,
      "tured": 2030,
      "md": 2031,
      "preval": 2032,
      "stitu": 2033,
      "diagnostic": 2034,
      "mitochond": 2035,
      "charg": 2036,
      "block": 2037,
      "sch": 2038,
      "proble": 2039,
      "myel": 2040,
      "proliferation": 2041,
      "does": 2042,
      "minant": 2043,
      "interval": 2044,
      "correspon": 2045,
      "solu": 2046,
      "calcul": 2047,
      "coronary": 2048,
      "material": 2049,
      "ands": 2050,
      "ible": 2051,
      "lying": 2052,
      "posto": 2053,
      "hydroxy": 2054,
      "mutations": 2055,
      "stimulated": 2056,
      "female": 2057,
      "cholesterol": 2058,
      "oti": 2059,
      "improve": 2060,
      "transport": 2061,
      "iii": 2062,
      "ato": 2063,
      "conver": 2064,
      "obj": 2065,
      "fluid": 2066,
      "AA": 2067,
      "spectro": 2068,
      "medium": 2069,
      "sequences": 2070,
      "disorders": 2071,
      "hc": 2072,
      "signaling": 2073,
      "iter": 2074,
      "recently": 2075,
      "rs": 2076,
      "fa": 2077,
      "espec": 2078,
      "incub": 2079,
      "biological": 2080,
      "according": 2081,
      "descri": 2082,
      "acids": 2083,
      "established": 2084,
      "ED": 2085,
      "few": 2086,
      "differentiation": 2087,
      "simp": 2088,
      "angio": 2089,
      "fluores": 2090,
      "better": 2091,
      "lines": 2092,
      "allel": 2093,
      "taken": 2094,
      "spinal": 2095,
      "glyco": 2096,
      "still": 2097,
      "components": 2098,
      "distinc": 2099,
      "effective": 2100,
      "regulated": 2101,
      "read": 2102,
      "hg": 2103,
      "postoper": 2104,
      "bor": 2105,
      "astro": 2106,
      "radiation": 2107,
      "hetero": 2108,
      "formed": 2109,
      "experi": 2110,
      "flex": 2111,
      "mediate": 2112,
      "minim": 2113,
      "rup": 2114,
      "reli": 2115,
      "field": 2116,
      "ral": 2117,
      "embr": 2118,
      "gran": 2119,
      "bur": 2120,
      "malign": 2121,
      "exposure": 2122,
      "row": 2123,
      "cies": 2124,
      "capac": 2125,
      "she": 2126,
      "CM": 2127,
      "att": 2128,
      "SF": 2129,
      "train": 2130,
      "bloc": 2131,
      "fed": 2132,
      "fas": 2133,
      "complications": 2134,
      "poor": 2135,
      "C1": 2136,
      "cry": 2137,
      "release": 2138,
      "young": 2139,
      "ry": 2140,
      "infusion": 2141,
      "modul": 2142,
      "large": 2143,
      "discussed": 2144,
      "would": 2145,
      "structures": 2146,
      "labor": 2147,
      "AT": 2148,
      "processes": 2149,
      "pathy": 2150,
      "additional": 2151,
      "mentation": 2152,
      "ventricular": 2153,
      "toge": 2154,
      "hs": 2155,
      "stre": 2156,
      "comparison": 2157,
      "together": 2158,
      "heart": 2159,
      "acetyl": 2160,
      "step": 2161,
      "Cs": 2162,
      "tili": 2163,
      "gam": 2164,
      "status": 2165,
      "lac": 2166,
      "efficient": 2167,
      "good": 2168,
      "hours": 2169,
      "outcome": 2170,
      "sle": 2171,
      "nuclear": 2172,
      "ils": 2173,
      "ultras": 2174,
      "amide": 2175,
      "represent": 2176,
      "ker": 2177,
      "indicating": 2178,
      "activated": 2179,
      "operative": 2180,
      "atal": 2181,
      "basis": 2182,
      "fin": 2183,
      "uals": 2184,
      "interactions": 2185,
      "asto": 2186,
      "chall": 2187,
      "functions": 2188,
      "assessment": 2189,
      "nit": 2190,
      "patterns": 2191,
      "PET": 2192,
      "perfusion": 2193,
      "selective": 2194,
      "conven": 2195,
      "electron": 2196,
      "exposed": 2197,
      "rin": 2198,
      "viral": 2199,
      "cortical": 2200,
      "intestinal": 2201,
      "failure": 2202,
      "inity": 2203,
      "ators": 2204,
      "metast": 2205,
      "linear": 2206,
      "yi": 2207,
      "cutaneous": 2208,
      "individuals": 2209,
      "colon": 2210,
      "homo": 2211,
      "absor": 2212,
      "IP": 2213,
      "pal": 2214,
      "sions": 2215,
      "hepatic": 2216,
      "bound": 2217,
      "oste": 2218,
      "pathways": 2219,
      "betes": 2220,
      "hypertension": 2221,
      "diabetes": 2222,
      "pyr": 2223,
      "phosphorylation": 2224,
      "especially": 2225,
      "peak": 2226,
      "enzymes": 2227,
      "hand": 2228,
      "essential": 2229,
      "pv": 2230,
      "went": 2231,
      "BA": 2232,
      "molecules": 2233,
      "seven": 2234,
      "cas": 2235,
      "altern": 2236,
      "conf": 2237,
      "adh": 2238,
      "implic": 2239,
      "possi": 2240,
      "xyl": 2241,
      "arch": 2242,
      "metabolic": 2243,
      "ulo": 2244,
      "ue": 2245,
      "eline": 2246,
      "adju": 2247,
      "leuk": 2248,
      "hormone": 2249,
      "IS": 2250,
      "ian": 2251,
      "mig": 2252,
      "deg": 2253,
      "moder": 2254,
      "inhibitors": 2255,
      "cing": 2256,
      "anter": 2257,
      "PD": 2258,
      "analyses": 2259,
      "mb": 2260,
      "bers": 2261,
      "basal": 2262,
      "hiv": 2263,
      "daily": 2264,
      "mn": 2265,
      "glucose": 2266,
      "pite": 2267,
      "proposed": 2268,
      "structural": 2269,
      "vaso": 2270,
      "upl": 2271,
      "ides": 2272,
      "versus": 2273,
      "despite": 2274,
      "reactive": 2275,
      "thyroid": 2276,
      "vic": 2277,
      "tively": 2278,
      "urine": 2279,
      "athe": 2280,
      "point": 2281,
      "resulting": 2282,
      "necess": 2283,
      "frag": 2284,
      "application": 2285,
      "ERP": 2286,
      "delay": 2287,
      "prior": 2288,
      "examination": 2289,
      "macroph": 2290,
      "pers": 2291,
      "classi": 2292,
      "polymer": 2293,
      "sequence": 2294,
      "initi": 2295,
      "enco": 2296,
      "underwent": 2297,
      "cf": 2298,
      "unit": 2299,
      "NA": 2300,
      "off": 2301,
      "epend": 2302,
      "tas": 2303,
      "portion": 2304,
      "stro": 2305,
      "vac": 2306,
      "safe": 2307,
      "monitor": 2308,
      "max": 2309,
      "length": 2310,
      "arol": 2311,
      "abo": 2312,
      "respiratory": 2313,
      "resistant": 2314,
      "limited": 2315,
      "lesion": 2316,
      "progno": 2317,
      "pto": 2318,
      "vit": 2319,
      "them": 2320,
      "asy": 2321,
      "try": 2322,
      "component": 2323,
      "forms": 2324,
      "nitro": 2325,
      "maximum": 2326,
      "allo": 2327,
      "hemo": 2328,
      "bacterial": 2329,
      "degree": 2330,
      "coc": 2331,
      "moreover": 2332,
      "upon": 2333,
      "cogn": 2334,
      "sample": 2335,
      "np": 2336,
      "tory": 2337,
      "icul": 2338,
      "origin": 2339,
      "bri": 2340,
      "wall": 2341,
      "apparent": 2342,
      "graphy": 2343,
      "plat": 2344,
      "mutant": 2345,
      "mutation": 2346,
      "remains": 2347,
      "ST": 2348,
      "yearol": 2349,
      "comm": 2350,
      "imin": 2351,
      "selected": 2352,
      "scopic": 2353,
      "DP": 2354,
      "last": 2355,
      "vess": 2356,
      "enced": 2357,
      "bir": 2358,
      "zy": 2359,
      "rogen": 2360,
      "tral": 2361,
      "myocardial": 2362,
      "biop": 2363,
      "commun": 2364,
      "idity": 2365,
      "defined": 2366,
      "sw": 2367,
      "retro": 2368,
      "microgram": 2369,
      "prevalence": 2370,
      "amy": 2371,
      "yearold": 2372,
      "median": 2373,
      "right": 2374,
      "somes": 2375,
      "exhibited": 2376,
      "capacity": 2377,
      "pg": 2378,
      "sts": 2379,
      "trig": 2380,
      "ros": 2381,
      "itation": 2382,
      "phal": 2383,
      "spon": 2384,
      "purpose": 2385,
      "chromat": 2386,
      "sites": 2387,
      "wild": 2388,
      "units": 2389,
      "idi": 2390,
      "fit": 2391,
      "resh": 2392,
      "coupl": 2393,
      "eight": 2394,
      "late": 2395,
      "const": 2396,
      "PM": 2397,
      "sized": 2398,
      "tration": 2399,
      "hyth": 2400,
      "conducted": 2401,
      "lact": 2402,
      "mation": 2403,
      "accumulation": 2404,
      "impact": 2405,
      "appears": 2406,
      "distinct": 2407,
      "ered": 2408,
      "ressive": 2409,
      "critical": 2410,
      "lay": 2411,
      "bul": 2412,
      "ographic": 2413,
      "epithelial": 2414,
      "refl": 2415,
      "alk": 2416,
      "neo": 2417,
      "eti": 2418,
      "ow": 2419,
      "ischem": 2420,
      "hydrogen": 2421,
      "enhance": 2422,
      "tau": 2423,
      "directly": 2424,
      "acro": 2425,
      "meter": 2426,
      "ov": 2427,
      "course": 2428,
      "gh": 2429,
      "slow": 2430,
      "izing": 2431,
      "ards": 2432,
      "deli": 2433,
      "seem": 2434,
      "thanol": 2435,
      "controlled": 2436,
      "ron": 2437,
      "amount": 2438,
      "somal": 2439,
      "populations": 2440,
      "bc": 2441,
      "conclude": 2442,
      "products": 2443,
      "tex": 2444,
      "how": 2445,
      "conventional": 2446,
      "proto": 2447,
      "great": 2448,
      "neuronal": 2449,
      "diabe": 2450,
      "located": 2451,
      "subsequent": 2452,
      "vention": 2453,
      "steroid": 2454,
      "terminal": 2455,
      "toler": 2456,
      "proj": 2457,
      "decreas": 2458,
      "pathological": 2459,
      "cepti": 2460,
      "nine": 2461,
      "omas": 2462,
      "mour": 2463,
      "interest": 2464,
      "acet": 2465,
      "recorded": 2466,
      "gel": 2467,
      "cataly": 2468,
      "phe": 2469,
      "whole": 2470,
      "near": 2471,
      "CB": 2472,
      "disorder": 2473,
      "hypothesis": 2474,
      "adap": 2475,
      "commend": 2476,
      "ised": 2477,
      "induce": 2478,
      "eding": 2479,
      "repl": 2480,
      "jo": 2481,
      "recommend": 2482,
      "stained": 2483,
      "NF": 2484,
      "postoperative": 2485,
      "head": 2486,
      "spective": 2487,
      "require": 2488,
      "situ": 2489,
      "appeared": 2490,
      "later": 2491,
      "sac": 2492,
      "provides": 2493,
      "ration": 2494,
      "cardiovascular": 2495,
      "prolong": 2496,
      "grade": 2497,
      "ergy": 2498,
      "super": 2499,
      "metal": 2500,
      "food": 2501,
      "sulf": 2502,
      "half": 2503,
      "dou": 2504,
      "duce": 2505,
      "paper": 2506,
      "ables": 2507,
      "sely": 2508,
      "much": 2509,
      "baseline": 2510,
      "aor": 2511,
      "relatively": 2512,
      "imens": 2513,
      "coli": 2514,
      "achieved": 2515,
      "itive": 2516,
      "mature": 2517,
      "tumour": 2518,
      "include": 2519,
      "affinity": 2520,
      "understanding": 2521,
      "wide": 2522,
      "consu": 2523,
      "collected": 2524,
      "particularly": 2525,
      "prop": 2526,
      "netic": 2527,
      "carbo": 2528,
      "suscepti": 2529,
      "adv": 2530,
      "cycle": 2531,
      "purified": 2532,
      "accoun": 2533,
      "ina": 2534,
      "mainly": 2535,
      "spontaneous": 2536,
      "PH": 2537,
      "experiment": 2538,
      "little": 2539,
      "ito": 2540,
      "toxin": 2541,
      "dal": 2542,
      "ped": 2543,
      "stit": 2544,
      "cultures": 2545,
      "bol": 2546,
      "persis": 2547,
      "thor": 2548,
      "supple": 2549,
      "altered": 2550,
      "sep": 2551,
      "comes": 2552,
      "continuous": 2553,
      "junc": 2554,
      "map": 2555,
      "agent": 2556,
      "CC": 2557,
      "artic": 2558,
      "sper": 2559,
      "causes": 2560,
      "sil": 2561,
      "remained": 2562,
      "pregnancy": 2563,
      "reduce": 2564,
      "responsible": 2565,
      "markers": 2566,
      "muco": 2567,
      "undergo": 2568,
      "utili": 2569,
      "explo": 2570,
      "criter": 2571,
      "fetal": 2572,
      "symptoms": 2573,
      "phenyl": 2574,
      "pine": 2575,
      "explain": 2576,
      "ependent": 2577,
      "clonal": 2578,
      "LD": 2579,
      "anterior": 2580,
      "above": 2581,
      "mv": 2582,
      "prepar": 2583,
      "bed": 2584,
      "scan": 2585,
      "back": 2586,
      "invasive": 2587,
      "sleep": 2588,
      "events": 2589,
      "occurs": 2590,
      "VI": 2591,
      "gli": 2592,
      "thrombo": 2593,
      "describe": 2594,
      "tail": 2595,
      "know": 2596,
      "open": 2597,
      "sr": 2598,
      "utes": 2599,
      "treatments": 2600,
      "series": 2601,
      "literature": 2602,
      "chemotherapy": 2603,
      "ono": 2604,
      "deriv": 2605,
      "general": 2606,
      "extent": 2607,
      "highest": 2608,
      "modified": 2609,
      "correc": 2610,
      "excit": 2611,
      "pcr": 2612,
      "ased": 2613,
      "aring": 2614,
      "facil": 2615,
      "cord": 2616,
      "tico": 2617,
      "reach": 2618,
      "adrenal": 2619,
      "PCD": 2620,
      "corresponding": 2621,
      "ero": 2622,
      "arm": 2623,
      "carbon": 2624,
      "oth": 2625,
      "pac": 2626,
      "ulated": 2627,
      "diagnosed": 2628,
      "difficul": 2629,
      "illary": 2630,
      "cn": 2631,
      "embry": 2632,
      "loy": 2633,
      "inflammation": 2634,
      "diabetic": 2635,
      "microscopy": 2636,
      "SA": 2637,
      "ety": 2638,
      "dysfunction": 2639,
      "quantitative": 2640,
      "potent": 2641,
      "pass": 2642,
      "injection": 2643,
      "dl": 2644,
      "outcomes": 2645,
      "cultured": 2646,
      "testing": 2647,
      "improvement": 2648,
      "mented": 2649,
      "bac": 2650,
      "gal": 2651,
      "rab": 2652,
      "impair": 2653,
      "infections": 2654,
      "lum": 2655,
      "ural": 2656,
      "collagen": 2657,
      "RPA": 2658,
      "pk": 2659,
      "intro": 2660,
      "ectomy": 2661,
      "generated": 2662,
      "detection": 2663,
      "transplantation": 2664,
      "specificity": 2665,
      "contribute": 2666,
      "animal": 2667,
      "hydr": 2668,
      "substanti": 2669,
      "estimated": 2670,
      "arc": 2671,
      "iron": 2672,
      "aa": 2673,
      "aortic": 2674,
      "manner": 2675,
      "ference": 2676,
      "fish": 2677,
      "olip": 2678,
      "cortico": 2679,
      "location": 2680,
      "carried": 2681,
      "oxidation": 2682,
      "residues": 2683,
      "section": 2684,
      "means": 2685,
      "predo": 2686,
      "bind": 2687,
      "thick": 2688,
      "igg": 2689,
      "incor": 2690,
      "training": 2691,
      "restric": 2692,
      "gastric": 2693,
      "necessary": 2694,
      "fs": 2695,
      "leading": 2696,
      "adhes": 2697,
      "benz": 2698,
      "stability": 2699,
      "ocytes": 2700,
      "ext": 2701,
      "ram": 2702,
      "deficiency": 2703,
      "sterone": 2704,
      "ification": 2705,
      "oxidative": 2706,
      "echo": 2707,
      "depression": 2708,
      "along": 2709,
      "frequently": 2710,
      "malignant": 2711,
      "cyclo": 2712,
      "sci": 2713,
      "top": 2714,
      "phil": 2715,
      "produce": 2716,
      "plant": 2717,
      "mam": 2718,
      "tin": 2719,
      "promis": 2720,
      "involvement": 2721,
      "cognitive": 2722,
      "tation": 2723,
      "measures": 2724,
      "guid": 2725,
      "adults": 2726,
      "accomp": 2727,
      "progression": 2728,
      "mc": 2729,
      "ched": 2730,
      "dogs": 2731,
      "assays": 2732,
      "CSD": 2733,
      "self": 2734,
      "provided": 2735,
      "infected": 2736,
      "wid": 2737,
      "limit": 2738,
      "simultaneous": 2739,
      "exclu": 2740,
      "importance": 2741,
      "ID": 2742,
      "calculated": 2743,
      "dri": 2744,
      "effic": 2745,
      "infants": 2746,
      "maximal": 2747,
      "uv": 2748,
      "bron": 2749,
      "intravenous": 2750,
      "complexes": 2751,
      "extracellular": 2752,
      "synaptic": 2753,
      "pb": 2754,
      "periph": 2755,
      "plasmic": 2756,
      "urinary": 2757,
      "muscl": 2758,
      "statistic": 2759,
      "across": 2760,
      "complete": 2761,
      "MIC": 2762,
      "degrad": 2763,
      "fast": 2764,
      "zing": 2765,
      "host": 2766,
      "skel": 2767,
      "screening": 2768,
      "recombin": 2769,
      "fix": 2770,
      "linked": 2771,
      "analog": 2772,
      "dm": 2773,
      "platel": 2774,
      "onin": 2775,
      "tool": 2776,
      "sition": 2777,
      "underlying": 2778,
      "asts": 2779,
      "score": 2780,
      "mitochondrial": 2781,
      "simple": 2782,
      "istry": 2783,
      "activities": 2784,
      "VVI": 2785,
      "ars": 2786,
      "psych": 2787,
      "distribution": 2788,
      "knowled": 2789,
      "place": 2790,
      "fluorescence": 2791,
      "techn": 2792,
      "experimental": 2793,
      "magnetic": 2794,
      "intensity": 2795,
      "idine": 2796,
      "certain": 2797,
      "adult": 2798,
      "TA": 2799,
      "measurement": 2800,
      "employ": 2801,
      "mri": 2802,
      "correlation": 2803,
      "antagonist": 2804,
      "matri": 2805,
      "dil": 2806,
      "pancre": 2807,
      "monitoring": 2808,
      "alterations": 2809,
      "arily": 2810,
      "changed": 2811,
      "iving": 2812,
      "ude": 2813,
      "lymphocytes": 2814,
      "aggreg": 2815,
      "incorpor": 2816,
      "MI": 2817,
      "alco": 2818,
      "NS": 2819,
      "scale": 2820,
      "base": 2821,
      "force": 2822,
      "laboratory": 2823,
      "dele": 2824,
      "procedures": 2825,
      "weak": 2826,
      "partial": 2827,
      "lv": 2828,
      "cathe": 2829,
      "micrograms": 2830,
      "VR": 2831,
      "alcohol": 2832,
      "stren": 2833,
      "olig": 2834,
      "retic": 2835,
      "strongly": 2836,
      "source": 2837,
      "bral": 2838,
      "amplit": 2839,
      "anesthe": 2840,
      "tility": 2841,
      "sufficient": 2842,
      "third": 2843,
      "AC": 2844,
      "add": 2845,
      "display": 2846,
      "slight": 2847,
      "conn": 2848,
      "choline": 2849,
      "bacteria": 2850,
      "knowledge": 2851,
      "bic": 2852,
      "nic": 2853,
      "tice": 2854,
      "energy": 2855,
      "rad": 2856,
      "liqu": 2857,
      "cryst": 2858,
      "constant": 2859,
      "muscles": 2860,
      "MICs": 2861,
      "unknown": 2862,
      "examine": 2863,
      "tid": 2864,
      "exist": 2865,
      "observ": 2866,
      "month": 2867,
      "obes": 2868,
      "channel": 2869,
      "atrial": 2870,
      "clinically": 2871,
      "usually": 2872,
      "hout": 2873,
      "rather": 2874,
      "pot": 2875,
      "imen": 2876,
      "plays": 2877,
      "criteria": 2878,
      "objective": 2879,
      "streng": 2880,
      "DU": 2881,
      "ba": 2882,
      "males": 2883,
      "severity": 2884,
      "delivery": 2885,
      "neon": 2886,
      "transf": 2887,
      "matrix": 2888,
      "sar": 2889,
      "hypox": 2890,
      "hippo": 2891,
      "quality": 2892,
      "particles": 2893,
      "environment": 2894,
      "AP": 2895,
      "poster": 2896,
      "medic": 2897,
      "V1": 2898,
      "scores": 2899,
      "removal": 2900,
      "fluor": 2901,
      "hex": 2902,
      "ements": 2903,
      "valid": 2904,
      "inner": 2905,
      "question": 2906,
      "apy": 2907,
      "prepa": 2908,
      "surve": 2909,
      "neural": 2910,
      "tumors": 2911,
      "EM": 2912,
      "lc": 2913,
      "polymorph": 2914,
      "states": 2915,
      "ethyl": 2916,
      "temporal": 2917,
      "recombinant": 2918,
      "processing": 2919,
      "reson": 2920,
      "differ": 2921,
      "best": 2922,
      "land": 2923,
      "endogenous": 2924,
      "aired": 2925,
      "ls": 2926,
      "shif": 2927,
      "mild": 2928,
      "sensitive": 2929,
      "iatric": 2930,
      "repair": 2931,
      "reactivity": 2932,
      "plus": 2933,
      "perit": 2934,
      "percentage": 2935,
      "ws": 2936,
      "elic": 2937,
      "prepared": 2938,
      "expected": 2939,
      "chromatography": 2940,
      "nucleoti": 2941,
      "thre": 2942,
      "impaired": 2943,
      "promoter": 2944,
      "opti": 2945,
      "marrow": 2946,
      "ious": 2947,
      "dra": 2948,
      "regar": 2949,
      "social": 2950,
      "angi": 2951,
      "hippocamp": 2952,
      "ints": 2953,
      "central": 2954,
      "double": 2955,
      "mption": 2956,
      "labeled": 2957,
      "absorption": 2958,
      "PP": 2959,
      "atives": 2960,
      "having": 2961,
      "fut": 2962,
      "lack": 2963,
      "marker": 2964,
      "AM": 2965,
      "sia": 2966,
      "vered": 2967,
      "areas": 2968,
      "syl": 2969,
      "shows": 2970,
      "injected": 2971,
      "loid": 2972,
      "star": 2973,
      "presents": 2974,
      "concluded": 2975,
      "transmission": 2976,
      "rabb": 2977,
      "erythro": 2978,
      "larger": 2979,
      "istered": 2980,
      "obic": 2981,
      "ran": 2982,
      "umin": 2983,
      "charge": 2984,
      "specif": 2985,
      "NP": 2986,
      "culture": 2987,
      "designed": 2988,
      "acqu": 2989,
      "phospholip": 2990,
      "tt": 2991,
      "magn": 2992,
      "isolates": 2993,
      "bv": 2994,
      "bial": 2995,
      "occlu": 2996,
      "vaccin": 2997,
      "rib": 2998,
      "trials": 2999,
      "future": 3000,
      "immunohisto": 3001,
      "alternative": 3002,
      "concer": 3003,
      "yet": 3004,
      "ontal": 3005,
      "efficiency": 3006,
      "incubation": 3007,
      "HF": 3008,
      "compos": 3009,
      "markedly": 3010,
      "internal": 3011,
      "kinetics": 3012,
      "recur": 3013,
      "adjust": 3014,
      "phr": 3015,
      "compare": 3016,
      "chemistry": 3017,
      "oxidase": 3018,
      "prolonged": 3019,
      "gab": 3020,
      "paren": 3021,
      "tract": 3022,
      "pathogenesis": 3023,
      "tnf": 3024,
      "dors": 3025,
      "yr": 3026,
      "conser": 3027,
      "mechanical": 3028,
      "dietary": 3029,
      "moderate": 3030,
      "alysis": 3031,
      "contained": 3032,
      "pow": 3033,
      "females": 3034,
      "Az": 3035,
      "IM": 3036,
      "organic": 3037,
      "replac": 3038,
      "specimens": 3039,
      "glomer": 3040,
      "protective": 3041,
      "product": 3042,
      "quin": 3043,
      "plastic": 3044,
      "ON": 3045,
      "ound": 3046,
      "sm": 3047,
      "depres": 3048,
      "investigation": 3049,
      "must": 3050,
      "gain": 3051,
      "oked": 3052,
      "nano": 3053,
      "acts": 3054,
      "antibio": 3055,
      "manif": 3056,
      "molecule": 3057,
      "phenotype": 3058,
      "optim": 3059,
      "probably": 3060,
      "ires": 3061,
      "osine": 3062,
      "nk": 3063,
      "rich": 3064,
      "angli": 3065,
      "osin": 3066,
      "kinetic": 3067,
      "sn": 3068,
      "dopamine": 3069,
      "jug": 3070,
      "statistically": 3071,
      "onucle": 3072,
      "macrophages": 3073,
      "wildtype": 3074,
      "excre": 3075,
      "differential": 3076,
      "efficacy": 3077,
      "SL": 3078,
      "real": 3079,
      "thelium": 3080,
      "fatty": 3081,
      "lap": 3082,
      "pm": 3083,
      "xr": 3084,
      "longer": 3085,
      "developing": 3086,
      "axis": 3087,
      "SQ": 3088,
      "fav": 3089,
      "reproduc": 3090,
      "coag": 3091,
      "chromosome": 3092,
      "gastro": 3093,
      "shor": 3094,
      "AL": 3095,
      "composition": 3096,
      "variety": 3097,
      "posterior": 3098,
      "alone": 3099,
      "sional": 3100,
      "far": 3101,
      "help": 3102,
      "cb": 3103,
      "another": 3104,
      "synthetic": 3105,
      "EDC": 3106,
      "liquid": 3107,
      "vitamin": 3108,
      "ges": 3109,
      "valent": 3110,
      "turn": 3111,
      "establish": 3112,
      "predominant": 3113,
      "pancreatic": 3114,
      "peripheral": 3115,
      "stages": 3116,
      "stimuli": 3117,
      "AR": 3118,
      "sum": 3119,
      "cortex": 3120,
      "throug": 3121,
      "radio": 3122,
      "hl": 3123,
      "throughout": 3124,
      "trunc": 3125,
      "participants": 3126,
      "specifically": 3127,
      "ching": 3128,
      "spati": 3129,
      "mitted": 3130,
      "infarc": 3131,
      "ficial": 3132,
      "bile": 3133,
      "transient": 3134,
      "leads": 3135,
      "finally": 3136,
      "ben": 3137,
      "now": 3138,
      "cler": 3139,
      "predicted": 3140,
      "pin": 3141,
      "images": 3142,
      "geno": 3143,
      "famil": 3144,
      "ethanol": 3145,
      "len": 3146,
      "rapidly": 3147,
      "reactions": 3148,
      "csf": 3149,
      "thi": 3150,
      "terms": 3151,
      "resonance": 3152,
      "distal": 3153,
      "optimal": 3154,
      "fact": 3155,
      "commonly": 3156,
      "dg": 3157,
      "rb": 3158,
      "facilit": 3159,
      "kines": 3160,
      "err": 3161,
      "PL": 3162,
      "fu": 3163,
      "profile": 3164,
      "environmental": 3165,
      "gamma": 3166,
      "spor": 3167,
      "auth": 3168,
      "skeletal": 3169,
      "authors": 3170,
      "ecting": 3171,
      "follic": 3172,
      "applic": 3173,
      "bell": 3174,
      "spe": 3175,
      "humans": 3176,
      "nuclei": 3177,
      "involving": 3178,
      "almost": 3179,
      "cip": 3180,
      "currently": 3181,
      "oles": 3182,
      "hz": 3183,
      "ings": 3184,
      "exo": 3185,
      "extre": 3186,
      "neph": 3187,
      "hist": 3188,
      "ike": 3189,
      "atase": 3190,
      "ectin": 3191,
      "variables": 3192,
      "rise": 3193,
      "fibr": 3194,
      "delayed": 3195,
      "verex": 3196,
      "protocol": 3197,
      "dp": 3198,
      "determination": 3199,
      "dorsal": 3200,
      "IV": 3201,
      "adeno": 3202,
      "sively": 3203,
      "majority": 3204,
      "biopsy": 3205,
      "proportion": 3206,
      "otherapy": 3207,
      "national": 3208,
      "ventil": 3209,
      "static": 3210,
      "econ": 3211,
      "biom": 3212,
      "onia": 3213,
      "resolution": 3214,
      "mixed": 3215,
      "reports": 3216,
      "compounds": 3217,
      "gangli": 3218,
      "article": 3219,
      "profil": 3220,
      "graf": 3221,
      "onset": 3222,
      "advant": 3223,
      "encies": 3224,
      "brid": 3225,
      "dynamics": 3226,
      "comparable": 3227,
      "blocked": 3228,
      "milk": 3229,
      "fibrobl": 3230,
      "cine": 3231,
      "phag": 3232,
      "mato": 3233,
      "unique": 3234,
      "dend": 3235,
      "cost": 3236,
      "tomo": 3237,
      "cru": 3238,
      "perior": 3239,
      "frac": 3240,
      "esoph": 3241,
      "perme": 3242,
      "needed": 3243,
      "vag": 3244,
      "protection": 3245,
      "sph": 3246,
      "hp": 3247,
      "home": 3248,
      "itary": 3249,
      "medial": 3250,
      "generally": 3251,
      "strategies": 3252,
      "vessels": 3253,
      "observations": 3254,
      "overex": 3255,
      "HS": 3256,
      "nt": 3257,
      "evaluation": 3258,
      "MS": 3259,
      "traum": 3260,
      "truncated": 3261,
      "har": 3262,
      "tac": 3263,
      "peptides": 3264,
      "repeated": 3265,
      "gest": 3266,
      "sat": 3267,
      "squ": 3268,
      "special": 3269,
      "suppor": 3270,
      "antigens": 3271,
      "tom": 3272,
      "hap": 3273,
      "tase": 3274,
      "bronch": 3275,
      "amplitude": 3276,
      "diameter": 3277,
      "ics": 3278,
      "superior": 3279,
      "pathology": 3280,
      "ented": 3281,
      "event": 3282,
      "consumption": 3283,
      "DUE": 3284,
      "stable": 3285,
      "practice": 3286,
      "colum": 3287,
      "IF": 3288,
      "bly": 3289,
      "exhibit": 3290,
      "bidity": 3291,
      "ense": 3292,
      "acr": 3293,
      "birth": 3294,
      "peritone": 3295,
      "ences": 3296,
      "kda": 3297,
      "tgf": 3298,
      "adequ": 3299,
      "adverse": 3300,
      "ibr": 3301,
      "heat": 3302,
      "ovari": 3303,
      "rt": 3304,
      "vice": 3305,
      "correl": 3306,
      "satur": 3307,
      "hom": 3308,
      "stroke": 3309,
      "administered": 3310,
      "successful": 3311,
      "strength": 3312,
      "problems": 3313,
      "tized": 3314,
      "none": 3315,
      "decreases": 3316,
      "neut": 3317,
      "progressive": 3318,
      "domin": 3319,
      "circul": 3320,
      "mode": 3321,
      "upper": 3322,
      "dents": 3323,
      "delta": 3324,
      "words": 3325,
      "reducing": 3326,
      "relevant": 3327,
      "signs": 3328,
      "spectr": 3329,
      "wave": 3330,
      "abstr": 3331,
      "lob": 3332,
      "asse": 3333,
      "task": 3334,
      "ej": 3335,
      "safety": 3336,
      "receiving": 3337,
      "alg": 3338,
      "signals": 3339,
      "cand": 3340,
      "focal": 3341,
      "longterm": 3342,
      "seiz": 3343,
      "ischemia": 3344,
      "thresh": 3345,
      "ternal": 3346,
      "viruses": 3347,
      "threshold": 3348,
      "band": 3349,
      "ore": 3350,
      "pub": 3351,
      "va": 3352,
      "weigh": 3353,
      "attenu": 3354,
      "clon": 3355,
      "estrogen": 3356,
      "aimed": 3357,
      "genital": 3358,
      "stead": 3359,
      "avage": 3360,
      "sten": 3361,
      "R2": 3362,
      "ella": 3363,
      "sera": 3364,
      "osteo": 3365,
      "inoc": 3366,
      "older": 3367,
      "truc": 3368,
      "divided": 3369,
      "reconstruc": 3370,
      "eness": 3371,
      "ula": 3372,
      "cg": 3373,
      "tb": 3374,
      "CD": 3375,
      "RE": 3376,
      "avoid": 3377,
      "olytic": 3378,
      "SH": 3379,
      "reh": 3380,
      "accuracy": 3381,
      "pes": 3382,
      "dosed": 3383,
      "respect": 3384,
      "network": 3385,
      "enge": 3386,
      "olar": 3387,
      "partially": 3388,
      "antioxid": 3389,
      "roles": 3390,
      "evoked": 3391,
      "parallel": 3392,
      "vision": 3393,
      "regarding": 3394,
      "preser": 3395,
      "systo": 3396,
      "predict": 3397,
      "let": 3398,
      "dimen": 3399,
      "teen": 3400,
      "phosphati": 3401,
      "challenge": 3402,
      "NT": 3403,
      "natur": 3404,
      "ardi": 3405,
      "infil": 3406,
      "channels": 3407,
      "motion": 3408,
      "ria": 3409,
      "become": 3410,
      "retinal": 3411,
      "ligand": 3412,
      "histological": 3413,
      "eye": 3414,
      "neum": 3415,
      "diver": 3416,
      "lysis": 3417,
      "reflex": 3418,
      "conjug": 3419,
      "until": 3420,
      "numer": 3421,
      "neurolog": 3422,
      "zo": 3423,
      "tile": 3424,
      "ofor": 3425,
      "prevention": 3426,
      "appearance": 3427,
      "ident": 3428,
      "antic": 3429,
      "rout": 3430,
      "added": 3431,
      "transl": 3432,
      "ocity": 3433,
      "indicates": 3434,
      "vices": 3435,
      "core": 3436,
      "disrup": 3437,
      "maintain": 3438,
      "typical": 3439,
      "ranged": 3440,
      "nam": 3441,
      "inhibitory": 3442,
      "monoclonal": 3443,
      "EP": 3444,
      "nature": 3445,
      "noted": 3446,
      "microbial": 3447,
      "suppression": 3448,
      "potentially": 3449,
      "artery": 3450,
      "morphological": 3451,
      "shap": 3452,
      "clearance": 3453,
      "experience": 3454,
      "plants": 3455,
      "trition": 3456,
      "electrical": 3457,
      "cerebell": 3458,
      "BL": 3459,
      "vine": 3460,
      "docum": 3461,
      "velocity": 3462,
      "amounts": 3463,
      "migration": 3464,
      "catheter": 3465,
      "points": 3466,
      "tence": 3467,
      "dyl": 3468,
      "astic": 3469,
      "orrh": 3470,
      "eler": 3471,
      "twent": 3472,
      "ergen": 3473,
      "aves": 3474,
      "recording": 3475,
      "adhesion": 3476,
      "ton": 3477,
      "reci": 3478,
      "acting": 3479,
      "strategy": 3480,
      "pecific": 3481,
      "detectable": 3482,
      "aer": 3483,
      "external": 3484,
      "frequent": 3485,
      "impairment": 3486,
      "solid": 3487,
      "extract": 3488,
      "failed": 3489,
      "around": 3490,
      "AB": 3491,
      "implant": 3492,
      "yiel": 3493,
      "cers": 3494,
      "successfully": 3495,
      "nac": 3496,
      "epile": 3497,
      "utive": 3498,
      "recurrent": 3499,
      "regard": 3500,
      "donor": 3501,
      "joint": 3502,
      "widely": 3503,
      "cyste": 3504,
      "glycer": 3505,
      "omer": 3506,
      "sig": 3507,
      "ector": 3508,
      "metabolites": 3509,
      "ulate": 3510,
      "coh": 3511,
      "randomized": 3512,
      "princ": 3513,
      "agonist": 3514,
      "numbers": 3515,
      "staining": 3516,
      "difficult": 3517,
      "significance": 3518,
      "maintained": 3519,
      "ark": 3520,
      "uration": 3521,
      "smooth": 3522,
      "exchange": 3523,
      "contraction": 3524,
      "nutrition": 3525,
      "ok": 3526,
      "vary": 3527,
      "ibility": 3528,
      "intermediate": 3529,
      "setting": 3530,
      "pap": 3531,
      "vul": 3532,
      "enter": 3533,
      "sof": 3534,
      "ldl": 3535,
      "interfer": 3536,
      "graft": 3537,
      "oh": 3538,
      "chy": 3539,
      "deficient": 3540,
      "clerosis": 3541,
      "spectrum": 3542,
      "bovine": 3543,
      "approaches": 3544,
      "suit": 3545,
      "tors": 3546,
      "localized": 3547,
      "pigs": 3548,
      "educ": 3549,
      "physical": 3550,
      "sensory": 3551,
      "ucid": 3552,
      "primarily": 3553,
      "localization": 3554,
      "stream": 3555,
      "attrib": 3556,
      "lymph": 3557,
      "maternal": 3558,
      "gon": 3559,
      "turb": 3560,
      "regional": 3561,
      "abstract": 3562,
      "ull": 3563,
      "attention": 3564,
      "problem": 3565,
      "twenty": 3566,
      "cytic": 3567,
      "chron": 3568,
      "lh": 3569,
      "paras": 3570,
      "prognosis": 3571,
      "gradi": 3572,
      "REC": 3573,
      "systolic": 3574,
      "ME": 3575,
      "apo": 3576,
      "pneum": 3577,
      "culation": 3578,
      "mir": 3579,
      "mutants": 3580,
      "accompan": 3581,
      "excretion": 3582,
      "transferase": 3583,
      "extensive": 3584,
      "spatial": 3585,
      "tensive": 3586,
      "atro": 3587,
      "except": 3588,
      "neither": 3589,
      "selection": 3590,
      "GABA": 3591,
      "wes": 3592,
      "smaller": 3593,
      "latter": 3594,
      "suppressed": 3595,
      "close": 3596,
      "candid": 3597,
      "psycho": 3598,
      "bm": 3599,
      "pse": 3600,
      "echocardi": 3601,
      "toward": 3602,
      "abund": 3603,
      "forming": 3604,
      "full": 3605,
      "world": 3606,
      "equal": 3607,
      "recognized": 3608,
      "wards": 3609,
      "uring": 3610,
      "genome": 3611,
      "ground": 3612,
      "ferred": 3613,
      "manifest": 3614,
      "faces": 3615,
      "space": 3616,
      "earli": 3617,
      "sections": 3618,
      "susceptibility": 3619,
      "radical": 3620,
      "G1": 3621,
      "wt": 3622,
      "epide": 3623,
      "defic": 3624,
      "behavioral": 3625,
      "ionic": 3626,
      "replication": 3627,
      "RNA": 3628,
      "cv": 3629,
      "consec": 3630,
      "image": 3631,
      "eno": 3632,
      "ception": 3633,
      "volun": 3634,
      "undergoing": 3635,
      "hood": 3636,
      "evolution": 3637,
      "fiber": 3638,
      "ider": 3639,
      "strates": 3640,
      "expressing": 3641,
      "requires": 3642,
      "reviewed": 3643,
      "domains": 3644,
      "chloride": 3645,
      "athetic": 3646,
      "ham": 3647,
      "lps": 3648,
      "verte": 3649,
      "focus": 3650,
      "relap": 3651,
      "below": 3652,
      "BP": 3653,
      "soil": 3654,
      "profiles": 3655,
      "contact": 3656,
      "susp": 3657,
      "secondary": 3658,
      "recognition": 3659,
      "elements": 3660,
      "cop": 3661,
      "vesic": 3662,
      "regression": 3663,
      "power": 3664,
      "pas": 3665,
      "ensitive": 3666,
      "globin": 3667,
      "confirm": 3668,
      "possibility": 3669,
      "issu": 3670,
      "thin": 3671,
      "defects": 3672,
      "cher": 3673,
      "extr": 3674,
      "melan": 3675,
      "infarction": 3676,
      "PG": 3677,
      "vacc": 3678,
      "phyl": 3679,
      "emic": 3680,
      "challeng": 3681,
      "tc": 3682,
      "anat": 3683,
      "attemp": 3684,
      "prevented": 3685,
      "CBF": 3686,
      "account": 3687,
      "fc": 3688,
      "detail": 3689,
      "tuber": 3690,
      "acetate": 3691,
      "accompanied": 3692,
      "SVR": 3693,
      "recovery": 3694,
      "morphology": 3695,
      "survey": 3696,
      "public": 3697,
      "bra": 3698,
      "cyclic": 3699,
      "western": 3700,
      "stor": 3701,
      "phylo": 3702,
      "potentials": 3703,
      "factory": 3704,
      "behavior": 3705,
      "accurate": 3706,
      "encoding": 3707,
      "coupled": 3708,
      "call": 3709,
      "ocyte": 3710,
      "prostate": 3711,
      "basic": 3712,
      "tomography": 3713,
      "every": 3714,
      "morbidity": 3715,
      "arteries": 3716,
      "seems": 3717,
      "thorac": 3718,
      "pseu": 3719,
      "sustained": 3720,
      "soluble": 3721,
      "acin": 3722,
      "community": 3723,
      "neutroph": 3724,
      "interpre": 3725,
      "crine": 3726,
      "SO": 3727,
      "idal": 3728,
      "microg": 3729,
      "vaccine": 3730,
      "contamin": 3731,
      "systemic": 3732,
      "acceler": 3733,
      "recurrence": 3734,
      "round": 3735,
      "acyl": 3736,
      "ople": 3737,
      "allows": 3738,
      "appropri": 3739,
      "chrome": 3740,
      "arrhyth": 3741,
      "recru": 3742,
      "SMB": 3743,
      "dn": 3744,
      "anced": 3745,
      "slightly": 3746,
      "access": 3747,
      "adsor": 3748,
      "synth": 3749,
      "ngml": 3750,
      "TR": 3751,
      "ination": 3752,
      "elucid": 3753,
      "neutral": 3754,
      "ey": 3755,
      "nur": 3756,
      "media": 3757,
      "cerebral": 3758,
      "native": 3759,
      "examp": 3760,
      "heterogene": 3761,
      "tl": 3762,
      "resection": 3763,
      "endothelial": 3764,
      "ratios": 3765,
      "gm": 3766,
      "pathogen": 3767,
      "relax": 3768,
      "hypothal": 3769,
      "neonatal": 3770,
      "mobil": 3771,
      "feed": 3772,
      "ectiveness": 3773,
      "pts": 3774,
      "duction": 3775,
      "balance": 3776,
      "preparation": 3777,
      "RI": 3778,
      "bd": 3779,
      "regular": 3780,
      "whose": 3781,
      "tropic": 3782,
      "iety": 3783,
      "anine": 3784,
      "prost": 3785,
      "yield": 3786,
      "sl": 3787,
      "segments": 3788,
      "aut": 3789,
      "saline": 3790,
      "thickness": 3791,
      "segment": 3792,
      "oil": 3793,
      "stabil": 3794,
      "constitu": 3795,
      "anx": 3796,
      "oflu": 3797,
      "ingly": 3798,
      "movement": 3799,
      "graphic": 3800,
      "occurrence": 3801,
      "behaviour": 3802,
      "mand": 3803,
      "effectiveness": 3804,
      "dent": 3805,
      "gp": 3806,
      "ione": 3807,
      "interven": 3808,
      "equi": 3809,
      "aug": 3810,
      "kill": 3811,
      "tual": 3812,
      "ectivity": 3813,
      "gland": 3814,
      "haem": 3815,
      "ats": 3816,
      "ili": 3817,
      "encephal": 3818,
      "omen": 3819,
      "elimin": 3820,
      "broad": 3821,
      "ols": 3822,
      "obtain": 3823,
      "actin": 3824,
      "ultrasound": 3825,
      "diasto": 3826,
      "learning": 3827,
      "MD": 3828,
      "airway": 3829,
      "spectroscopy": 3830,
      "deoxy": 3831,
      "pharmaco": 3832,
      "employed": 3833,
      "HC": 3834,
      "zone": 3835,
      "organisms": 3836,
      "developmental": 3837,
      "hf": 3838,
      "hydroxyl": 3839,
      "induces": 3840,
      "wal": 3841,
      "moll": 3842,
      "synthesized": 3843,
      "glutam": 3844,
      "bb": 3845,
      "cam": 3846,
      "cate": 3847,
      "phenomen": 3848,
      "hepar": 3849,
      "producing": 3850,
      "tel": 3851,
      "extracts": 3852,
      "serot": 3853,
      "blot": 3854,
      "computed": 3855,
      "fractions": 3856,
      "consecutive": 3857,
      "iting": 3858,
      "obstruc": 3859,
      "subsequently": 3860,
      "americ": 3861,
      "ending": 3862,
      "hippocampus": 3863,
      "fill": 3864,
      "contains": 3865,
      "fall": 3866,
      "imple": 3867,
      "transpor": 3868,
      "aw": 3869,
      "crimin": 3870,
      "cytokines": 3871,
      "fibrosis": 3872,
      "polarization": 3873,
      "tolerance": 3874,
      "recommended": 3875,
      "ank": 3876,
      "showing": 3877,
      "cytochrome": 3878,
      "ki": 3879,
      "unders": 3880,
      "phospho": 3881,
      "final": 3882,
      "tg": 3883,
      "cdna": 3884,
      "necro": 3885,
      "fung": 3886,
      "mach": 3887,
      "anth": 3888,
      "itch": 3889,
      "IN": 3890,
      "NI": 3891,
      "istical": 3892,
      "veness": 3893,
      "precip": 3894,
      "vity": 3895,
      "materials": 3896,
      "foc": 3897,
      "complement": 3898,
      "targets": 3899,
      "died": 3900,
      "colo": 3901,
      "transcriptional": 3902,
      "ocular": 3903,
      "hi": 3904,
      "probe": 3905,
      "prospective": 3906,
      "HP": 3907,
      "PCS": 3908,
      "discrimin": 3909,
      "ogram": 3910,
      "FC": 3911,
      "wk": 3912,
      "fibroblasts": 3913,
      "sca": 3914,
      "entation": 3915,
      "phosphatidyl": 3916,
      "past": 3917,
      "sulfate": 3918,
      "VA": 3919,
      "lyso": 3920,
      "congenital": 3921,
      "persistent": 3922,
      "statistical": 3923,
      "periods": 3924,
      "global": 3925,
      "column": 3926,
      "F0": 3927,
      "substrate": 3928,
      "icians": 3929,
      "promising": 3930,
      "onto": 3931,
      "opi": 3932,
      "prognostic": 3933,
      "ision": 3934,
      "bridi": 3935,
      "diets": 3936,
      "sperm": 3937,
      "synthase": 3938,
      "anch": 3939,
      "asth": 3940,
      "categ": 3941,
      "organization": 3942,
      "adenosine": 3943,
      "LC": 3944,
      "sures": 3945,
      "substrates": 3946,
      "closely": 3947,
      "coccus": 3948,
      "resis": 3949,
      "hybridi": 3950,
      "carb": 3951,
      "flux": 3952,
      "platelet": 3953,
      "cysteine": 3954,
      "interleu": 3955,
      "phrine": 3956,
      "peritoneal": 3957,
      "date": 3958,
      "occurring": 3959,
      "separation": 3960,
      "magnitu": 3961,
      "occlusion": 3962,
      "coma": 3963,
      "lot": 3964,
      "tingu": 3965,
      "epithelium": 3966,
      "benign": 3967,
      "earlier": 3968,
      "interleukin": 3969,
      "itant": 3970,
      "chick": 3971,
      "amus": 3972,
      "emis": 3973,
      "modulation": 3974,
      "minimal": 3975,
      "antioxidant": 3976,
      "epider": 3977,
      "history": 3978,
      "carcino": 3979,
      "cohort": 3980,
      "alb": 3981,
      "laser": 3982,
      "elis": 3983,
      "link": 3984,
      "lys": 3985,
      "adder": 3986,
      "tensin": 3987,
      "enhancement": 3988,
      "possibly": 3989,
      "nucleotide": 3990,
      "adequate": 3991,
      "MC": 3992,
      "ost": 3993,
      "cortis": 3994,
      "unclear": 3995,
      "predictive": 3996,
      "diastolic": 3997,
      "rhyth": 3998,
      "transformation": 3999,
      "varied": 4000,
      "publ": 4001,
      "isofor": 4002,
      "ifn": 4003,
      "tradition": 4004,
      "classification": 4005,
      "people": 4006,
      "oids": 4007,
      "cup": 4008,
      "pla": 4009,
      "odes": 4010,
      "sources": 4011,
      "FA": 4012,
      "OS": 4013,
      "run": 4014,
      "isation": 4015,
      "distingu": 4016,
      "benefit": 4017,
      "minor": 4018,
      "olysis": 4019,
      "deep": 4020,
      "resting": 4021,
      "azole": 4022,
      "inser": 4023,
      "atri": 4024,
      "adren": 4025,
      "mineral": 4026,
      "remaining": 4027,
      "placed": 4028,
      "apping": 4029,
      "tely": 4030,
      "mother": 4031,
      "transition": 4032,
      "storage": 4033,
      "dehydrogen": 4034,
      "pseudo": 4035,
      "nr": 4036,
      "dominant": 4037,
      "tenance": 4038,
      "dle": 4039,
      "mers": 4040,
      "maintenance": 4041,
      "observation": 4042,
      "cad": 4043,
      "afferen": 4044,
      "released": 4045,
      "published": 4046,
      "conformation": 4047,
      "cau": 4048,
      "pel": 4049,
      "epis": 4050,
      "defect": 4051,
      "layer": 4052,
      "lamin": 4053,
      "cox": 4054,
      "competi": 4055,
      "compart": 4056,
      "genomic": 4057,
      "sympathetic": 4058,
      "PN": 4059,
      "VL": 4060,
      "tically": 4061,
      "mediately": 4062,
      "displayed": 4063,
      "poss": 4064,
      "cannot": 4065,
      "intervals": 4066,
      "exis": 4067,
      "ea": 4068,
      "counter": 4069,
      "possess": 4070,
      "kes": 4071,
      "curve": 4072,
      "tone": 4073,
      "ichia": 4074,
      "insic": 4075,
      "immediately": 4076,
      "ify": 4077,
      "what": 4078,
      "applications": 4079,
      "satis": 4080,
      "spi": 4081,
      "reverse": 4082,
      "coord": 4083,
      "bladder": 4084,
      "barri": 4085,
      "ventilation": 4086,
      "gy": 4087,
      "assign": 4088,
      "leg": 4089,
      "disco": 4090,
      "largely": 4091,
      "MF": 4092,
      "NK": 4093,
      "dic": 4094,
      "uro": 4095,
      "entire": 4096,
      "omp": 4097,
      "usal": 4098,
      "node": 4099,
      "differentiated": 4100,
      "clearly": 4101,
      "measuring": 4102,
      "assium": 4103,
      "derivatives": 4104,
      "completely": 4105,
      "circulating": 4106,
      "topic": 4107,
      "embol": 4108,
      "reversible": 4109,
      "diges": 4110,
      "rp": 4111,
      "tren": 4112,
      "assis": 4113,
      "plc": 4114,
      "choice": 4115,
      "relationships": 4116,
      "magnitude": 4117,
      "cha": 4118,
      "consisted": 4119,
      "aks": 4120,
      "ix": 4121,
      "tun": 4122,
      "emergen": 4123,
      "dependence": 4124,
      "degradation": 4125,
      "xray": 4126,
      "princip": 4127,
      "suitable": 4128,
      "dc": 4129,
      "vein": 4130,
      "hea": 4131,
      "phosphatase": 4132,
      "kary": 4133,
      "thermal": 4134,
      "glutath": 4135,
      "potassium": 4136,
      "dosedependent": 4137,
      "nar": 4138,
      "sters": 4139,
      "micr": 4140,
      "deple": 4141,
      "asymp": 4142,
      "estimat": 4143,
      "classified": 4144,
      "capable": 4145,
      "guine": 4146,
      "deletion": 4147,
      "cation": 4148,
      "eted": 4149,
      "icin": 4150,
      "intact": 4151,
      "nitric": 4152,
      "otic": 4153,
      "root": 4154,
      "beg": 4155,
      "reliable": 4156,
      "CN": 4157,
      "center": 4158,
      "similarly": 4159,
      "thrombin": 4160,
      "break": 4161,
      "constric": 4162,
      "buff": 4163,
      "hypoxia": 4164,
      "fif": 4165,
      "sha": 4166,
      "irradiation": 4167,
      "immunoreactivity": 4168,
      "mammal": 4169,
      "elicited": 4170,
      "DR": 4171,
      "LA": 4172,
      "gc": 4173,
      "arti": 4174,
      "elder": 4175,
      "tries": 4176,
      "implications": 4177,
      "wise": 4178,
      "subcutaneous": 4179,
      "shift": 4180,
      "gastrointestinal": 4181,
      "cruc": 4182,
      "nitrogen": 4183,
      "dissoci": 4184,
      "preoperative": 4185,
      "shock": 4186,
      "presentation": 4187,
      "favor": 4188,
      "egg": 4189,
      "intake": 4190,
      "represents": 4191,
      "ulum": 4192,
      "cytosis": 4193,
      "routine": 4194,
      "appropriate": 4195,
      "striat": 4196,
      "ATP": 4197,
      "nephro": 4198,
      "ering": 4199,
      "orb": 4200,
      "caro": 4201,
      "smoking": 4202,
      "implicated": 4203,
      "substitu": 4204,
      "myco": 4205,
      "questionna": 4206,
      "gradient": 4207,
      "thio": 4208,
      "sem": 4209,
      "hair": 4210,
      "additionally": 4211,
      "influenced": 4212,
      "limb": 4213,
      "spectrometry": 4214,
      "organs": 4215,
      "unil": 4216,
      "particle": 4217,
      "hemorrh": 4218,
      "jac": 4219,
      "tcell": 4220,
      "emerg": 4221,
      "mixture": 4222,
      "escher": 4223,
      "siveness": 4224,
      "abnormalities": 4225,
      "PV": 4226,
      "iod": 4227,
      "ensive": 4228,
      "dehy": 4229,
      "argin": 4230,
      "dehydrogenase": 4231,
      "esthe": 4232,
      "aryn": 4233,
      "aspects": 4234,
      "recipi": 4235,
      "tetra": 4236,
      "plasm": 4237,
      "hypertro": 4238,
      "exogenous": 4239,
      "TT": 4240,
      "towards": 4241,
      "diol": 4242,
      "potenti": 4243,
      "embryonic": 4244,
      "fixed": 4245,
      "gaba": 4246,
      "numerous": 4247,
      "adrenergic": 4248,
      "members": 4249,
      "operation": 4250,
      "separate": 4251,
      "conserved": 4252,
      "dimin": 4253,
      "degeneration": 4254,
      "countries": 4255,
      "lymphoma": 4256,
      "rabbits": 4257,
      "ovarian": 4258,
      "escherichia": 4259,
      "find": 4260,
      "gd": 4261,
      "reno": 4262,
      "cytoplasmic": 4263,
      "salt": 4264,
      "polymerase": 4265,
      "ai": 4266,
      "jap": 4267,
      "tan": 4268,
      "valve": 4269,
      "others": 4270,
      "ograph": 4271,
      "sexual": 4272,
      "pharmacological": 4273,
      "obesity": 4274,
      "predominantly": 4275,
      "usual": 4276,
      "subjected": 4277,
      "thought": 4278,
      "epidemi": 4279,
      "ose": 4280,
      "loop": 4281,
      "computer": 4282,
      "ageal": 4283,
      "cancers": 4284,
      "stenosis": 4285,
      "adoles": 4286,
      "allowed": 4287,
      "initiation": 4288,
      "elderly": 4289,
      "HA": 4290,
      "rac": 4291,
      "izes": 4292,
      "dysp": 4293,
      "rectal": 4294,
      "endometr": 4295,
      "ema": 4296,
      "gent": 4297,
      "ened": 4298,
      "aneury": 4299,
      "carcinomas": 4300,
      "physiology": 4301,
      "proliferative": 4302,
      "bis": 4303,
      "proxim": 4304,
      "semin": 4305,
      "bypass": 4306,
      "ritic": 4307,
      "immunog": 4308,
      "pathic": 4309,
      "concom": 4310,
      "elled": 4311,
      "pneumonia": 4312,
      "hybridization": 4313,
      "eas": 4314,
      "cytosol": 4315,
      "hypertensive": 4316,
      "MMP": 4317,
      "replacement": 4318,
      "esophageal": 4319,
      "natural": 4320,
      "commer": 4321,
      "cessive": 4322,
      "estimate": 4323,
      "conversion": 4324,
      "ging": 4325,
      "ologies": 4326,
      "matched": 4327,
      "labeling": 4328,
      "td": 4329,
      "zes": 4330,
      "ammon": 4331,
      "vers": 4332,
      "testo": 4333,
      "regulate": 4334,
      "commerci": 4335,
      "unchanged": 4336,
      "discharge": 4337,
      "fibers": 4338,
      "uterine": 4339,
      "randomly": 4340,
      "dialysis": 4341,
      "illin": 4342,
      "neck": 4343,
      "volt": 4344,
      "frontal": 4345,
      "phan": 4346,
      "cluster": 4347,
      "never": 4348,
      "feas": 4349,
      "blind": 4350,
      "phenol": 4351,
      "solutions": 4352,
      "metastasis": 4353,
      "gonad": 4354,
      "hb": 4355,
      "tig": 4356,
      "constit": 4357,
      "nod": 4358,
      "precur": 4359,
      "decline": 4360,
      "regulatory": 4361,
      "ophil": 4362,
      "Tc": 4363,
      "thermo": 4364,
      "duct": 4365,
      "inhibits": 4366,
      "complication": 4367,
      "concomitant": 4368,
      "abolished": 4369,
      "experienced": 4370,
      "HD": 4371,
      "sv": 4372,
      "inated": 4373,
      "substantial": 4374,
      "mmp": 4375,
      "sta": 4376,
      "express": 4377,
      "gluc": 4378,
      "hemato": 4379,
      "removed": 4380,
      "nad": 4381,
      "monito": 4382,
      "hybrid": 4383,
      "ught": 4384,
      "became": 4385,
      "explained": 4386,
      "interventions": 4387,
      "elevation": 4388,
      "monitored": 4389,
      "capillary": 4390,
      "overexpression": 4391,
      "angiography": 4392,
      "algori": 4393,
      "heparin": 4394,
      "pf": 4395,
      "tood": 4396,
      "respond": 4397,
      "circum": 4398,
      "extrem": 4399,
      "understood": 4400,
      "uth": 4401,
      "compris": 4402,
      "tubercul": 4403,
      "TM": 4404,
      "nd": 4405,
      "infer": 4406,
      "spectra": 4407,
      "contribution": 4408,
      "zyg": 4409,
      "reached": 4410,
      "existing": 4411,
      "chest": 4412,
      "variations": 4413,
      "dry": 4414,
      "initially": 4415,
      "middle": 4416,
      "confidence": 4417,
      "restricted": 4418,
      "enes": 4419,
      "correct": 4420,
      "algorith": 4421,
      "S1": 4422,
      "inactivation": 4423,
      "summ": 4424,
      "cyst": 4425,
      "tax": 4426,
      "transplant": 4427,
      "glutathione": 4428,
      "HT": 4429,
      "sial": 4430,
      "mitochondria": 4431,
      "nan": 4432,
      "eds": 4433,
      "excell": 4434,
      "parts": 4435,
      "cleavage": 4436,
      "invasion": 4437,
      "testosterone": 4438,
      "fos": 4439,
      "defin": 4440,
      "documented": 4441,
      "FL": 4442,
      "growing": 4443,
      "continued": 4444,
      "propose": 4445,
      "spread": 4446,
      "dos": 4447,
      "directed": 4448,
      "yeast": 4449,
      "catalytic": 4450,
      "endocrine": 4451,
      "consisting": 4452,
      "neurological": 4453,
      "fet": 4454,
      "abel": 4455,
      "attach": 4456,
      "maturation": 4457,
      "occup": 4458,
      "chloro": 4459,
      "affecting": 4460,
      "incubated": 4461,
      "fragment": 4462,
      "aort": 4463,
      "pene": 4464,
      "surfaces": 4465,
      "temper": 4466,
      "targeted": 4467,
      "effor": 4468,
      "poorly": 4469,
      "eeg": 4470,
      "resto": 4471,
      "resol": 4472,
      "platin": 4473,
      "ritis": 4474,
      "mmhg": 4475,
      "angiotensin": 4476,
      "implantation": 4477,
      "grafts": 4478,
      "INF": 4479,
      "junction": 4480,
      "context": 4481,
      "subunits": 4482,
      "newly": 4483,
      "putative": 4484,
      "coagulation": 4485,
      "rr": 4486,
      "strum": 4487,
      "CAA": 4488,
      "ranging": 4489,
      "tious": 4490,
      "adjac": 4491,
      "make": 4492,
      "living": 4493,
      "kd": 4494,
      "iral": 4495,
      "reversed": 4496,
      "adjacent": 4497,
      "enrich": 4498,
      "serine": 4499,
      "substance": 4500,
      "mRNA": 4501,
      "pathogenic": 4502,
      "mitral": 4503,
      "residual": 4504,
      "simultaneously": 4505,
      "ras": 4506,
      "sets": 4507,
      "phases": 4508,
      "feeding": 4509,
      "done": 4510,
      "presenting": 4511,
      "cytokine": 4512,
      "aspir": 4513,
      "analysed": 4514,
      "availability": 4515,
      "elines": 4516,
      "qual": 4517,
      "monkey": 4518,
      "cytotoxicity": 4519,
      "typic": 4520,
      "separated": 4521,
      "beneficial": 4522,
      "caine": 4523,
      "cision": 4524,
      "excellent": 4525,
      "olec": 4526,
      "trim": 4527,
      "move": 4528,
      "enzymatic": 4529,
      "ressed": 4530,
      "ogly": 4531,
      "cran": 4532,
      "targeting": 4533,
      "acquired": 4534,
      "composed": 4535,
      "called": 4536,
      "PF": 4537,
      "pathologic": 4538,
      "mbly": 4539,
      "reconstruction": 4540,
      "urea": 4541,
      "belie": 4542,
      "cns": 4543,
      "uting": 4544,
      "cholin": 4545,
      "nasal": 4546,
      "abdomin": 4547,
      "sero": 4548,
      "positively": 4549,
      "input": 4550,
      "metho": 4551,
      "variation": 4552,
      "identification": 4553,
      "personal": 4554,
      "BS": 4555,
      "tem": 4556,
      "diffuse": 4557,
      "investigations": 4558,
      "emphas": 4559,
      "introduced": 4560,
      "acryl": 4561,
      "crucial": 4562,
      "ka": 4563,
      "nh": 4564,
      "edema": 4565,
      "membranes": 4566,
      "circulation": 4567,
      "pediatric": 4568,
      "aggregation": 4569,
      "glomerular": 4570,
      "nap": 4571,
      "cytotoxic": 4572,
      "characterization": 4573,
      "thirty": 4574,
      "lipoprotein": 4575,
      "thoracic": 4576,
      "dd": 4577,
      "gap": 4578,
      "outer": 4579,
      "pool": 4580,
      "vessel": 4581,
      "sid": 4582,
      "making": 4583,
      "anxiety": 4584,
      "EA": 4585,
      "km": 4586,
      "estra": 4587,
      "spr": 4588,
      "respective": 4589,
      "responsive": 4590,
      "disper": 4591,
      "disturb": 4592,
      "determining": 4593,
      "guidelines": 4594,
      "arrest": 4595,
      "ulcer": 4596,
      "phas": 4597,
      "plasmid": 4598,
      "affects": 4599,
      "rv": 4600,
      "proved": 4601,
      "oblas": 4602,
      "dram": 4603,
      "lymphocyte": 4604,
      "supplementation": 4605,
      "embryos": 4606,
      "asthma": 4607,
      "return": 4608,
      "lactate": 4609,
      "serotonin": 4610,
      "traditional": 4611,
      "unilateral": 4612,
      "oocytes": 4613,
      "therapies": 4614,
      "reductase": 4615,
      "pump": 4616,
      "families": 4617,
      "estradiol": 4618,
      "MA": 4619,
      "pical": 4620,
      "acted": 4621,
      "responsiveness": 4622,
      "thereby": 4623,
      "illness": 4624,
      "metastases": 4625,
      "chari": 4626,
      "haemo": 4627,
      "mim": 4628,
      "sies": 4629,
      "wound": 4630,
      "drin": 4631,
      "whom": 4632,
      "coupling": 4633,
      "suspected": 4634,
      "effectively": 4635,
      "schiz": 4636,
      "equivalent": 4637,
      "elf": 4638,
      "pros": 4639,
      "trauma": 4640,
      "eyes": 4641,
      "ned": 4642,
      "zinc": 4643,
      "amyloid": 4644,
      "reflect": 4645,
      "charide": 4646,
      "HB": 4647,
      "flo": 4648,
      "assu": 4649,
      "characterize": 4650,
      "considerable": 4651,
      "cortisol": 4652,
      "Kd": 4653,
      "atus": 4654,
      "psin": 4655,
      "intrinsic": 4656,
      "achieve": 4657,
      "volunte": 4658,
      "androgen": 4659,
      "antagonists": 4660,
      "layers": 4661,
      "seizures": 4662,
      "activating": 4663,
      "ys": 4664,
      "aty": 4665,
      "clar": 4666,
      "plasty": 4667,
      "variant": 4668,
      "immunoreactive": 4669,
      "extracted": 4670,
      "recovered": 4671,
      "OP": 4672,
      "pure": 4673,
      "aris": 4674,
      "surround": 4675,
      "hormones": 4676,
      "ptic": 4677,
      "technology": 4678,
      "vector": 4679,
      "dimethyl": 4680,
      "tetr": 4681,
      "intervention": 4682,
      "generate": 4683,
      "antibiotic": 4684,
      "example": 4685,
      "leaf": 4686,
      "search": 4687,
      "tend": 4688,
      "axons": 4689,
      "glycerol": 4690,
      "ofluores": 4691,
      "fra": 4692,
      "progester": 4693,
      "episodes": 4694,
      "oration": 4695,
      "device": 4696,
      "frequencies": 4697,
      "tempor": 4698,
      "retin": 4699,
      "belong": 4700,
      "fresh": 4701,
      "pler": 4702,
      "capsul": 4703,
      "strepto": 4704,
      "explore": 4705,
      "incorporation": 4706,
      "lobulin": 4707,
      "abdominal": 4708,
      "AGA": 4709,
      "alkal": 4710,
      "placebo": 4711,
      "atpase": 4712,
      "MR": 4713,
      "progen": 4714,
      "transmit": 4715,
      "reduces": 4716,
      "anaesthe": 4717,
      "permeability": 4718,
      "detailed": 4719,
      "iden": 4720,
      "cyan": 4721,
      "heav": 4722,
      "preferen": 4723,
      "demonstrates": 4724,
      "agonists": 4725,
      "crystal": 4726,
      "melanoma": 4727,
      "pon": 4728,
      "optical": 4729,
      "promote": 4730,
      "esterase": 4731,
      "providing": 4732,
      "hypothesized": 4733,
      "homolog": 4734,
      "progesterone": 4735,
      "compati": 4736,
      "woman": 4737,
      "subject": 4738,
      "regulating": 4739,
      "cardiomyo": 4740,
      "elisa": 4741,
      "utions": 4742,
      "indirect": 4743,
      "tomatic": 4744,
      "itin": 4745,
      "serious": 4746,
      "correlations": 4747,
      "existence": 4748,
      "vegf": 4749,
      "omes": 4750,
      "modification": 4751,
      "dehyde": 4752,
      "residue": 4753,
      "TG": 4754,
      "ecal": 4755,
      "matter": 4756,
      "patch": 4757,
      "doppler": 4758,
      "varying": 4759,
      "eosin": 4760,
      "immunity": 4761,
      "interferon": 4762,
      "locus": 4763,
      "hearing": 4764,
      "glyce": 4765,
      "bat": 4766,
      "hab": 4767,
      "arrang": 4768,
      "itus": 4769,
      "igfi": 4770,
      "infec": 4771,
      "modeling": 4772,
      "describes": 4773,
      "table": 4774,
      "ades": 4775,
      "thane": 4776,
      "immunohistochemical": 4777,
      "heavy": 4778,
      "MT": 4779,
      "extension": 4780,
      "pet": 4781,
      "bow": 4782,
      "metabolite": 4783,
      "distance": 4784,
      "mucosal": 4785,
      "bf": 4786,
      "cows": 4787,
      "excess": 4788,
      "height": 4789,
      "multiv": 4790,
      "clinic": 4791,
      "soft": 4792,
      "gir": 4793,
      "zn": 4794,
      "coefficient": 4795,
      "optic": 4796,
      "distributed": 4797,
      "emission": 4798,
      "aid": 4799,
      "oli": 4800,
      "curves": 4801,
      "mgl": 4802,
      "hdl": 4803,
      "abilities": 4804,
      "phenomenon": 4805,
      "bes": 4806,
      "muc": 4807,
      "deposition": 4808,
      "adreno": 4809,
      "electric": 4810,
      "discuss": 4811,
      "array": 4812,
      "cerebellar": 4813,
      "glutamate": 4814,
      "drom": 4815,
      "enic": 4816,
      "phobic": 4817,
      "renin": 4818,
      "infectious": 4819,
      "efflu": 4820,
      "hemat": 4821,
      "susceptible": 4822,
      "cx": 4823,
      "spectively": 4824,
      "completed": 4825,
      "hemoglobin": 4826,
      "VP": 4827,
      "adhe": 4828,
      "immediate": 4829,
      "includes": 4830,
      "sampling": 4831,
      "chains": 4832,
      "assigned": 4833,
      "fits": 4834,
      "mum": 4835,
      "rig": 4836,
      "ues": 4837,
      "cover": 4838,
      "inducing": 4839,
      "assembly": 4840,
      "AI": 4841,
      "acto": 4842,
      "unt": 4843,
      "electropho": 4844,
      "adjusted": 4845,
      "kne": 4846,
      "instrum": 4847,
      "transgenic": 4848,
      "sinus": 4849,
      "lipids": 4850,
      "inosi": 4851,
      "histamine": 4852,
      "arth": 4853,
      "pitu": 4854,
      "ibri": 4855,
      "stri": 4856,
      "noninvasive": 4857,
      "portal": 4858,
      "comparing": 4859,
      "nearly": 4860,
      "temperatures": 4861,
      "insp": 4862,
      "once": 4863,
      "moti": 4864,
      "elling": 4865,
      "compens": 4866,
      "contents": 4867,
      "cann": 4868,
      "rating": 4869,
      "involves": 4870,
      "fragments": 4871,
      "benzo": 4872,
      "education": 4873,
      "S9": 4874,
      "promin": 4875,
      "accept": 4876,
      "chon": 4877,
      "peroxidase": 4878,
      "born": 4879,
      "laparo": 4880,
      "shorten": 4881,
      "albumin": 4882,
      "prophyl": 4883,
      "neutrophils": 4884,
      "compreh": 4885,
      "intersti": 4886,
      "typically": 4887,
      "volunteers": 4888,
      "WG": 4889,
      "onco": 4890,
      "coding": 4891,
      "regimen": 4892,
      "nmr": 4893,
      "spo": 4894,
      "var": 4895,
      "causing": 4896,
      "protease": 4897,
      "direction": 4898,
      "macro": 4899,
      "MZ": 4900,
      "son": 4901,
      "clones": 4902,
      "expan": 4903,
      "explored": 4904,
      "shape": 4905,
      "TC": 4906,
      "cending": 4907,
      "ubi": 4908,
      "activator": 4909,
      "advanced": 4910,
      "gut": 4911,
      "scat": 4912,
      "chor": 4913,
      "facial": 4914,
      "depending": 4915,
      "PSA": 4916,
      "dendritic": 4917,
      "asymptomatic": 4918,
      "PLT": 4919,
      "hydrophobic": 4920,
      "retrospective": 4921,
      "meta": 4922,
      "idio": 4923,
      "anatom": 4924,
      "gold": 4925,
      "osa": 4926,
      "unced": 4927,
      "mening": 4928,
      "methylation": 4929,
      "acetylcholine": 4930,
      "supported": 4931,
      "relapse": 4932,
      "bond": 4933,
      "pha": 4934,
      "angle": 4935,
      "grown": 4936,
      "statin": 4937,
      "proton": 4938,
      "lungs": 4939,
      "inic": 4940,
      "ofil": 4941,
      "effici": 4942,
      "illus": 4943,
      "tubular": 4944,
      "decreasing": 4945,
      "binds": 4946,
      "silic": 4947,
      "stral": 4948,
      "biosynthesis": 4949,
      "adrenaline": 4950,
      "fusion": 4951,
      "steady": 4952,
      "echocardiography": 4953,
      "admission": 4954,
      "anomal": 4955,
      "univer": 4956,
      "prosthe": 4957,
      "edi": 4958,
      "concept": 4959,
      "splen": 4960,
      "neuron": 4961,
      "sequencing": 4962,
      "repeat": 4963,
      "antibiotics": 4964,
      "hind": 4965,
      "kb": 4966,
      "agre": 4967,
      "prono": 4968,
      "associations": 4969,
      "begin": 4970,
      "VG": 4971,
      "ligh": 4972,
      "anol": 4973,
      "ories": 4974,
      "ipsi": 4975,
      "indices": 4976,
      "adjuvant": 4977,
      "philic": 4978,
      "gestation": 4979,
      "barrier": 4980,
      "hypertrophy": 4981,
      "fund": 4982,
      "lycer": 4983,
      "absent": 4984,
      "symptomatic": 4985,
      "deficits": 4986,
      "inver": 4987,
      "onomic": 4988,
      "gender": 4989,
      "count": 4990,
      "cloned": 4991,
      "guinea": 4992,
      "cic": 4993,
      "diverse": 4994,
      "agglut": 4995,
      "white": 4996,
      "preced": 4997,
      "subunit": 4998,
      "tube": 4999,
      "memory": 5000,
      "bilateral": 5001,
      "brief": 5002,
      "immunohistochemistry": 5003,
      "pronounced": 5004,
      "BC": 5005,
      "fal": 5006,
      "lets": 5007,
      "tering": 5008,
      "goal": 5009,
      "independently": 5010,
      "anese": 5011,
      "ligands": 5012,
      "aure": 5013,
      "hence": 5014,
      "oxin": 5015,
      "greatly": 5016,
      "blu": 5017,
      "remark": 5018,
      "ley": 5019,
      "variable": 5020,
      "lined": 5021,
      "obese": 5022,
      "fab": 5023,
      "corne": 5024,
      "hydrolysis": 5025,
      "attributed": 5026,
      "reason": 5027,
      "raised": 5028,
      "closed": 5029,
      "macrophage": 5030,
      "dt": 5031,
      "sf": 5032,
      "works": 5033,
      "twice": 5034,
      "terminals": 5035,
      "FP": 5036,
      "arom": 5037,
      "theory": 5038,
      "nos": 5039,
      "cold": 5040,
      "absol": 5041,
      "carotid": 5042,
      "lar": 5043,
      "remission": 5044,
      "dimer": 5045,
      "adic": 5046,
      "tuberculosis": 5047,
      "lt": 5048,
      "exce": 5049,
      "iga": 5050,
      "generative": 5051,
      "inogen": 5052,
      "questionnaire": 5053,
      "refrac": 5054,
      "cystic": 5055,
      "treating": 5056,
      "evident": 5057,
      "aud": 5058,
      "flav": 5059,
      "cycles": 5060,
      "excitatory": 5061,
      "reproductive": 5062,
      "aorta": 5063,
      "pituitary": 5064,
      "tonic": 5065,
      "copy": 5066,
      "ophren": 5067,
      "phospholipid": 5068,
      "HCs": 5069,
      "fati": 5070,
      "seas": 5071,
      "nore": 5072,
      "depends": 5073,
      "extraction": 5074,
      "mucosa": 5075,
      "advantage": 5076,
      "mast": 5077,
      "vt": 5078,
      "carry": 5079,
      "hcv": 5080,
      "sheep": 5081,
      "lacking": 5082,
      "bw": 5083,
      "cos": 5084,
      "triglycer": 5085,
      "schizophren": 5086,
      "normo": 5087,
      "bcl": 5088,
      "stimulus": 5089,
      "tumours": 5090,
      "start": 5091,
      "igm": 5092,
      "osc": 5093,
      "lution": 5094,
      "feature": 5095,
      "secreted": 5096,
      "correlate": 5097,
      "T2": 5098,
      "ustr": 5099,
      "acth": 5100,
      "immobil": 5101,
      "cros": 5102,
      "perfused": 5103,
      "persons": 5104,
      "estimates": 5105,
      "extremely": 5106,
      "FF": 5107,
      "atically": 5108,
      "pretreatment": 5109,
      "gave": 5110,
      "rein": 5111,
      "serve": 5112,
      "dual": 5113,
      "inhibiting": 5114,
      "stimulating": 5115,
      "shorter": 5116,
      "dental": 5117,
      "rn": 5118,
      "always": 5119,
      "rents": 5120,
      "undred": 5121,
      "heim": 5122,
      "polysac": 5123,
      "nutri": 5124,
      "hundred": 5125,
      "ancies": 5126,
      "reser": 5127,
      "resem": 5128,
      "upregulation": 5129,
      "ready": 5130,
      "rog": 5131,
      "ietic": 5132,
      "thrombosis": 5133,
      "advantages": 5134,
      "adsorption": 5135,
      "aureus": 5136,
      "inhal": 5137,
      "define": 5138,
      "solvent": 5139,
      "recordings": 5140,
      "hsp": 5141,
      "ido": 5142,
      "dox": 5143,
      "currents": 5144,
      "analyze": 5145,
      "benefits": 5146,
      "dian": 5147,
      "mobility": 5148,
      "poietic": 5149,
      "obacter": 5150,
      "loading": 5151,
      "movements": 5152,
      "fsh": 5153,
      "olfactory": 5154,
      "leaves": 5155,
      "potency": 5156,
      "glycol": 5157,
      "utilized": 5158,
      "pra": 5159,
      "tition": 5160,
      "unaffected": 5161,
      "immunofluores": 5162,
      "isolation": 5163,
      "phosphorylated": 5164,
      "VE": 5165,
      "ko": 5166,
      "pren": 5167,
      "see": 5168,
      "upregulated": 5169,
      "aries": 5170,
      "green": 5171,
      "zygous": 5172,
      "DE": 5173,
      "alz": 5174,
      "amel": 5175,
      "igf": 5176,
      "modal": 5177,
      "autoimmune": 5178,
      "lang": 5179,
      "zol": 5180,
      "working": 5181,
      "transcripts": 5182,
      "FB": 5183,
      "agland": 5184,
      "hydrate": 5185,
      "platelets": 5186,
      "NO": 5187,
      "aria": 5188,
      "entry": 5189,
      "childhood": 5190,
      "salmon": 5191,
      "prediction": 5192,
      "intensive": 5193,
      "substances": 5194,
      "charged": 5195,
      "manifestations": 5196,
      "focused": 5197,
      "trip": 5198,
      "consequ": 5199,
      "cribed": 5200,
      "conduct": 5201,
      "meal": 5202,
      "illu": 5203,
      "discre": 5204,
      "euro": 5205,
      "equil": 5206,
      "fatigu": 5207,
      "get": 5208,
      "hn": 5209,
      "hla": 5210,
      "vin": 5211,
      "dea": 5212,
      "activate": 5213,
      "oppos": 5214,
      "needs": 5215,
      "identical": 5216,
      "oscill": 5217,
      "xen": 5218,
      "alve": 5219,
      "entero": 5220,
      "glycoprotein": 5221,
      "ameth": 5222,
      "uron": 5223,
      "admitted": 5224,
      "depth": 5225,
      "prostagland": 5226,
      "interstitial": 5227,
      "absolute": 5228,
      "microscopic": 5229,
      "blockade": 5230,
      "atheros": 5231,
      "encing": 5232,
      "eli": 5233,
      "mostly": 5234,
      "pairs": 5235,
      "pinephrine": 5236,
      "medicine": 5237,
      "proximal": 5238,
      "knee": 5239,
      "plan": 5240,
      "hyd": 5241,
      "cai": 5242,
      "counts": 5243,
      "steps": 5244,
      "scanning": 5245,
      "polymorphism": 5246,
      "phago": 5247,
      "ostasis": 5248,
      "bus": 5249,
      "coch": 5250,
      "programs": 5251,
      "ET": 5252,
      "reperfusion": 5253,
      "lowest": 5254,
      "controlling": 5255,
      "variance": 5256,
      "adaptation": 5257,
      "infiltr": 5258,
      "SR": 5259,
      "otro": 5260,
      "ads": 5261,
      "negatively": 5262,
      "complicated": 5263,
      "ubiqu": 5264,
      "kind": 5265,
      "stret": 5266,
      "withdra": 5267,
      "hemis": 5268,
      "alzheim": 5269,
      "DA": 5270,
      "slic": 5271,
      "fluoro": 5272,
      "LP": 5273,
      "reference": 5274,
      "iring": 5275,
      "prelim": 5276,
      "sedim": 5277,
      "expansion": 5278,
      "aps": 5279,
      "antimicrobial": 5280,
      "occas": 5281,
      "interestingly": 5282,
      "abeled": 5283,
      "ket": 5284,
      "ler": 5285,
      "devices": 5286,
      "bearing": 5287,
      "presum": 5288,
      "spin": 5289,
      "taking": 5290,
      "circu": 5291,
      "inese": 5292,
      "rabbit": 5293,
      "distinguish": 5294,
      "ban": 5295,
      "RII": 5296,
      "emergency": 5297,
      "immunoglobulin": 5298,
      "dilat": 5299,
      "atinine": 5300,
      "rosine": 5301,
      "lis": 5302,
      "vical": 5303,
      "coa": 5304,
      "chinese": 5305,
      "omers": 5306,
      "allowing": 5307,
      "error": 5308,
      "50": 5309,
      "differed": 5310,
      "manip": 5311,
      "stimulate": 5312,
      "fibrill": 5313,
      "norepinephrine": 5314,
      "van": 5315,
      "true": 5316,
      "geal": 5317,
      "monocytes": 5318,
      "fications": 5319,
      "homogene": 5320,
      "MP": 5321,
      "hplc": 5322,
      "oa": 5323,
      "wr": 5324,
      "dered": 5325,
      "normally": 5326,
      "graph": 5327,
      "longitu": 5328,
      "tomized": 5329,
      "abundant": 5330,
      "pge": 5331,
      "sham": 5332,
      "fract": 5333,
      "parameter": 5334,
      "classes": 5335,
      "prominent": 5336,
      "longitud": 5337,
      "asone": 5338,
      "propor": 5339,
      "output": 5340,
      "surge": 5341,
      "decomp": 5342,
      "phenotypes": 5343,
      "phere": 5344,
      "glial": 5345,
      "rtp": 5346,
      "lost": 5347,
      "splic": 5348,
      "paired": 5349,
      "decision": 5350,
      "entially": 5351,
      "biochemical": 5352,
      "ulose": 5353,
      "frame": 5354,
      "nmol": 5355,
      "alanine": 5356,
      "arab": 5357,
      "tyrosine": 5358,
      "bled": 5359,
      "radiotherapy": 5360,
      "breath": 5361,
      "american": 5362,
      "nes": 5363,
      "element": 5364,
      "romy": 5365,
      "translocation": 5366,
      "analges": 5367,
      "hemodynamic": 5368,
      "BG": 5369,
      "rhe": 5370,
      "sclerosis": 5371,
      "tm": 5372,
      "tn": 5373,
      "already": 5374,
      "noise": 5375,
      "subtypes": 5376,
      "color": 5377,
      "REF": 5378,
      "bular": 5379,
      "erk": 5380,
      "injections": 5381,
      "contributes": 5382,
      "contractions": 5383,
      "biopsies": 5384,
      "homeostasis": 5385,
      "staphylo": 5386,
      "ref": 5387,
      "extra": 5388,
      "polypeptide": 5389,
      "minimum": 5390,
      "embryo": 5391,
      "tgfbeta": 5392,
      "dosage": 5393,
      "dh": 5394,
      "nat": 5395,
      "referred": 5396,
      "apical": 5397,
      "students": 5398,
      "synchron": 5399,
      "electrode": 5400,
      "pkc": 5401,
      "depressed": 5402,
      "diminished": 5403,
      "drain": 5404,
      "expand": 5405,
      "original": 5406,
      "integrated": 5407,
      "replic": 5408,
      "mell": 5409,
      "medication": 5410,
      "limits": 5411,
      "ppm": 5412,
      "facilitate": 5413,
      "epilepsy": 5414,
      "ru": 5415,
      "scho": 5416,
      "coated": 5417,
      "consequences": 5418,
      "cham": 5419,
      "creatinine": 5420,
      "cirrho": 5421,
      "filtration": 5422,
      "ultrastruc": 5423,
      "anesthesia": 5424,
      "recipients": 5425,
      "refractory": 5426,
      "depart": 5427,
      "bacterium": 5428,
      "pregnant": 5429,
      "restriction": 5430,
      "saturated": 5431,
      "fracture": 5432,
      "mf": 5433,
      "interface": 5434,
      "neoplas": 5435,
      "yle": 5436,
      "formal": 5437,
      "indo": 5438,
      "fever": 5439,
      "morphine": 5440,
      "uniform": 5441,
      "projections": 5442,
      "substantially": 5443,
      "ibrium": 5444,
      "anatomical": 5445,
      "pent": 5446,
      "catech": 5447,
      "downstream": 5448,
      "anesthetized": 5449,
      "mimic": 5450,
      "chondro": 5451,
      "ipsilateral": 5452,
      "rtpcr": 5453,
      "olin": 5454,
      "plate": 5455,
      "regulates": 5456,
      "opioid": 5457,
      "san": 5458,
      "proven": 5459,
      "infant": 5460,
      "ips": 5461,
      "selectively": 5462,
      "locations": 5463,
      "diversity": 5464,
      "avi": 5465,
      "mab": 5466,
      "vp": 5467,
      "chemically": 5468,
      "modify": 5469,
      "donors": 5470,
      "carboxyl": 5471,
      "hemorrhage": 5472,
      "lants": 5473,
      "vesti": 5474,
      "rover": 5475,
      "devi": 5476,
      "sound": 5477,
      "formations": 5478,
      "cavity": 5479,
      "morpho": 5480,
      "symptom": 5481,
      "opa": 5482,
      "sug": 5483,
      "services": 5484,
      "afric": 5485,
      "injur": 5486,
      "give": 5487,
      "pathogens": 5488,
      "aryngeal": 5489,
      "algorithm": 5490,
      "preliminary": 5491,
      "M1": 5492,
      "aims": 5493,
      "reticulum": 5494,
      "lute": 5495,
      "ache": 5496,
      "itory": 5497,
      "controver": 5498,
      "substit": 5499,
      "knock": 5500,
      "filam": 5501,
      "volum": 5502,
      "granulo": 5503,
      "isoforms": 5504,
      "tices": 5505,
      "mediates": 5506,
      "diaz": 5507,
      "aggressive": 5508,
      "hypothalamus": 5509,
      "epidermal": 5510,
      "ah": 5511,
      "trin": 5512,
      "united": 5513,
      "evaluating": 5514,
      "intestine": 5515,
      "multivari": 5516,
      "sense": 5517,
      "ash": 5518,
      "profes": 5519,
      "contractile": 5520,
      "namely": 5521,
      "commercial": 5522,
      "prl": 5523,
      "blocking": 5524,
      "asym": 5525,
      "yielded": 5526,
      "TB": 5527,
      "casp": 5528,
      "ecg": 5529,
      "hepati": 5530,
      "lies": 5531,
      "cervical": 5532,
      "assessing": 5533,
      "nerv": 5534,
      "suspen": 5535,
      "etiology": 5536,
      "infiltration": 5537,
      "nacl": 5538,
      "candidate": 5539,
      "dissociation": 5540,
      "egf": 5541,
      "oden": 5542,
      "izations": 5543,
      "cartil": 5544,
      "histologic": 5545,
      "validated": 5546,
      "ABD": 5547,
      "blue": 5548,
      "ply": 5549,
      "institu": 5550,
      "tobac": 5551,
      "industr": 5552,
      "blasto": 5553,
      "amycin": 5554,
      "follicular": 5555,
      "follicles": 5556,
      "hepatitis": 5557,
      "tization": 5558,
      "strom": 5559,
      "stere": 5560,
      "consists": 5561,
      "gol": 5562,
      "sud": 5563,
      "transcript": 5564,
      "chromatin": 5565,
      "kidneys": 5566,
      "alkyl": 5567,
      "vents": 5568,
      "resour": 5569,
      "ifer": 5570,
      "geo": 5571,
      "receive": 5572,
      "conduction": 5573,
      "excitation": 5574,
      "aemia": 5575,
      "db": 5576,
      "gsh": 5577,
      "kapp": 5578,
      "bust": 5579,
      "recruit": 5580,
      "qualit": 5581,
      "exists": 5582,
      "tually": 5583,
      "constructed": 5584,
      "crosssection": 5585,
      "speed": 5586,
      "regardless": 5587,
      "DM": 5588,
      "rf": 5589,
      "diarr": 5590,
      "ush": 5591,
      "adop": 5592,
      "clamp": 5593,
      "antiinflammatory": 5594,
      "involve": 5595,
      "ablation": 5596,
      "adily": 5597,
      "apparently": 5598,
      "ischemic": 5599,
      "ejection": 5600,
      "atrophy": 5601,
      "ud": 5602,
      "robust": 5603,
      "mutagen": 5604,
      "sepsis": 5605,
      "spermato": 5606,
      "concerning": 5607,
      "IA": 5608,
      "bands": 5609,
      "scar": 5610,
      "viability": 5611,
      "molar": 5612,
      "healing": 5613,
      "releas": 5614,
      "dimensional": 5615,
      "drinking": 5616,
      "sors": 5617,
      "spectral": 5618,
      "ICM": 5619,
      "rarely": 5620,
      "surrounding": 5621,
      "branch": 5622,
      "produces": 5623,
      "influences": 5624,
      "derivative": 5625,
      "autonomic": 5626,
      "jun": 5627,
      "": 5628,
      "inin": 5629,
      "inst": 5630,
      "consequence": 5631,
      "corn": 5632,
      "shr": 5633,
      "kinin": 5634,
      "improving": 5635,
      "consistently": 5636,
      "implanted": 5637,
      "phasic": 5638,
      "OC": 5639,
      "unusual": 5640,
      "exon": 5641,
      "sple": 5642,
      "quantified": 5643,
      "nmda": 5644,
      "behaviors": 5645,
      "alleles": 5646,
      "tidine": 5647,
      "fatigue": 5648,
      "GT": 5649,
      "awa": 5650,
      "dem": 5651,
      "ranial": 5652,
      "caudal": 5653,
      "ogen": 5654,
      "peric": 5655,
      "former": 5656,
      "international": 5657,
      "syndrom": 5658,
      "cats": 5659,
      "superoxide": 5660,
      "inositol": 5661,
      "aids": 5662,
      "motility": 5663,
      "thern": 5664,
      "premature": 5665,
      "panc": 5666,
      "preparations": 5667,
      "bronchial": 5668,
      "disruption": 5669,
      "mellitus": 5670,
      "fing": 5671,
      "seed": 5672,
      "sym": 5673,
      "ylate": 5674,
      "standardi": 5675,
      "genetically": 5676,
      "UT": 5677,
      "orth": 5678,
      "sides": 5679,
      "itself": 5680,
      "mias": 5681,
      "influenz": 5682,
      "pyrid": 5683,
      "issues": 5684,
      "fungal": 5685,
      "substitution": 5686,
      "injuries": 5687,
      "SB": 5688,
      "ias": 5689,
      "enteric": 5690,
      "mycin": 5691,
      "requiring": 5692,
      "acetic": 5693,
      "saliv": 5694,
      "engine": 5695,
      "initiated": 5696,
      "summar": 5697,
      "vertebr": 5698,
      "tose": 5699,
      "vascul": 5700,
      "arteri": 5701,
      "tasks": 5702,
      "psychological": 5703,
      "ln": 5704,
      "coeffici": 5705,
      "lobe": 5706,
      "live": 5707,
      "subset": 5708,
      "virul": 5709,
      "nonspecific": 5710,
      "ventral": 5711,
      "placement": 5712,
      "detecting": 5713,
      "chymal": 5714,
      "easily": 5715,
      "coefficients": 5716,
      "VD": 5717,
      "own": 5718,
      "ulf": 5719,
      "viol": 5720,
      "crf": 5721,
      "fiel": 5722,
      "amous": 5723,
      "comprehensive": 5724,
      "beginning": 5725,
      "longitudinal": 5726,
      "US": 5727,
      "hv": 5728,
      "next": 5729,
      "inactive": 5730,
      "instead": 5731,
      "antiv": 5732,
      "uria": 5733,
      "che": 5734,
      "lox": 5735,
      "interview": 5736,
      "immunological": 5737,
      "modulate": 5738,
      "tachy": 5739,
      "atypical": 5740,
      "GP": 5741,
      "pup": 5742,
      "atile": 5743,
      "elong": 5744,
      "leak": 5745,
      "amyl": 5746,
      "undertaken": 5747,
      "cytoplasm": 5748,
      "myelin": 5749,
      "vasopres": 5750,
      "propyl": 5751,
      "utilization": 5752,
      "glomerul": 5753,
      "passive": 5754,
      "OB": 5755,
      "tended": 5756,
      "colony": 5757,
      "favorable": 5758,
      "Th": 5759,
      "hard": 5760,
      "ofac": 5761,
      "depos": 5762,
      "stomach": 5763,
      "hepato": 5764,
      "requirements": 5765,
      "Al": 5766,
      "kers": 5767,
      "pyl": 5768,
      "inher": 5769,
      "enlarg": 5770,
      "comparative": 5771,
      "ribo": 5772,
      "quad": 5773,
      "compression": 5774,
      "heterogeneous": 5775,
      "sant": 5776,
      "tope": 5777,
      "dexameth": 5778,
      "thalamic": 5779,
      "vaccination": 5780,
      "trend": 5781,
      "fre": 5782,
      "kins": 5783,
      "war": 5784,
      "topo": 5785,
      "arb": 5786,
      "follows": 5787,
      "risks": 5788,
      "fixation": 5789,
      "polymorphisms": 5790,
      "threat": 5791,
      "ML": 5792,
      "libr": 5793,
      "psychiatric": 5794,
      "dat": 5795,
      "xa": 5796,
      "theore": 5797,
      "stent": 5798,
      "illo": 5799,
      "plann": 5800,
      "geneic": 5801,
      "labelled": 5802,
      "ivered": 5803,
      "translation": 5804,
      "transporter": 5805,
      "hcc": 5806,
      "ycin": 5807,
      "traits": 5808,
      "intrav": 5809,
      "crosssectional": 5810,
      "hic": 5811,
      "rc": 5812,
      "offer": 5813,
      "phor": 5814,
      "diffusion": 5815,
      "interact": 5816,
      "tools": 5817,
      "transfected": 5818,
      "adenocarcinoma": 5819,
      "weights": 5820,
      "FR": 5821,
      "nn": 5822,
      "itect": 5823,
      "dihydro": 5824,
      "supr": 5825,
      "architect": 5826,
      "fasting": 5827,
      "fractures": 5828,
      "buffer": 5829,
      "PB": 5830,
      "dark": 5831,
      "ril": 5832,
      "lethal": 5833,
      "urg": 5834,
      "clusters": 5835,
      "portun": 5836,
      "artificial": 5837,
      "item": 5838,
      "loco": 5839,
      "rene": 5840,
      "valuable": 5841,
      "endoscopic": 5842,
      "reductions": 5843,
      "sched": 5844,
      "metastatic": 5845,
      "elucidate": 5846,
      "obstructive": 5847,
      "immunofluorescence": 5848,
      "WM": 5849,
      "bt": 5850,
      "icillin": 5851,
      "inges": 5852,
      "opportun": 5853,
      "spontaneously": 5854,
      "schizophrenia": 5855,
      "delivered": 5856,
      "angiogenesis": 5857,
      "resolved": 5858,
      "pancreas": 5859,
      "fields": 5860,
      "lf": 5861,
      "nover": 5862,
      "sod": 5863,
      "pressures": 5864,
      "PCR": 5865,
      "fewer": 5866,
      "introduction": 5867,
      "relaxation": 5868,
      "kappab": 5869,
      "releasing": 5870,
      "precise": 5871,
      "bili": 5872,
      "improvements": 5873,
      "opposite": 5874,
      "dexamethasone": 5875,
      "GC": 5876,
      "O2": 5877,
      "TE": 5878,
      "beam": 5879,
      "ampl": 5880,
      "constriction": 5881,
      "europe": 5882,
      "alzheimers": 5883,
      "incre": 5884,
      "synerg": 5885,
      "positions": 5886,
      "combinations": 5887,
      "carbohydrate": 5888,
      "nervous": 5889,
      "lp": 5890,
      "arbo": 5891,
      "arthro": 5892,
      "demonstrating": 5893,
      "lified": 5894,
      "summary": 5895,
      "B6": 5896,
      "mess": 5897,
      "wat": 5898,
      "enrol": 5899,
      "costs": 5900,
      "ibration": 5901,
      "responded": 5902,
      "increasingly": 5903,
      "cerebro": 5904,
      "myocardium": 5905,
      "PIT": 5906,
      "greatest": 5907,
      "starting": 5908,
      "dysplas": 5909,
      "volumes": 5910,
      "regeneration": 5911,
      "odds": 5912,
      "pari": 5913,
      "infra": 5914,
      "amines": 5915,
      "workers": 5916,
      "considerably": 5917,
      "efficiently": 5918,
      "vesicles": 5919,
      "uary": 5920,
      "itals": 5921,
      "degenerative": 5922,
      "destruc": 5923,
      "noradrenaline": 5924,
      "turnover": 5925,
      "mrnas": 5926,
      "progress": 5927,
      "film": 5928,
      "holds": 5929,
      "networks": 5930,
      "mhc": 5931,
      "tocin": 5932,
      "forty": 5933,
      "electronic": 5934,
      "emotional": 5935,
      "sequential": 5936,
      "conditioning": 5937,
      "integrity": 5938,
      "glycosyl": 5939,
      "faster": 5940,
      "younger": 5941,
      "ultrason": 5942,
      "address": 5943,
      "attenuated": 5944,
      "rehabil": 5945,
      "nutritional": 5946,
      "alveolar": 5947,
      "theoretical": 5948,
      "HPC": 5949,
      "TD": 5950,
      "aque": 5951,
      "cents": 5952,
      "ier": 5953,
      "lamp": 5954,
      "theless": 5955,
      "pore": 5956,
      "bleeding": 5957,
      "identifying": 5958,
      "integration": 5959,
      "ebv": 5960,
      "lm": 5961,
      "prolact": 5962,
      "promoting": 5963,
      "project": 5964,
      "narrow": 5965,
      "sudden": 5966,
      "luc": 5967,
      "pth": 5968,
      "taining": 5969,
      "EC50": 5970,
      "encoded": 5971,
      "correction": 5972,
      "addi": 5973,
      "films": 5974,
      "hsv": 5975,
      "retained": 5976,
      "rot": 5977,
      "unlike": 5978,
      "soy": 5979,
      "canal": 5980,
      "oxygenase": 5981,
      "estimation": 5982,
      "chromosomal": 5983,
      "physicians": 5984,
      "cytosolic": 5985,
      "mographic": 5986,
      "porcine": 5987,
      "nicot": 5988,
      "monkeys": 5989,
      "bund": 5990,
      "insi": 5991,
      "mox": 5992,
      "imid": 5993,
      "nea": 5994,
      "estro": 5995,
      "calc": 5996,
      "trophic": 5997,
      "quantify": 5998,
      "competitive": 5999,
      "principal": 6000,
      "vasopressin": 6001,
      "IL": 6002,
      "MB": 6003,
      "bmd": 6004,
      "murine": 6005,
      "rg": 6006,
      "minute": 6007,
      "minutes": 6008,
      "pulse": 6009,
      "coccal": 6010,
      "heterogeneity": 6011,
      "idiopathic": 6012,
      "deaths": 6013,
      "kal": 6014,
      "mapping": 6015,
      "wean": 6016,
      "loci": 6017,
      "wered": 6018,
      "amma": 6019,
      "ectors": 6020,
      "validity": 6021,
      "selectivity": 6022,
      "toxins": 6023,
      "akt": 6024,
      "probability": 6025,
      "mothers": 6026,
      "equilibrium": 6027,
      "amplification": 6028,
      "readily": 6029,
      "chel": 6030,
      "transformed": 6031,
      "analytical": 6032,
      "guan": 6033,
      "intense": 6034,
      "orientation": 6035,
      "takes": 6036,
      "carriers": 6037,
      "prostaglandin": 6038,
      "Th1": 6039,
      "serial": 6040,
      "cmv": 6041,
      "probes": 6042,
      "recommendations": 6043,
      "erythrocytes": 6044,
      "necrosis": 6045,
      "precipit": 6046,
      "restored": 6047,
      "efflux": 6048,
      "department": 6049,
      "parietal": 6050,
      "VH": 6051,
      "aldo": 6052,
      "chec": 6053,
      "subgroup": 6054,
      "logous": 6055,
      "modifications": 6056,
      "preventing": 6057,
      "tubule": 6058,
      "hpv": 6059,
      "foot": 6060,
      "glass": 6061,
      "composite": 6062,
      "polysaccharide": 6063,
      "epo": 6064,
      "gdal": 6065,
      "sea": 6066,
      "inclusion": 6067,
      "otide": 6068,
      "acquis": 6069,
      "correlates": 6070,
      "aneurysm": 6071,
      "consequently": 6072,
      "recruitment": 6073,
      "BM": 6074,
      "oxidi": 6075,
      "mgdl": 6076,
      "limitations": 6077,
      "microgramsml": 6078,
      "squamous": 6079,
      "ullary": 6080,
      "digestion": 6081,
      "ee": 6082,
      "edimen": 6083,
      "bey": 6084,
      "tendon": 6085,
      "ducts": 6086,
      "neumo": 6087,
      "amygdal": 6088,
      "dendr": 6089,
      "AQ": 6090,
      "ICA": 6091,
      "NE": 6092,
      "nig": 6093,
      "percutaneous": 6094,
      "clim": 6095,
      "biology": 6096,
      "similarity": 6097,
      "examinations": 6098,
      "immunoassay": 6099,
      "cisplatin": 6100,
      "pharmacokinetic": 6101,
      "school": 6102,
      "ots": 6103,
      "pn": 6104,
      "ofib": 6105,
      "orph": 6106,
      "cattle": 6107,
      "copper": 6108,
      "oglycan": 6109,
      "acer": 6110,
      "interference": 6111,
      "autologous": 6112,
      "malignancy": 6113,
      "trigger": 6114,
      "LDV": 6115,
      "exclusively": 6116,
      "incorporated": 6117,
      "issue": 6118,
      "adolescents": 6119,
      "Ts": 6120,
      "ming": 6121,
      "zer": 6122,
      "insul": 6123,
      "cultiv": 6124,
      "nucleo": 6125,
      "quantification": 6126,
      "sulph": 6127,
      "seizure": 6128,
      "cartilage": 6129,
      "GE": 6130,
      "GM": 6131,
      "actic": 6132,
      "ticular": 6133,
      "spind": 6134,
      "compli": 6135,
      "fox": 6136,
      "indications": 6137,
      "muscular": 6138,
      "generalized": 6139,
      "adrenoceptor": 6140,
      "fibrillation": 6141,
      "pneumo": 6142,
      "xia": 6143,
      "represented": 6144,
      "wides": 6145,
      "ady": 6146,
      "amil": 6147,
      "puber": 6148,
      "cumul": 6149,
      "advances": 6150,
      "hematopoietic": 6151,
      "stromal": 6152,
      "DNA": 6153,
      "OM": 6154,
      "Tx": 6155,
      "vance": 6156,
      "erived": 6157,
      "estr": 6158,
      "division": 6159,
      "ophyl": 6160,
      "chromosomes": 6161,
      "mammalian": 6162,
      "edimensional": 6163,
      "hed": 6164,
      "ortho": 6165,
      "osmo": 6166,
      "plasmin": 6167,
      "FS": 6168,
      "fv": 6169,
      "jej": 6170,
      "syno": 6171,
      "pread": 6172,
      "options": 6173,
      "canine": 6174,
      "variability": 6175,
      "welling": 6176,
      "retino": 6177,
      "intracranial": 6178,
      "carrier": 6179,
      "phenotypic": 6180,
      "fluorescent": 6181,
      "laparoscopic": 6182,
      "LE": 6183,
      "mary": 6184,
      "night": 6185,
      "themat": 6186,
      "micron": 6187,
      "black": 6188,
      "relevance": 6189,
      "arthritis": 6190,
      "atherosclerosis": 6191,
      "big": 6192,
      "df": 6193,
      "acous": 6194,
      "untreated": 6195,
      "illance": 6196,
      "identity": 6197,
      "troph": 6198,
      "member": 6199,
      "loaded": 6200,
      "adipo": 6201,
      "burst": 6202,
      "burden": 6203,
      "coagul": 6204,
      "biomark": 6205,
      "arrangement": 6206,
      "agreement": 6207,
      "SI": 6208,
      "VC": 6209,
      "gfr": 6210,
      "chim": 6211,
      "waste": 6212,
      "ayer": 6213,
      "declined": 6214,
      "pathophysiology": 6215,
      "simulated": 6216,
      "gradually": 6217,
      "anaer": 6218,
      "adaptive": 6219,
      "afferent": 6220,
      "feasibility": 6221,
      "spleen": 6222,
      "biomarkers": 6223,
      "cocaine": 6224,
      "emg": 6225,
      "gnrh": 6226,
      "eps": 6227,
      "typing": 6228,
      "regulator": 6229,
      "electrodes": 6230,
      "hormonal": 6231,
      "repeti": 6232,
      "pheres": 6233,
      "supplemented": 6234,
      "DW": 6235,
      "cac": 6236,
      "eigh": 6237,
      "vast": 6238,
      "betac": 6239,
      "puts": 6240,
      "hospitals": 6241,
      "hippocampal": 6242,
      "widespread": 6243,
      "ices": 6244,
      "oline": 6245,
      "cephal": 6246,
      "postoperatively": 6247,
      "modulated": 6248,
      "accelerated": 6249,
      "orally": 6250,
      "poses": 6251,
      "cade": 6252,
      "changing": 6253,
      "predis": 6254,
      "transfusion": 6255,
      "cranial": 6256,
      "ediated": 6257,
      "RD": 6258,
      "zole": 6259,
      "ico": 6260,
      "vehic": 6261,
      "aberr": 6262,
      "peg": 6263,
      "rectomy": 6264,
      "fertili": 6265,
      "processed": 6266,
      "collection": 6267,
      "inducible": 6268,
      "sight": 6269,
      "atitis": 6270,
      "haz": 6271,
      "alteration": 6272,
      "downregulation": 6273,
      "suppressor": 6274,
      "genotypes": 6275,
      "saturation": 6276,
      "somato": 6277,
      "dog": 6278,
      "medul": 6279,
      "eptive": 6280,
      "outside": 6281,
      "combining": 6282,
      "fibrin": 6283,
      "predictors": 6284,
      "timing": 6285,
      "considering": 6286,
      "trypsin": 6287,
      "traumatic": 6288,
      "abundance": 6289,
      "electrophoresis": 6290,
      "syndromes": 6291,
      "NL": 6292,
      "mk": 6293,
      "era": 6294,
      "operated": 6295,
      "glucocortico": 6296,
      "scales": 6297,
      "neoplastic": 6298,
      "vaccines": 6299,
      "gestational": 6300,
      "withdrawal": 6301,
      "utility": 6302,
      "ives": 6303,
      "bling": 6304,
      "neurones": 6305,
      "glob": 6306,
      "simulations": 6307,
      "weighted": 6308,
      "japanese": 6309,
      "vestibular": 6310,
      "multivariate": 6311,
      "cel": 6312,
      "jan": 6313,
      "lain": 6314,
      "mmoll": 6315,
      "route": 6316,
      "phthal": 6317,
      "oxal": 6318,
      "variants": 6319,
      "mesen": 6320,
      "operating": 6321,
      "metallo": 6322,
      "overexpres": 6323,
      "challenges": 6324,
      "arrhythmias": 6325,
      "beyond": 6326,
      "depolarization": 6327,
      "bean": 6328,
      "somatic": 6329,
      "uncer": 6330,
      "ubicin": 6331,
      "just": 6332,
      "experimentally": 6333,
      "nucleotides": 6334,
      "precipitation": 6335,
      "compatible": 6336,
      "catechol": 6337,
      "rehabilitation": 6338,
      "dor": 6339,
      "redox": 6340,
      "immunization": 6341,
      "milli": 6342,
      "histopathological": 6343,
      "electrocardi": 6344,
      "simulation": 6345,
      "skill": 6346,
      "driven": 6347,
      "surveillance": 6348,
      "preserved": 6349,
      "assisted": 6350,
      "bowel": 6351,
      "uncertain": 6352,
      "36": 6353,
      "concep": 6354,
      "regimens": 6355,
      "functionally": 6356,
      "fluc": 6357,
      "retina": 6358,
      "maintaining": 6359,
      "clarify": 6360,
      "abor": 6361,
      "highligh": 6362,
      "acidic": 6363,
      "predicting": 6364,
      "records": 6365,
      "config": 6366,
      "background": 6367,
      "luminal": 6368,
      "esophag": 6369,
      "attempt": 6370,
      "biliary": 6371,
      "los": 6372,
      "complain": 6373,
      "doc": 6374,
      "centers": 6375,
      "systematic": 6376,
      "organism": 6377,
      "leukemia": 6378,
      "vacu": 6379,
      "elastic": 6380,
      "uric": 6381,
      "interfe": 6382,
      "paradig": 6383,
      "supports": 6384,
      "asian": 6385,
      "perception": 6386,
      "calves": 6387,
      "lasting": 6388,
      "worldwide": 6389,
      "endometrial": 6390,
      "eco": 6391,
      "ige": 6392,
      "oct": 6393,
      "herein": 6394,
      "azine": 6395,
      "reliability": 6396,
      "onuclear": 6397,
      "ganglia": 6398,
      "interpretation": 6399,
      "chamber": 6400,
      "hif": 6401,
      "nia": 6402,
      "tpa": 6403,
      "¥": 6404,
      "perman": 6405,
      "ician": 6406,
      "arginine": 6407,
      "mumol": 6408,
      "CNS": 6409,
      "ofl": 6410,
      "veget": 6411,
      "excision": 6412,
      "cysts": 6413,
      "microl": 6414,
      "paro": 6415,
      "option": 6416,
      "highlight": 6417,
      "duoden": 6418,
      "indicator": 6419,
      "cardia": 6420,
      "lymphoid": 6421,
      "supporting": 6422,
      "yields": 6423,
      "tight": 6424,
      "CH": 6425,
      "dich": 6426,
      "thyl": 6427,
      "tide": 6428,
      "amen": 6429,
      "house": 6430,
      "tracheal": 6431,
      "deterior": 6432,
      "defective": 6433,
      "sole": 6434,
      "protected": 6435,
      "suffering": 6436,
      "suppress": 6437,
      "blocks": 6438,
      "steroids": 6439,
      "dilation": 6440,
      "started": 6441,
      "scaff": 6442,
      "RL": 6443,
      "RS": 6444,
      "vital": 6445,
      "formulation": 6446,
      "fru": 6447,
      "neuropathy": 6448,
      "apped": 6449,
      "sensor": 6450,
      "depletion": 6451,
      "acquisition": 6452,
      "TP": 6453,
      "ime": 6454,
      "anasto": 6455,
      "demographic": 6456,
      "consci": 6457,
      "unrelated": 6458,
      "mobile": 6459,
      "allergic": 6460,
      "surfact": 6461,
      "phyto": 6462,
      "keto": 6463,
      "wheat": 6464,
      "influx": 6465,
      "intraoperative": 6466,
      "astrocytes": 6467,
      "efforts": 6468,
      "circuit": 6469,
      "insight": 6470,
      "perce": 6471,
      "cellulose": 6472,
      "mixtures": 6473,
      "tolerated": 6474,
      "threedimensional": 6475,
      "university": 6476,
      "standardized": 6477,
      "fluctu": 6478,
      "Pr": 6479,
      "compromis": 6480,
      "sessions": 6481,
      "thymo": 6482,
      "severely": 6483,
      "practical": 6484,
      "haplo": 6485,
      "compartment": 6486,
      "steadystate": 6487,
      "otomy": 6488,
      "sb": 6489,
      "mps": 6490,
      "decay": 6491,
      "evol": 6492,
      "endothelium": 6493,
      "occasion": 6494,
      "dilatation": 6495,
      "anastomo": 6496,
      "fine": 6497,
      "promp": 6498,
      "cyclin": 6499,
      "grp": 6500,
      "contral": 6501,
      "progres": 6502,
      "apoptotic": 6503,
      "synapses": 6504,
      "topical": 6505,
      "optimized": 6506,
      "economic": 6507,
      "rhythm": 6508,
      "adherence": 6509,
      "finger": 6510,
      "anion": 6511,
      "meg": 6512,
      "perox": 6513,
      "ellar": 6514,
      "incid": 6515,
      "firing": 6516,
      "exhibits": 6517,
      "histology": 6518,
      "cerebellum": 6519,
      "corneal": 6520,
      "langu": 6521,
      "ER": 6522,
      "HG": 6523,
      "hbv": 6524,
      "anemia": 6525,
      "stay": 6526,
      "convul": 6527,
      "exact": 6528,
      "uretic": 6529,
      "pris": 6530,
      "linking": 6531,
      "axonal": 6532,
      "enhances": 6533,
      "conformational": 6534,
      "attached": 6535,
      "kappa": 6536,
      "oing": 6537,
      "urban": 6538,
      "peroxide": 6539,
      "makes": 6540,
      "ologists": 6541,
      "glycine": 6542,
      "voltage": 6543,
      "slices": 6544,
      "esis": 6545,
      "iration": 6546,
      "comput": 6547,
      "brady": 6548,
      "dye": 6549,
      "offers": 6550,
      "quinone": 6551,
      "epidemiological": 6552,
      "nadph": 6553,
      "motif": 6554,
      "aromatic": 6555,
      "conductance": 6556,
      "acoustic": 6557,
      "WB": 6558,
      "eo": 6559,
      "ik": 6560,
      "idin": 6561,
      "determinants": 6562,
      "protect": 6563,
      "equally": 6564,
      "calculations": 6565,
      "slowly": 6566,
      "lumen": 6567,
      "IMT": 6568,
      "deficit": 6569,
      "transmitter": 6570,
      "slower": 6571,
      "menopa": 6572,
      "partly": 6573,
      "protocols": 6574,
      "compliance": 6575,
      "fp": 6576,
      "eded": 6577,
      "forced": 6578,
      "iae": 6579,
      "dense": 6580,
      "zyme": 6581,
      "communication": 6582,
      "lumbar": 6583,
      "ganglion": 6584,
      "inoculated": 6585,
      "fetuses": 6586,
      "GI": 6587,
      "marg": 6588,
      "sick": 6589,
      "ams": 6590,
      "somat": 6591,
      "monol": 6592,
      "tention": 6593,
      "parent": 6594,
      "kinases": 6595,
      "trypto": 6596,
      "projection": 6597,
      "striatum": 6598,
      "glycemia": 6599,
      "diazep": 6600,
      "ND": 6601,
      "improves": 6602,
      "axial": 6603,
      "differentiate": 6604,
      "promotes": 6605,
      "antiviral": 6606,
      "enrolled": 6607,
      "box": 6608,
      "pretreated": 6609,
      "name": 6610,
      "supply": 6611,
      "differentially": 6612,
      "pregnancies": 6613,
      "penia": 6614,
      "aqueous": 6615,
      "ners": 6616,
      "rd": 6617,
      "rem": 6618,
      "aml": 6619,
      "ended": 6620,
      "ongoing": 6621,
      "turally": 6622,
      "catal": 6623,
      "sensus": 6624,
      "reflected": 6625,
      "septal": 6626,
      "scienti": 6627,
      "phospholipase": 6628,
      "conscious": 6629,
      "GS": 6630,
      "fro": 6631,
      "lut": 6632,
      "trie": 6633,
      "consensus": 6634,
      "obvious": 6635,
      "evid": 6636,
      "methodology": 6637,
      "hydroly": 6638,
      "closure": 6639,
      "fatal": 6640,
      "physiologic": 6641,
      "terminus": 6642,
      "herpes": 6643,
      "arose": 6644,
      "chicken": 6645,
      "carrying": 6646,
      "TNF": 6647,
      "ou": 6648,
      "perfor": 6649,
      "vertical": 6650,
      "alling": 6651,
      "isolate": 6652,
      "chemicals": 6653,
      "ligation": 6654,
      "abnormality": 6655,
      "galacto": 6656,
      "implementation": 6657,
      "returned": 6658,
      "AE": 6659,
      "brom": 6660,
      "bmi": 6661,
      "hemodi": 6662,
      "gered": 6663,
      "plex": 6664,
      "germ": 6665,
      "width": 6666,
      "viable": 6667,
      "service": 6668,
      "normalized": 6669,
      "injured": 6670,
      "mlmin": 6671,
      "SCV": 6672,
      "intensi": 6673,
      "histologically": 6674,
      "hydroxylase": 6675,
      "anaerobic": 6676,
      "hion": 6677,
      "nel": 6678,
      "idase": 6679,
      "dermal": 6680,
      "aching": 6681,
      "stored": 6682,
      "promoted": 6683,
      "modalities": 6684,
      "isomer": 6685,
      "elect": 6686,
      "ecy": 6687,
      "leuc": 6688,
      "emul": 6689,
      "essentially": 6690,
      "session": 6691,
      "questions": 6692,
      "colorectal": 6693,
      "precursor": 6694,
      "shortening": 6695,
      "ja": 6696,
      "excessive": 6697,
      "ffe": 6698,
      "antitumor": 6699,
      "nerves": 6700,
      "electroly": 6701,
      "pacing": 6702,
      "familial": 6703,
      "contamination": 6704,
      "filling": 6705,
      "precursors": 6706,
      "cholinergic": 6707,
      "HIV": 6708,
      "LM": 6709,
      "gtp": 6710,
      "nc": 6711,
      "sought": 6712,
      "prefrontal": 6713,
      "enhancing": 6714,
      "cue": 6715,
      "extended": 6716,
      "distributions": 6717,
      "ghts": 6718,
      "speech": 6719,
      "golgi": 6720,
      "synergistic": 6721,
      "hall": 6722,
      "timed": 6723,
      "oro": 6724,
      "exception": 6725,
      "betag": 6726,
      "cinti": 6727,
      "fourth": 6728,
      "mammary": 6729,
      "homology": 6730,
      "pharmacokinetics": 6731,
      "cardiomyopathy": 6732,
      "insights": 6733,
      "tcr": 6734,
      "lowering": 6735,
      "loro": 6736,
      "placental": 6737,
      "reading": 6738,
      "excluded": 6739,
      "histone": 6740,
      "inferior": 6741,
      "disturbances": 6742,
      "eosinophil": 6743,
      "striking": 6744,
      "drainage": 6745,
      "tobacco": 6746,
      "meters": 6747,
      "chic": 6748,
      "odec": 6749,
      "cale": 6750,
      "generating": 6751,
      "modality": 6752,
      "predictor": 6753,
      "horiz": 6754,
      "ronectin": 6755,
      "hypoxic": 6756,
      "satisfactory": 6757,
      "tryptophan": 6758,
      "aqu": 6759,
      "hu": 6760,
      "Îº": 6761,
      "enol": 6762,
      "titu": 6763,
      "orption": 6764,
      "reasons": 6765,
      "transferred": 6766,
      "converted": 6767,
      "guided": 6768,
      "vaginal": 6769,
      "auditory": 6770,
      "din": 6771,
      "vectors": 6772,
      "onate": 6773,
      "plane": 6774,
      "disability": 6775,
      "heme": 6776,
      "antigenic": 6777,
      "transduction": 6778,
      "fide": 6779,
      "healthcare": 6780,
      "ballo": 6781,
      "tnfalpha": 6782,
      "LR": 6783,
      "TN": 6784,
      "peaks": 6785,
      "opening": 6786,
      "osens": 6787,
      "viscer": 6788,
      "helix": 6789,
      "cycling": 6790,
      "leukocyte": 6791,
      "sphing": 6792,
      "slo": 6793,
      "bran": 6794,
      "comparisons": 6795,
      "representing": 6796,
      "ethylene": 6797,
      "settings": 6798,
      "auc": 6799,
      "densi": 6800,
      "lens": 6801,
      "encoun": 6802,
      "rotation": 6803,
      "midine": 6804,
      "assayed": 6805,
      "granule": 6806,
      "qualitative": 6807,
      "gic": 6808,
      "accep": 6809,
      "ultra": 6810,
      "meet": 6811,
      "mpa": 6812,
      "peroxidation": 6813,
      "iosis": 6814,
      "accumulated": 6815,
      "inoculation": 6816,
      "fifty": 6817,
      "influenza": 6818,
      "perceived": 6819,
      "fig": 6820,
      "tus": 6821,
      "wind": 6822,
      "zen": 6823,
      "repres": 6824,
      "aldehyde": 6825,
      "room": 6826,
      "acces": 6827,
      "spring": 6828,
      "dissection": 6829,
      "served": 6830,
      "tracer": 6831,
      "vascularization": 6832,
      "contributing": 6833,
      "person": 6834,
      "zygo": 6835,
      "parents": 6836,
      "vulner": 6837,
      "LS": 6838,
      "cab": 6839,
      "fts": 6840,
      "oring": 6841,
      "modes": 6842,
      "ada": 6843,
      "teeth": 6844,
      "emat": 6845,
      "raine": 6846,
      "transform": 6847,
      "mgm": 6848,
      "lesser": 6849,
      "striatal": 6850,
      "nevertheless": 6851,
      "gonadotro": 6852,
      "language": 6853,
      "lec": 6854,
      "scinti": 6855,
      "uch": 6856,
      "presy": 6857,
      "strati": 6858,
      "monas": 6859,
      "cyclase": 6860,
      "nitr": 6861,
      "triggered": 6862,
      "nursing": 6863,
      "salmonella": 6864,
      "prolactin": 6865,
      "irradi": 6866,
      "ineff": 6867,
      "mediators": 6868,
      "discovered": 6869,
      "fundam": 6870,
      "cochlear": 6871,
      "SU": 6872,
      "UP": 6873,
      "mh": 6874,
      "mw": 6875,
      "inate": 6876,
      "birds": 6877,
      "requirement": 6878,
      "sarco": 6879,
      "magnes": 6880,
      "cgmp": 6881,
      "categories": 6882,
      "assist": 6883,
      "datab": 6884,
      "aldosterone": 6885,
      "jejun": 6886,
      "DWI": 6887,
      "DF": 6888,
      "gkg": 6889,
      "ust": 6890,
      "timul": 6891,
      "arbon": 6892,
      "immature": 6893,
      "igible": 6894,
      "hear": 6895,
      "highrisk": 6896,
      "multic": 6897,
      "impos": 6898,
      "insensitive": 6899,
      "CAs": 6900,
      "operatively": 6901,
      "phrag": 6902,
      "enriched": 6903,
      "nutrient": 6904,
      "ultrastructural": 6905,
      "eto": 6906,
      "pace": 6907,
      "ancer": 6908,
      "elective": 6909,
      "latency": 6910,
      "PACE": 6911,
      "digital": 6912,
      "prevalent": 6913,
      "myelo": 6914,
      "NPs": 6915,
      "recruited": 6916,
      "balloon": 6917,
      "D2": 6918,
      "bate": 6919,
      "pid": 6920,
      "retention": 6921,
      "attrac": 6922,
      "china": 6923,
      "infused": 6924,
      "folding": 6925,
      "circa": 6926,
      "filter": 6927,
      "accurately": 6928,
      "phila": 6929,
      "doubleblind": 6930,
      "parental": 6931,
      "hypothalamic": 6932,
      "emerging": 6933,
      "infrared": 6934,
      "LV": 6935,
      "anyl": 6936,
      "ischa": 6937,
      "tsh": 6938,
      "visco": 6939,
      "profound": 6940,
      "allele": 6941,
      "granul": 6942,
      "moderately": 6943,
      "discrimination": 6944,
      "karyo": 6945,
      "hk": 6946,
      "nb": 6947,
      "sms": 6948,
      "olateral": 6949,
      "nodes": 6950,
      "aplas": 6951,
      "spp": 6952,
      "spine": 6953,
      "intermit": 6954,
      "halflife": 6955,
      "accounted": 6956,
      "fibrinogen": 6957,
      "pylori": 6958,
      "nmethyl": 6959,
      "zine": 6960,
      "ica": 6961,
      "sizes": 6962,
      "dip": 6963,
      "spike": 6964,
      "signalling": 6965,
      "polic": 6966,
      "aceu": 6967,
      "importantly": 6968,
      "juven": 6969,
      "tubules": 6970,
      "weekly": 6971,
      "retrospectively": 6972,
      "afferents": 6973,
      "BPM": 6974,
      "OA": 6975,
      "eme": 6976,
      "fist": 6977,
      "ival": 6978,
      "ulmonary": 6979,
      "users": 6980,
      "hyal": 6981,
      "tyr": 6982,
      "visible": 6983,
      "excitability": 6984,
      "analogue": 6985,
      "ACh": 6986,
      "validation": 6987,
      "replaced": 6988,
      "zoa": 6989,
      "methoxy": 6990,
      "acceptable": 6991,
      "cirrhosis": 6992,
      "circadian": 6993,
      "intermittent": 6994,
      "TH": 6995,
      "border": 6996,
      "cure": 6997,
      "thelin": 6998,
      "orubicin": 6999,
      "sevent": 7000,
      "bot": 7001,
      "expon": 7002,
      "flap": 7003,
      "liter": 7004,
      "guide": 7005,
      "recover": 7006,
      "shear": 7007,
      "glia": 7008,
      "iodine": 7009,
      "controversial": 7010,
      "synovi": 7011,
      "ppar": 7012,
      "ensis": 7013,
      "proteolytic": 7014,
      "effector": 7015,
      "polymers": 7016,
      "purification": 7017,
      "constants": 7018,
      "ammonium": 7019,
      "destruction": 7020,
      "mesenchymal": 7021,
      "ny": 7022,
      "phi": 7023,
      "dissemin": 7024,
      "oscopy": 7025,
      "proteinase": 7026,
      "explan": 7027,
      "fashion": 7028,
      "migraine": 7029,
      "cocci": 7030,
      "reaching": 7031,
      "vagal": 7032,
      "scaven": 7033,
      "naptic": 7034,
      "homogeneous": 7035,
      "library": 7036,
      "cass": 7037,
      "gall": 7038,
      "mur": 7039,
      "incomplete": 7040,
      "align": 7041,
      "icidal": 7042,
      "aca": 7043,
      "semi": 7044,
      "ifug": 7045,
      "ples": 7046,
      "activates": 7047,
      "caffe": 7048,
      "subjective": 7049,
      "secretory": 7050,
      "downregulated": 7051,
      "bulk": 7052,
      "cbf": 7053,
      "anticancer": 7054,
      "vertebral": 7055,
      "dramatically": 7056,
      "triglyceride": 7057,
      "dendrites": 7058,
      "vative": 7059,
      "acks": 7060,
      "phage": 7061,
      "nose": 7062,
      "clone": 7063,
      "tives": 7064,
      "ayers": 7065,
      "stiff": 7066,
      "fruc": 7067,
      "histor": 7068,
      "concentrationdependent": 7069,
      "bolus": 7070,
      "prenatal": 7071,
      "architecture": 7072,
      "permanent": 7073,
      "ipr": 7074,
      "pmol": 7075,
      "actual": 7076,
      "adp": 7077,
      "spac": 7078,
      "plasia": 7079,
      "massive": 7080,
      "quantitatively": 7081,
      "kerat": 7082,
      "IVT": 7083,
      "pelvic": 7084,
      "retrie": 7085,
      "ala": 7086,
      "elike": 7087,
      "forward": 7088,
      "aterally": 7089,
      "omeric": 7090,
      "endoplasmic": 7091,
      "standards": 7092,
      "oxygenation": 7093,
      "phospholipids": 7094,
      "killed": 7095,
      "dramatic": 7096,
      "tendency": 7097,
      "cannab": 7098,
      "false": 7099,
      "presumably": 7100,
      "eb": 7101,
      "fgf": 7102,
      "vl": 7103,
      "esters": 7104,
      "dilution": 7105,
      "agic": 7106,
      "boys": 7107,
      "medullary": 7108,
      "achi": 7109,
      "testicular": 7110,
      "mediating": 7111,
      "stimulates": 7112,
      "created": 7113,
      "neonates": 7114,
      "preservation": 7115,
      "parasite": 7116,
      "preferentially": 7117,
      "besides": 7118,
      "inherited": 7119,
      "repetitive": 7120,
      "AEP": 7121,
      "IR": 7122,
      "Rs": 7123,
      "lith": 7124,
      "tai": 7125,
      "testis": 7126,
      "defini": 7127,
      "fluids": 7128,
      "largest": 7129,
      "postsynaptic": 7130,
      "exert": 7131,
      "panel": 7132,
      "blocker": 7133,
      "medications": 7134,
      "prophylaxis": 7135,
      "arboxyl": 7136,
      "ping": 7137,
      "inde": 7138,
      "inputs": 7139,
      "connec": 7140,
      "quant": 7141,
      "msec": 7142,
      "rice": 7143,
      "construct": 7144,
      "topes": 7145,
      "dimensions": 7146,
      "iliary": 7147,
      "acrylamide": 7148,
      "agglutinin": 7149,
      "amygdala": 7150,
      "january": 7151,
      "coating": 7152,
      "unable": 7153,
      "oluble": 7154,
      "azol": 7155,
      "reversal": 7156,
      "myeloid": 7157,
      "aggregates": 7158,
      "anolol": 7159,
      "messeng": 7160,
      "bcell": 7161,
      "pmn": 7162,
      "yto": 7163,
      "aspart": 7164,
      "lea": 7165,
      "dihydroxy": 7166,
      "match": 7167,
      "decades": 7168,
      "sometimes": 7169,
      "operations": 7170,
      "succin": 7171,
      "palli": 7172,
      "continuously": 7173,
      "linkage": 7174,
      "stretch": 7175,
      "mated": 7176,
      "natal": 7177,
      "uk": 7178,
      "reflux": 7179,
      "lowered": 7180,
      "quite": 7181,
      "nonlinear": 7182,
      "equation": 7183,
      "carboxy": 7184,
      "conjugated": 7185,
      "mammals": 7186,
      "comprised": 7187,
      "sugar": 7188,
      "medulla": 7189,
      "EN": 7190,
      "mmol": 7191,
      "mcs": 7192,
      "inn": 7193,
      "ffic": 7194,
      "incident": 7195,
      "subcellular": 7196,
      "indicators": 7197,
      "secon": 7198,
      "studying": 7199,
      "shortterm": 7200,
      "leuko": 7201,
      "isoform": 7202,
      "hemodialysis": 7203,
      "tap": 7204,
      "inform": 7205,
      "insufficient": 7206,
      "meat": 7207,
      "methanol": 7208,
      "ionine": 7209,
      "stimulatory": 7210,
      "endothelin": 7211,
      "oidal": 7212,
      "reveals": 7213,
      "vised": 7214,
      "peptid": 7215,
      "phosphorus": 7216,
      "tubes": 7217,
      "utilizing": 7218,
      "adjustment": 7219,
      "epileptic": 7220,
      "waters": 7221,
      "propr": 7222,
      "oblast": 7223,
      "immunized": 7224,
      "depri": 7225,
      "avp": 7226,
      "diaphrag": 7227,
      "solved": 7228,
      "ophthal": 7229,
      "silon": 7230,
      "innerv": 7231,
      "neutrophil": 7232,
      "emerged": 7233,
      "believed": 7234,
      "encountered": 7235,
      "VF": 7236,
      "aÎ": 7237,
      "dv": 7238,
      "fear": 7239,
      "atum": 7240,
      "ectopic": 7241,
      "cool": 7242,
      "cypa": 7243,
      "dupl": 7244,
      "axon": 7245,
      "screen": 7246,
      "practices": 7247,
      "polymerization": 7248,
      "temporary": 7249,
      "caspase": 7250,
      "osmotic": 7251,
      "EL": 7252,
      "csa": 7253,
      "timat": 7254,
      "ascular": 7255,
      "urance": 7256,
      "seal": 7257,
      "clc": 7258,
      "spas": 7259,
      "het": 7260,
      "myc": 7261,
      "traffic": 7262,
      "performing": 7263,
      "endocardi": 7264,
      "athle": 7265,
      "PMNL": 7266,
      "analogues": 7267,
      "optimum": 7268,
      "rheum": 7269,
      "accepted": 7270,
      "indeed": 7271,
      "bab": 7272,
      "swelling": 7273,
      "tag": 7274,
      "zil": 7275,
      "inside": 7276,
      "veins": 7277,
      "negl": 7278,
      "ends": 7279,
      "clean": 7280,
      "cytolog": 7281,
      "expect": 7282,
      "PCTs": 7283,
      "circular": 7284,
      "placent": 7285,
      "bonds": 7286,
      "encodes": 7287,
      "ovary": 7288,
      "orbital": 7289,
      "staphylococcus": 7290,
      "glucocorticoid": 7291,
      "contralateral": 7292,
      "hmg": 7293,
      "itri": 7294,
      "clinicians": 7295,
      "predn": 7296,
      "parathyroid": 7297,
      "PCs": 7298,
      "reviews": 7299,
      "judg": 7300,
      "buil": 7301,
      "screened": 7302,
      "limiting": 7303,
      "interpreted": 7304,
      "eliminated": 7305,
      "obstruction": 7306,
      "phosphatidylcholine": 7307,
      "irradiated": 7308,
      "propranolol": 7309,
      "fell": 7310,
      "gels": 7311,
      "Âµ": 7312,
      "titers": 7313,
      "version": 7314,
      "micros": 7315,
      "critically": 7316,
      "rank": 7317,
      "translational": 7318,
      "avian": 7319,
      "pus": 7320,
      "intub": 7321,
      "instit": 7322,
      "abuse": 7323,
      "inemia": 7324,
      "ibular": 7325,
      "surpris": 7326,
      "HFA": 7327,
      "attenuation": 7328,
      "augmented": 7329,
      "feasible": 7330,
      "effort": 7331,
      "girls": 7332,
      "remarkable": 7333,
      "immobilized": 7334,
      "dialy": 7335,
      "unexpected": 7336,
      "exacer": 7337,
      "subgroups": 7338,
      "outflow": 7339,
      "overlap": 7340,
      "share": 7341,
      "iotic": 7342,
      "conclusions": 7343,
      "fragmentation": 7344,
      "connected": 7345,
      "carcinogenesis": 7346,
      "pneumoniae": 7347,
      "assumed": 7348,
      "amelior": 7349,
      "cumulative": 7350,
      "vehicle": 7351,
      "visceral": 7352,
      "NM": 7353,
      "ere": 7354,
      "nif": 7355,
      "snp": 7356,
      "atine": 7357,
      "ectomized": 7358,
      "ength": 7359,
      "contributed": 7360,
      "balbc": 7361,
      "nfkappab": 7362,
      "pharm": 7363,
      "hydration": 7364,
      "innervation": 7365,
      "favour": 7366,
      "ultrasonography": 7367,
      "VPI": 7368,
      "ylo": 7369,
      "iness": 7370,
      "thres": 7371,
      "ested": 7372,
      "acil": 7373,
      "caus": 7374,
      "descending": 7375,
      "thereafter": 7376,
      "switch": 7377,
      "intravenously": 7378,
      "ograms": 7379,
      "lysine": 7380,
      "occupational": 7381,
      "threatening": 7382,
      "check": 7383,
      "waves": 7384,
      "edge": 7385,
      "rose": 7386,
      "sibility": 7387,
      "modulin": 7388,
      "sarcoma": 7389,
      "planning": 7390,
      "enin": 7391,
      "urity": 7392,
      "apc": 7393,
      "sou": 7394,
      "dosing": 7395,
      "immunob": 7396,
      "fibronectin": 7397,
      "postnatal": 7398,
      "twel": 7399,
      "SPK": 7400,
      "deliver": 7401,
      "genotype": 7402,
      "powerful": 7403,
      "compartments": 7404,
      "indometh": 7405,
      "additive": 7406,
      "catalase": 7407,
      "tf": 7408,
      "rej": 7409,
      "compet": 7410,
      "colitis": 7411,
      "shunt": 7412,
      "diagnoses": 7413,
      "reporter": 7414,
      "stronger": 7415,
      "egfr": 7416,
      "extensively": 7417,
      "adapted": 7418,
      "propag": 7419,
      "concern": 7420,
      "tnfÎ": 7421,
      "naturally": 7422,
      "aerobic": 7423,
      "nurses": 7424,
      "somatostatin": 7425,
      "magnesium": 7426,
      "DB": 7427,
      "ccr": 7428,
      "dodec": 7429,
      "wist": 7430,
      "ensure": 7431,
      "andro": 7432,
      "south": 7433,
      "disul": 7434,
      "centrifug": 7435,
      "radiological": 7436,
      "immunocyto": 7437,
      "catabol": 7438,
      "exposures": 7439,
      "continue": 7440,
      "averaged": 7441,
      "wavel": 7442,
      "segreg": 7443,
      "broncho": 7444,
      "filled": 7445,
      "depleted": 7446,
      "enrichment": 7447,
      "aspartate": 7448,
      "twelve": 7449,
      "fen": 7450,
      "zero": 7451,
      "demand": 7452,
      "malaria": 7453,
      "agerelated": 7454,
      "specimen": 7455,
      "swit": 7456,
      "neoplasms": 7457,
      "ingestion": 7458,
      "aq": 7459,
      "scr": 7460,
      "vig": 7461,
      "trun": 7462,
      "velo": 7463,
      "implants": 7464,
      "bias": 7465,
      "indication": 7466,
      "stein": 7467,
      "horses": 7468,
      "rupture": 7469,
      "pyram": 7470,
      "volunt": 7471,
      "spermatozoa": 7472,
      "indomethacin": 7473,
      "bif": 7474,
      "hat": 7475,
      "lated": 7476,
      "psi": 7477,
      "atmo": 7478,
      "herent": 7479,
      "raw": 7480,
      "microorganisms": 7481,
      "pulses": 7482,
      "retard": 7483,
      "consideration": 7484,
      "homogen": 7485,
      "scans": 7486,
      "nephropathy": 7487,
      "suspension": 7488,
      "fundamental": 7489,
      "reacted": 7490,
      "erge": 7491,
      "oradi": 7492,
      "icu": 7493,
      "took": 7494,
      "concurrent": 7495,
      "quick": 7496,
      "dyst": 7497,
      "inium": 7498,
      "standing": 7499,
      "surviv": 7500,
      "glutamine": 7501,
      "designated": 7502,
      "allogeneic": 7503,
      "degraded": 7504,
      "pestic": 7505,
      "inserted": 7506,
      "horizontal": 7507,
      "connections": 7508,
      "atonin": 7509,
      "ordered": 7510,
      "forces": 7511,
      "uncommon": 7512,
      "percep": 7513,
      "genicity": 7514,
      "reporting": 7515,
      "environments": 7516,
      "rings": 7517,
      "colocal": 7518,
      "african": 7519,
      "dysplasia": 7520,
      "Îºb": 7521,
      "achiev": 7522,
      "pharmaceu": 7523,
      "PU": 7524,
      "S2": 7525,
      "gover": 7526,
      "rational": 7527,
      "refer": 7528,
      "chos": 7529,
      "doub": 7530,
      "preven": 7531,
      "trait": 7532,
      "muscar": 7533,
      "capto": 7534,
      "intraperitoneal": 7535,
      "ventricle": 7536,
      "participation": 7537,
      "keratin": 7538,
      "mapk": 7539,
      "shared": 7540,
      "olecular": 7541,
      "diarrhea": 7542,
      "virulence": 7543,
      "B1": 7544,
      "nacetyl": 7545,
      "tcd": 7546,
      "insuff": 7547,
      "tio": 7548,
      "wet": 7549,
      "anted": 7550,
      "hydra": 7551,
      "parkins": 7552,
      "radial": 7553,
      "modest": 7554,
      "distant": 7555,
      "breaks": 7556,
      "eggs": 7557,
      "alkaline": 7558,
      "hearts": 7559,
      "caffeine": 7560,
      "DS": 7561,
      "LF": 7562,
      "LG": 7563,
      "Ns": 7564,
      "iar": 7565,
      "void": 7566,
      "anato": 7567,
      "entin": 7568,
      "wil": 7569,
      "termed": 7570,
      "ago": 7571,
      "amni": 7572,
      "otherwise": 7573,
      "melano": 7574,
      "hcg": 7575,
      "crystals": 7576,
      "osteocl": 7577,
      "BF": 7578,
      "gv": 7579,
      "qol": 7580,
      "enables": 7581,
      "tium": 7582,
      "icular": 7583,
      "disc": 7584,
      "carcass": 7585,
      "crp": 7586,
      "mscs": 7587,
      "defense": 7588,
      "mention": 7589,
      "fibres": 7590,
      "lamb": 7591,
      "participate": 7592,
      "attack": 7593,
      "modulating": 7594,
      "radioactivity": 7595,
      "tgfÎ": 7596,
      "contaminated": 7597,
      "penetration": 7598,
      "substituted": 7599,
      "paradigm": 7600,
      "scientific": 7601,
      "sen": 7602,
      "tris": 7603,
      "formulations": 7604,
      "mgday": 7605,
      "survived": 7606,
      "crystall": 7607,
      "sidase": 7608,
      "inhalation": 7609,
      "proportional": 7610,
      "seconds": 7611,
      "ares": 7612,
      "natri": 7613,
      "rated": 7614,
      "sna": 7615,
      "anp": 7616,
      "isions": 7617,
      "abdo": 7618,
      "illi": 7619,
      "formula": 7620,
      "matous": 7621,
      "lineage": 7622,
      "oligonucle": 7623,
      "glucagon": 7624,
      "warr": 7625,
      "inos": 7626,
      "ont": 7627,
      "tea": 7628,
      "compe": 7629,
      "preci": 7630,
      "property": 7631,
      "glycogen": 7632,
      "metals": 7633,
      "transfection": 7634,
      "conjugates": 7635,
      "elucidated": 7636,
      "coordination": 7637,
      "nodules": 7638,
      "thresholds": 7639,
      "preventive": 7640,
      "FI": 7641,
      "rod": 7642,
      "arach": 7643,
      "prostatic": 7644,
      "preferred": 7645,
      "antidepres": 7646,
      "brains": 7647,
      "melatonin": 7648,
      "anthine": 7649,
      "messenger": 7650,
      "NB": 7651,
      "gone": 7652,
      "lr": 7653,
      "pca": 7654,
      "recombination": 7655,
      "enable": 7656,
      "ofol": 7657,
      "ascending": 7658,
      "elast": 7659,
      "agar": 7660,
      "ament": 7661,
      "imide": 7662,
      "umab": 7663,
      "irr": 7664,
      "partition": 7665,
      "responding": 7666,
      "calcit": 7667,
      "charges": 7668,
      "situation": 7669,
      "situations": 7670,
      "corticosterone": 7671,
      "oblasto": 7672,
      "progenitor": 7673,
      "lectin": 7674,
      "atom": 7675,
      "tip": 7676,
      "coil": 7677,
      "depolar": 7678,
      "conjunction": 7679,
      "idol": 7680,
      "nox": 7681,
      "preference": 7682,
      "trace": 7683,
      "microsomes": 7684,
      "pyro": 7685,
      "PSD": 7686,
      "puls": 7687,
      "constructs": 7688,
      "liposomes": 7689,
      "descrip": 7690,
      "burn": 7691,
      "pgml": 7692,
      "frozen": 7693,
      "pyramidal": 7694,
      "chosen": 7695,
      "muscarinic": 7696,
      "TS": 7697,
      "gml": 7698,
      "ogenic": 7699,
      "voc": 7700,
      "ende": 7701,
      "ising": 7702,
      "perin": 7703,
      "spect": 7704,
      "amphet": 7705,
      "hepatocytes": 7706,
      "mitogen": 7707,
      "separately": 7708,
      "homocysteine": 7709,
      "technical": 7710,
      "aeros": 7711,
      "discovery": 7712,
      "knockdown": 7713,
      "million": 7714,
      "presynaptic": 7715,
      "juvenile": 7716,
      "HM": 7717,
      "hbs": 7718,
      "kv": 7719,
      "swi": 7720,
      "instability": 7721,
      "oder": 7722,
      "foci": 7723,
      "precision": 7724,
      "hela": 7725,
      "supplement": 7726,
      "hamsters": 7727,
      "phylogenetic": 7728,
      "distinguished": 7729,
      "ammonia": 7730,
      "spindle": 7731,
      "gyr": 7732,
      "hold": 7733,
      "inverse": 7734,
      "ecs": 7735,
      "itors": 7736,
      "teral": 7737,
      "perturb": 7738,
      "nocic": 7739,
      "disappeared": 7740,
      "ideal": 7741,
      "hrp": 7742,
      "sixty": 7743,
      "usefulness": 7744,
      "conditioned": 7745,
      "connection": 7746,
      "embolism": 7747,
      "karyotic": 7748,
      "gingival": 7749,
      "resources": 7750,
      "GCs": 7751,
      "UC": 7752,
      "fecal": 7753,
      "null": 7754,
      "wors": 7755,
      "appar": 7756,
      "thermia": 7757,
      "cys": 7758,
      "becomes": 7759,
      "applying": 7760,
      "breeding": 7761,
      "cyclospor": 7762,
      "helpful": 7763,
      "stabilization": 7764,
      "discrete": 7765,
      "bmp": 7766,
      "hh": 7767,
      "ali": 7768,
      "rostral": 7769,
      "ingu": 7770,
      "abled": 7771,
      "disci": 7772,
      "pep": 7773,
      "prevents": 7774,
      "ept": 7775,
      "overcome": 7776,
      "austral": 7777,
      "tware": 7778,
      "twitch": 7779,
      "cutoff": 7780,
      "conversely": 7781,
      "drive": 7782,
      "anatomic": 7783,
      "killing": 7784,
      "inversely": 7785,
      "menopausal": 7786,
      "leish": 7787,
      "novo": 7788,
      "apor": 7789,
      "osity": 7790,
      "drop": 7791,
      "giant": 7792,
      "micromol": 7793,
      "aspect": 7794,
      "ethnic": 7795,
      "homozygous": 7796,
      "pyruv": 7797,
      "accompl": 7798,
      "hamster": 7799,
      "tlr": 7800,
      "innate": 7801,
      "vv": 7802,
      "reated": 7803,
      "encour": 7804,
      "prospectively": 7805,
      "ifen": 7806,
      "shoul": 7807,
      "epine": 7808,
      "blast": 7809,
      "ophils": 7810,
      "automated": 7811,
      "pped": 7812,
      "adipose": 7813,
      "silver": 7814,
      "enough": 7815,
      "coverage": 7816,
      "timately": 7817,
      "leishman": 7818,
      "punc": 7819,
      "sds": 7820,
      "asia": 7821,
      "tron": 7822,
      "directional": 7823,
      "complexity": 7824,
      "periodic": 7825,
      "autoantibodies": 7826,
      "exercis": 7827,
      "likeli": 7828,
      "segmental": 7829,
      "reproducible": 7830,
      "vesicle": 7831,
      "challenging": 7832,
      "walking": 7833,
      "anatomy": 7834,
      "likelihood": 7835,
      "baro": 7836,
      "cck": 7837,
      "ient": 7838,
      "kit": 7839,
      "ofen": 7840,
      "ascor": 7841,
      "restim": 7842,
      "covered": 7843,
      "prove": 7844,
      "ifng": 7845,
      "gross": 7846,
      "cryo": 7847,
      "arities": 7848,
      "virtually": 7849,
      "structurally": 7850,
      "glau": 7851,
      "twin": 7852,
      "empir": 7853,
      "granular": 7854,
      "trained": 7855,
      "shaped": 7856,
      "atropine": 7857,
      "aspirin": 7858,
      "hydrol": 7859,
      "dementi": 7860,
      "weaning": 7861,
      "npy": 7862,
      "sand": 7863,
      "samine": 7864,
      "tly": 7865,
      "zones": 7866,
      "tot": 7867,
      "arct": 7868,
      "ecto": 7869,
      "lev": 7870,
      "constrain": 7871,
      "noc": 7872,
      "elles": 7873,
      "soils": 7874,
      "ionization": 7875,
      "faction": 7876,
      "amplified": 7877,
      "thymus": 7878,
      "maps": 7879,
      "difficulties": 7880,
      "constituted": 7881,
      "scattering": 7882,
      "shoulder": 7883,
      "DD": 7884,
      "interrup": 7885,
      "biofil": 7886,
      "pathies": 7887,
      "mutase": 7888,
      "turing": 7889,
      "oxytocin": 7890,
      "helical": 7891,
      "object": 7892,
      "reproducibility": 7893,
      "spher": 7894,
      "software": 7895,
      "definition": 7896,
      "homologous": 7897,
      "olipo": 7898,
      "splicing": 7899,
      "exacerb": 7900,
      "udes": 7901,
      "thr": 7902,
      "roots": 7903,
      "trp": 7904,
      "hered": 7905,
      "rip": 7906,
      "dystro": 7907,
      "investigating": 7908,
      "scop": 7909,
      "epitopes": 7910,
      "flexion": 7911,
      "cascade": 7912,
      "running": 7913,
      "arising": 7914,
      "anomalies": 7915,
      "items": 7916,
      "discipl": 7917,
      "ART": 7918,
      "gag": 7919,
      "lands": 7920,
      "xin": 7921,
      "hosts": 7922,
      "irreversible": 7923,
      "extend": 7924,
      "representative": 7925,
      "reflects": 7926,
      "predomin": 7927,
      "candidates": 7928,
      "implemented": 7929,
      "AV": 7930,
      "wm": 7931,
      "offe": 7932,
      "wash": 7933,
      "lie": 7934,
      "carnit": 7935,
      "butyl": 7936,
      "shar": 7937,
      "lymphomas": 7938,
      "epitheli": 7939,
      "suffered": 7940,
      "smokers": 7941,
      "chromatographic": 7942,
      "addressed": 7943,
      "bicarbon": 7944,
      "sporadic": 7945,
      "feedback": 7946,
      "plaques": 7947,
      "japan": 7948,
      "cholinesterase": 7949,
      "professional": 7950,
      "apparatus": 7951,
      "tk": 7952,
      "tv": 7953,
      "strand": 7954,
      "vip": 7955,
      "dermat": 7956,
      "north": 7957,
      "porphy": 7958,
      "ivo": 7959,
      "radiol": 7960,
      "thiol": 7961,
      "lymphatic": 7962,
      "densities": 7963,
      "voluntary": 7964,
      "mentioned": 7965,
      "cgrp": 7966,
      "fb": 7967,
      "gst": 7968,
      "vae": 7969,
      "asc": 7970,
      "resus": 7971,
      "uml": 7972,
      "blasts": 7973,
      "phore": 7974,
      "livers": 7975,
      "weakness": 7976,
      "phosphatidylinositol": 7977,
      "anaesthesia": 7978,
      "manipulation": 7979,
      "survivors": 7980,
      "gyrus": 7981,
      "ES": 7982,
      "wing": 7983,
      "tooth": 7984,
      "cein": 7985,
      "sucro": 7986,
      "reness": 7987,
      "opsis": 7988,
      "regurg": 7989,
      "transduc": 7990,
      "decade": 7991,
      "manu": 7992,
      "grain": 7993,
      "fibre": 7994,
      "radiographic": 7995,
      "contributions": 7996,
      "careful": 7997,
      "optimization": 7998,
      "season": 7999,
      "globulin": 8000,
      "interfere": 8001,
      "leucine": 8002,
      "ever": 8003,
      "pad": 8004,
      "chi": 8005,
      "began": 8006,
      "perhap": 8007,
      "pea": 8008,
      "highdose": 8009,
      "decem": 8010,
      "expressions": 8011,
      "radiograph": 8012,
      "ampa": 8013,
      "thymidine": 8014,
      "lipopolysaccharide": 8015,
      "accessory": 8016,
      "personality": 8017,
      "immunoblot": 8018,
      "bicarbonate": 8019,
      "perhaps": 8020,
      "bia": 8021,
      "kcal": 8022,
      "oocyte": 8023,
      "vinc": 8024,
      "exc": 8025,
      "verbal": 8026,
      "odend": 8027,
      "undergone": 8028,
      "microsomal": 8029,
      "overl": 8030,
      "ctl": 8031,
      "heterozygous": 8032,
      "colonies": 8033,
      "platform": 8034,
      "shifts": 8035,
      "sigma": 8036,
      "echocardiographic": 8037,
      "focusing": 8038,
      "plasminogen": 8039,
      "pyruvate": 8040,
      "cbl": 8041,
      "tails": 8042,
      "clea": 8043,
      "ectives": 8044,
      "pik": 8045,
      "termination": 8046,
      "analogs": 8047,
      "connective": 8048,
      "ribonucle": 8049,
      "neurologic": 8050,
      "examples": 8051,
      "constitute": 8052,
      "soybean": 8053,
      "evidenced": 8054,
      "stiffness": 8055,
      "DH": 8056,
      "¤": 8057,
      "inactivated": 8058,
      "ellow": 8059,
      "copd": 8060,
      "mph": 8061,
      "endurance": 8062,
      "transforming": 8063,
      "mediator": 8064,
      "endotoxin": 8065,
      "determinant": 8066,
      "damaged": 8067,
      "amplitudes": 8068,
      "chickens": 8069,
      "competition": 8070,
      "remarkably": 8071,
      "leakage": 8072,
      "MG": 8073,
      "gative": 8074,
      "kcl": 8075,
      "lavage": 8076,
      "rbc": 8077,
      "edip": 8078,
      "station": 8079,
      "adding": 8080,
      "charides": 8081,
      "contrary": 8082,
      "pdt": 8083,
      "recognize": 8084,
      "PLB": 8085,
      "bronchi": 8086,
      "potentiation": 8087,
      "eh": 8088,
      "ohd": 8089,
      "¼": 8090,
      "asi": 8091,
      "arise": 8092,
      "permit": 8093,
      "span": 8094,
      "dom": 8095,
      "episo": 8096,
      "positivity": 8097,
      "alphas": 8098,
      "capability": 8099,
      "gfp": 8100,
      "bilir": 8101,
      "sensing": 8102,
      "supernat": 8103,
      "junctions": 8104,
      "challenged": 8105,
      "microgml": 8106,
      "spiro": 8107,
      "disturbance": 8108,
      "prophylactic": 8109,
      "configuration": 8110,
      "deterioration": 8111,
      "progressively": 8112,
      "quantum": 8113,
      "hereditary": 8114,
      "gad": 8115,
      "nterminal": 8116,
      "cline": 8117,
      "pah": 8118,
      "polypeptides": 8119,
      "scope": 8120,
      "approved": 8121,
      "sulfur": 8122,
      "bilities": 8123,
      "category": 8124,
      "larvae": 8125,
      "fruit": 8126,
      "insufficiency": 8127,
      "fh": 8128,
      "scor": 8129,
      "appreci": 8130,
      "neigh": 8131,
      "trex": 8132,
      "crude": 8133,
      "CSF": 8134,
      "ranges": 8135,
      "photon": 8136,
      "classical": 8137,
      "persisted": 8138,
      "grafting": 8139,
      "violet": 8140,
      "surfactant": 8141,
      "pacema": 8142,
      "ifngamma": 8143,
      "IT": 8144,
      "cofac": 8145,
      "giving": 8146,
      "react": 8147,
      "acceptor": 8148,
      "staging": 8149,
      "ulus": 8150,
      "codon": 8151,
      "ames": 8152,
      "hot": 8153,
      "contacts": 8154,
      "etin": 8155,
      "myosin": 8156,
      "sterol": 8157,
      "epitope": 8158,
      "leuco": 8159,
      "trypt": 8160,
      "lamina": 8161,
      "penetr": 8162,
      "skills": 8163,
      "peptidase": 8164,
      "wistar": 8165,
      "LB": 8166,
      "bred": 8167,
      "mous": 8168,
      "obut": 8169,
      "highperformance": 8170,
      "buty": 8171,
      "folate": 8172,
      "needle": 8173,
      "fractional": 8174,
      "hospitalization": 8175,
      "suppressive": 8176,
      "laborator": 8177,
      "confined": 8178,
      "leukemic": 8179,
      "deletions": 8180,
      "elimination": 8181,
      "plaque": 8182,
      "pericardi": 8183,
      "ineffective": 8184,
      "carnitine": 8185,
      "manufac": 8186,
      "december": 8187,
      "EE": 8188,
      "LI": 8189,
      "ether": 8190,
      "lation": 8191,
      "thia": 8192,
      "eclamp": 8193,
      "sophila": 8194,
      "dismutase": 8195,
      "opor": 8196,
      "achol": 8197,
      "tamox": 8198,
      "polyclonal": 8199,
      "cholecy": 8200,
      "restoration": 8201,
      "angiogenic": 8202,
      "thrombotic": 8203,
      "regarded": 8204,
      "doxorubicin": 8205,
      "fructose": 8206,
      "HV": 8207,
      "nps": 8208,
      "tx": 8209,
      "onc": 8210,
      "islet": 8211,
      "trab": 8212,
      "unstable": 8213,
      "ambul": 8214,
      "iry": 8215,
      "drosophila": 8216,
      "tropin": 8217,
      "regulators": 8218,
      "autophag": 8219,
      "ICE": 8220,
      "crosslinking": 8221,
      "programme": 8222,
      "difficulty": 8223,
      "exclusion": 8224,
      "weakly": 8225,
      "ALP": 8226,
      "parasites": 8227,
      "ifnÎ": 8228,
      "trends": 8229,
      "potentiated": 8230,
      "breathing": 8231,
      "loxacin": 8232,
      "cig": 8233,
      "fused": 8234,
      "px": 8235,
      "inely": 8236,
      "tir": 8237,
      "asal": 8238,
      "sitis": 8239,
      "resses": 8240,
      "amer": 8241,
      "osac": 8242,
      "interacting": 8243,
      "managed": 8244,
      "variate": 8245,
      "cdc": 8246,
      "locally": 8247,
      "intram": 8248,
      "objectives": 8249,
      "glycemic": 8250,
      "stereo": 8251,
      "aberrant": 8252,
      "fluctuations": 8253,
      "dodecyl": 8254,
      "endemic": 8255,
      "MNC": 8256,
      "Thy": 8257,
      "arker": 8258,
      "lean": 8259,
      "mpo": 8260,
      "motone": 8261,
      "microvascular": 8262,
      "picture": 8263,
      "brown": 8264,
      "germin": 8265,
      "description": 8266,
      "attempts": 8267,
      "bromide": 8268,
      "amphetamine": 8269,
      "sucrose": 8270,
      "mcf": 8271,
      "nadh": 8272,
      "rif": 8273,
      "race": 8274,
      "sap": 8275,
      "vd": 8276,
      "ww": 8277,
      "atomic": 8278,
      "urium": 8279,
      "oneph": 8280,
      "opulmonary": 8281,
      "calibration": 8282,
      "annual": 8283,
      "femoral": 8284,
      "tumorig": 8285,
      "vaccinated": 8286,
      "nanoparticles": 8287,
      "fetus": 8288,
      "dementia": 8289,
      "episode": 8290,
      "laboratories": 8291,
      "bath": 8292,
      "tand": 8293,
      "urane": 8294,
      "trh": 8295,
      "team": 8296,
      "ureth": 8297,
      "fies": 8298,
      "entity": 8299,
      "meso": 8300,
      "grams": 8301,
      "empty": 8302,
      "colonization": 8303,
      "absorbed": 8304,
      "mandibular": 8305,
      "expanded": 8306,
      "apamil": 8307,
      "renol": 8308,
      "embed": 8309,
      "domes": 8310,
      "centre": 8311,
      "osus": 8312,
      "ylation": 8313,
      "epig": 8314,
      "aminase": 8315,
      "infusions": 8316,
      "guidance": 8317,
      "brazil": 8318,
      "ankle": 8319,
      "pir": 8320,
      "trol": 8321,
      "ert": 8322,
      "icam": 8323,
      "too": 8324,
      "ressing": 8325,
      "pois": 8326,
      "ambi": 8327,
      "spite": 8328,
      "angina": 8329,
      "transverse": 8330,
      "suppl": 8331,
      "select": 8332,
      "pleural": 8333,
      "mercur": 8334,
      "equip": 8335,
      "autopsy": 8336,
      "video": 8337,
      "record": 8338,
      "conflic": 8339,
      "vasoconstriction": 8340,
      "technologies": 8341,
      "oligo": 8342,
      "realtime": 8343,
      "establishment": 8344,
      "MES": 8345,
      "gabaergic": 8346,
      "emphasis": 8347,
      "nifedip": 8348,
      "MAP": 8349,
      "hsd": 8350,
      "xi": 8351,
      "energ": 8352,
      "usa": 8353,
      "aret": 8354,
      "examining": 8355,
      "transferrin": 8356,
      "thromycin": 8357,
      "accordingly": 8358,
      "absorb": 8359,
      "routinely": 8360,
      "belonging": 8361,
      "filaments": 8362,
      "losses": 8363,
      "ged": 8364,
      "gives": 8365,
      "je": 8366,
      "lname": 8367,
      "rub": 8368,
      "reac": 8369,
      "terti": 8370,
      "adjunc": 8371,
      "river": 8372,
      "biphasic": 8373,
      "aminergic": 8374,
      "functioning": 8375,
      "electrophysiological": 8376,
      "citrate": 8377,
      "scheme": 8378,
      "nitrate": 8379,
      "owing": 8380,
      "catheters": 8381,
      "connectivity": 8382,
      "confirming": 8383,
      "satisfaction": 8384,
      "itrile": 8385,
      "surprisingly": 8386,
      "easy": 8387,
      "rim": 8388,
      "cough": 8389,
      "utable": 8390,
      "hypoten": 8391,
      "society": 8392,
      "concentrated": 8393,
      "structured": 8394,
      "assessments": 8395,
      "airways": 8396,
      "lifethreatening": 8397,
      "employing": 8398,
      "basement": 8399,
      "concerns": 8400,
      "deviation": 8401,
      "cannabin": 8402,
      "resuscit": 8403,
      "tamoxifen": 8404,
      "ky": 8405,
      "kept": 8406,
      "nl": 8407,
      "unted": 8408,
      "motiv": 8409,
      "preclinical": 8410,
      "matching": 8411,
      "mechanistic": 8412,
      "create": 8413,
      "caps": 8414,
      "synthetase": 8415,
      "methylene": 8416,
      "participated": 8417,
      "solubility": 8418,
      "advance": 8419,
      "assem": 8420,
      "comprising": 8421,
      "vasculature": 8422,
      "fertilization": 8423,
      "nifedipine": 8424,
      "dup": 8425,
      "fd": 8426,
      "pma": 8427,
      "sme": 8428,
      "ultimately": 8429,
      "dioxide": 8430,
      "poies": 8431,
      "vii": 8432,
      "viii": 8433,
      "obarb": 8434,
      "transmitted": 8435,
      "venom": 8436,
      "exerts": 8437,
      "converting": 8438,
      "articular": 8439,
      "cyclohex": 8440,
      "attributable": 8441,
      "insertion": 8442,
      "aneurysms": 8443,
      "capsule": 8444,
      "inspiratory": 8445,
      "branches": 8446,
      "awareness": 8447,
      "window": 8448,
      "retardation": 8449,
      "poiesis": 8450,
      "avir": 8451,
      "dge": 8452,
      "lag": 8453,
      "acs": 8454,
      "unsaturated": 8455,
      "methionine": 8456,
      "hydrochloride": 8457,
      "neurodegenerative": 8458,
      "adenine": 8459,
      "integral": 8460,
      "atoms": 8461,
      "borne": 8462,
      "granules": 8463,
      "interesting": 8464,
      "src": 8465,
      "recipro": 8466,
      "chronically": 8467,
      "phorbol": 8468,
      "timedependent": 8469,
      "glaucoma": 8470,
      "RC": 8471,
      "city": 8472,
      "lan": 8473,
      "raction": 8474,
      "cef": 8475,
      "cauc": 8476,
      "allergen": 8477,
      "ylated": 8478,
      "colle": 8479,
      "fertility": 8480,
      "mortem": 8481,
      "periodontal": 8482,
      "latent": 8483,
      "lifetime": 8484,
      "dimension": 8485,
      "spray": 8486,
      "habit": 8487,
      "surgeons": 8488,
      "P0": 8489,
      "fate": 8490,
      "samin": 8491,
      "alle": 8492,
      "oric": 8493,
      "entric": 8494,
      "trand": 8495,
      "trap": 8496,
      "trich": 8497,
      "abain": 8498,
      "verified": 8499,
      "teg": 8500,
      "notably": 8501,
      "interneurons": 8502,
      "affor": 8503,
      "uclear": 8504,
      "hypersensitivity": 8505,
      "surgically": 8506,
      "denatur": 8507,
      "myeloma": 8508,
      "skelet": 8509,
      "biomarker": 8510,
      "recipient": 8511,
      "EPI": 8512,
      "rum": 8513,
      "theta": 8514,
      "tibial": 8515,
      "cod": 8516,
      "tria": 8517,
      "april": 8518,
      "irregular": 8519,
      "split": 8520,
      "mini": 8521,
      "antibacterial": 8522,
      "antisera": 8523,
      "proterenol": 8524,
      "subsets": 8525,
      "typed": 8526,
      "clot": 8527,
      "zebra": 8528,
      "collectively": 8529,
      "myocytes": 8530,
      "distress": 8531,
      "helic": 8532,
      "courses": 8533,
      "conjugate": 8534,
      "attempted": 8535,
      "constitutive": 8536,
      "highlights": 8537,
      "aerosol": 8538,
      "trabec": 8539,
      "eph": 8540,
      "mda": 8541,
      "itr": 8542,
      "pher": 8543,
      "mood": 8544,
      "adr": 8545,
      "irrespective": 8546,
      "verapamil": 8547,
      "shed": 8548,
      "mgml": 8549,
      "lipase": 8550,
      "gradual": 8551,
      "facilitated": 8552,
      "extreme": 8553,
      "eventually": 8554,
      "constituents": 8555,
      "streptococcus": 8556,
      "computational": 8557,
      "causative": 8558,
      "nsa": 8559,
      "pit": 8560,
      "remia": 8561,
      "chito": 8562,
      "mathemat": 8563,
      "diss": 8564,
      "dissolution": 8565,
      "calmodulin": 8566,
      "aving": 8567,
      "completion": 8568,
      "cape": 8569,
      "manifestation": 8570,
      "aspiration": 8571,
      "triple": 8572,
      "mutagenic": 8573,
      "athletes": 8574,
      "tandem": 8575,
      "ao": 8576,
      "cations": 8577,
      "gers": 8578,
      "rrna": 8579,
      "reward": 8580,
      "lytic": 8581,
      "apart": 8582,
      "betas": 8583,
      "intermediates": 8584,
      "immunotherapy": 8585,
      "piper": 8586,
      "held": 8587,
      "isoproterenol": 8588,
      "cerevis": 8589,
      "AT1": 8590,
      "elicit": 8591,
      "crosso": 8592,
      "vertebrates": 8593,
      "policy": 8594,
      "placenta": 8595,
      "KO": 8596,
      "hcl": 8597,
      "namic": 8598,
      "rural": 8599,
      "senes": 8600,
      "alt": 8601,
      "stone": 8602,
      "apolipo": 8603,
      "lium": 8604,
      "calf": 8605,
      "traction": 8606,
      "perioperative": 8607,
      "detach": 8608,
      "sampled": 8609,
      "oides": 8610,
      "quantities": 8611,
      "pathophysiological": 8612,
      "detector": 8613,
      "cues": 8614,
      "physician": 8615,
      "crypto": 8616,
      "seemed": 8617,
      "cyclophosph": 8618,
      "anticip": 8619,
      "schedule": 8620,
      "domestic": 8621,
      "cerevisiae": 8622,
      "MH": 8623,
      "PW": 8624,
      "zi": 8625,
      "inno": 8626,
      "titis": 8627,
      "acu": 8628,
      "proce": 8629,
      "odo": 8630,
      "effusion": 8631,
      "epsilon": 8632,
      "mutated": 8633,
      "purposes": 8634,
      "sequenced": 8635,
      "passage": 8636,
      "arrhythmic": 8637,
      "iliac": 8638,
      "normotensive": 8639,
      "deposits": 8640,
      "bundle": 8641,
      "exponential": 8642,
      "lithium": 8643,
      "definitive": 8644,
      "cterminal": 8645,
      "fn": 8646,
      "qt": 8647,
      "moiety": 8648,
      "ami": 8649,
      "tetrac": 8650,
      "malformations": 8651,
      "infarct": 8652,
      "northern": 8653,
      "shell": 8654,
      "supra": 8655,
      "particulate": 8656,
      "histidine": 8657,
      "predictions": 8658,
      "adenoma": 8659,
      "bromo": 8660,
      "digesti": 8661,
      "fibroblast": 8662,
      "commercially": 8663,
      "esophagus": 8664,
      "spasm": 8665,
      "odendro": 8666,
      "bap": 8667,
      "fec": 8668,
      "reagents": 8669,
      "env": 8670,
      "uly": 8671,
      "exec": 8672,
      "genus": 8673,
      "decisions": 8674,
      "gray": 8675,
      "oming": 8676,
      "lining": 8677,
      "metrical": 8678,
      "litter": 8679,
      "hrh": 8680,
      "rhiz": 8681,
      "classic": 8682,
      "relief": 8683,
      "oligodendro": 8684,
      "econtrol": 8685,
      "numerical": 8686,
      "categor": 8687,
      "industrial": 8688,
      "salivary": 8689,
      "fistula": 8690,
      "intubation": 8691,
      "calcitonin": 8692,
      "hta": 8693,
      "psa": 8694,
      "pip": 8695,
      "inorganic": 8696,
      "isop": 8697,
      "arin": 8698,
      "serological": 8699,
      "varies": 8700,
      "indicative": 8701,
      "sensitization": 8702,
      "eukaryotic": 8703,
      "adenomas": 8704,
      "probable": 8705,
      "reflecting": 8706,
      "anesthetic": 8707,
      "exhibiting": 8708,
      "epidemiology": 8709,
      "prosthesis": 8710,
      "oscillations": 8711,
      "engineered": 8712,
      "southern": 8713,
      "EB": 8714,
      "enanti": 8715,
      "eleven": 8716,
      "resected": 8717,
      "disappearance": 8718,
      "efferen": 8719,
      "pai": 8720,
      "oses": 8721,
      "relin": 8722,
      "prone": 8723,
      "ceptive": 8724,
      "analyzing": 8725,
      "keep": 8726,
      "cdk": 8727,
      "abscess": 8728,
      "immunodeficiency": 8729,
      "limbs": 8730,
      "enhancer": 8731,
      "cyclooxygenase": 8732,
      "fluoride": 8733,
      "atrio": 8734,
      "instruments": 8735,
      "exceeded": 8736,
      "diaphragm": 8737,
      "natriuretic": 8738,
      "cyclophosphamide": 8739,
      "CO": 8740,
      "ahr": 8741,
      "ngf": 8742,
      "oo": 8743,
      "enari": 8744,
      "icp": 8745,
      "utely": 8746,
      "quen": 8747,
      "iono": 8748,
      "interacts": 8749,
      "tism": 8750,
      "menstr": 8751,
      "capill": 8752,
      "thymic": 8753,
      "dairy": 8754,
      "lambs": 8755,
      "intrap": 8756,
      "halo": 8757,
      "remove": 8758,
      "lipoproteins": 8759,
      "solubil": 8760,
      "catalyzed": 8761,
      "circulatory": 8762,
      "splenic": 8763,
      "vertebrate": 8764,
      "enlargement": 8765,
      "peroxis": 8766,
      "osensory": 8767,
      "synovial": 8768,
      "ambient": 8769,
      "GO": 8770,
      "bine": 8771,
      "iq": 8772,
      "xic": 8773,
      "cope": 8774,
      "abinding": 8775,
      "pars": 8776,
      "diffraction": 8777,
      "highresolution": 8778,
      "proteoglycan": 8779,
      "kephal": 8780,
      "logistic": 8781,
      "bones": 8782,
      "initiate": 8783,
      "pka": 8784,
      "radioimmunoassay": 8785,
      "catheterization": 8786,
      "principle": 8787,
      "microns": 8788,
      "breakdown": 8789,
      "attachment": 8790,
      "seasonal": 8791,
      "igfbp": 8792,
      "elongation": 8793,
      "locomotor": 8794,
      "ematched": 8795,
      "tertiary": 8796,
      "list": 8797,
      "rain": 8798,
      "remodeling": 8799,
      "onitrile": 8800,
      "ofibr": 8801,
      "arte": 8802,
      "acidi": 8803,
      "adec": 8804,
      "adducts": 8805,
      "heating": 8806,
      "betal": 8807,
      "comfor": 8808,
      "derm": 8809,
      "neurotransmitter": 8810,
      "postulated": 8811,
      "blockers": 8812,
      "foods": 8813,
      "arrhythmia": 8814,
      "hemisphere": 8815,
      "pharmaceutical": 8816,
      "pacemaker": 8817,
      "HL": 8818,
      "ubin": 8819,
      "vmax": 8820,
      "onium": 8821,
      "agematched": 8822,
      "boy": 8823,
      "tree": 8824,
      "cdcd": 8825,
      "partners": 8826,
      "brainstem": 8827,
      "volatile": 8828,
      "exploration": 8829,
      "septic": 8830,
      "biomass": 8831,
      "avoidance": 8832,
      "haemorrh": 8833,
      "carbachol": 8834,
      "arabid": 8835,
      "nitrite": 8836,
      "NIC": 8837,
      "cfos": 8838,
      "pcs": 8839,
      "staff": 8840,
      "cone": 8841,
      "moving": 8842,
      "abp": 8843,
      "nodal": 8844,
      "hodg": 8845,
      "proteas": 8846,
      "deline": 8847,
      "hydrophilic": 8848,
      "hypoglycemia": 8849,
      "macrom": 8850,
      "morphologic": 8851,
      "adenylate": 8852,
      "dener": 8853,
      "biologically": 8854,
      "fluorescein": 8855,
      "modern": 8856,
      "adolescent": 8857,
      "preceding": 8858,
      "pubertal": 8859,
      "compromised": 8860,
      "noctur": 8861,
      "crossover": 8862,
      "arabidopsis": 8863,
      "BD": 8864,
      "rnas": 8865,
      "sg": 8866,
      "ofold": 8867,
      "diethyl": 8868,
      "metic": 8869,
      "superf": 8870,
      "poi": 8871,
      "apig": 8872,
      "paf": 8873,
      "humoral": 8874,
      "posing": 8875,
      "phenyle": 8876,
      "equations": 8877,
      "intrad": 8878,
      "bonding": 8879,
      "pvn": 8880,
      "communities": 8881,
      "ovulation": 8882,
      "gelatin": 8883,
      "microgramskg": 8884,
      "shifted": 8885,
      "NPY": 8886,
      "transporters": 8887,
      "cationic": 8888,
      "rejection": 8889,
      "HCC": 8890,
      "TI": 8891,
      "bk": 8892,
      "bay": 8893,
      "fum": 8894,
      "titer": 8895,
      "resin": 8896,
      "valv": 8897,
      "corpus": 8898,
      "nak": 8899,
      "desensi": 8900,
      "manual": 8901,
      "twofold": 8902,
      "barb": 8903,
      "visualization": 8904,
      "minimally": 8905,
      "princi": 8906,
      "evolutionary": 8907,
      "phenomena": 8908,
      "compatibility": 8909,
      "plexus": 8910,
      "microspheres": 8911,
      "totally": 8912,
      "offered": 8913,
      "regurgitation": 8914,
      "ACT": 8915,
      "eating": 8916,
      "gia": 8917,
      "itic": 8918,
      "ued": 8919,
      "usage": 8920,
      "lyl": 8921,
      "soon": 8922,
      "spar": 8923,
      "eta": 8924,
      "microarray": 8925,
      "vocal": 8926,
      "sensitized": 8927,
      "salts": 8928,
      "dextran": 8929,
      "agedependent": 8930,
      "graded": 8931,
      "criterion": 8932,
      "illustr": 8933,
      "discrepan": 8934,
      "analgesia": 8935,
      "june": 8936,
      "trunk": 8937,
      "autophagy": 8938,
      "mathematical": 8939,
      "principles": 8940,
      "MO": 8941,
      "cid": 8942,
      "hes": 8943,
      "mec": 8944,
      "mad": 8945,
      "pall": 8946,
      "methane": 8947,
      "pox": 8948,
      "mononuclear": 8949,
      "lives": 8950,
      "forebrain": 8951,
      "similarities": 8952,
      "capture": 8953,
      "influencing": 8954,
      "aeti": 8955,
      "scenari": 8956,
      "experiences": 8957,
      "flexible": 8958,
      "joints": 8959,
      "itous": 8960,
      "corrected": 8961,
      "named": 8962,
      "copies": 8963,
      "intensities": 8964,
      "scopically": 8965,
      "allevi": 8966,
      "atrioventricular": 8967,
      "ken": 8968,
      "rific": 8969,
      "inine": 8970,
      "online": 8971,
      "anil": 8972,
      "arial": 8973,
      "lept": 8974,
      "dio": 8975,
      "mouth": 8976,
      "subtype": 8977,
      "bioactive": 8978,
      "sensiti": 8979,
      "horn": 8980,
      "synapto": 8981,
      "allograft": 8982,
      "originating": 8983,
      "adenovirus": 8984,
      "stabilized": 8985,
      "dispersion": 8986,
      "mucin": 8987,
      "electromy": 8988,
      "fel": 8989,
      "repression": 8990,
      "encapsul": 8991,
      "ofur": 8992,
      "ele": 8993,
      "ura": 8994,
      "quine": 8995,
      "lide": 8996,
      "demonstration": 8997,
      "meaning": 8998,
      "turbed": 8999,
      "biotic": 9000,
      "fourier": 9001,
      "thrombus": 9002,
      "depressive": 9003,
      "snps": 9004,
      "antioxidants": 9005,
      "arrangements": 9006,
      "flavon": 9007,
      "attractive": 9008,
      "institute": 9009,
      "overlapping": 9010,
      "energies": 9011,
      "EU": 9012,
      "ctomy": 9013,
      "kel": 9014,
      "wf": 9015,
      "inti": 9016,
      "revascularization": 9017,
      "ulating": 9018,
      "confocal": 9019,
      "beat": 9020,
      "distor": 9021,
      "dissolved": 9022,
      "mics": 9023,
      "luoro": 9024,
      "mediast": 9025,
      "CSK": 9026,
      "voked": 9027,
      "pilot": 9028,
      "propion": 9029,
      "emergence": 9030,
      "explanation": 9031,
      "bilirubin": 9032,
      "ambulatory": 9033,
      "GF": 9034,
      "ove": 9035,
      "wan": 9036,
      "tolu": 9037,
      "stressed": 9038,
      "deform": 9039,
      "condens": 9040,
      "conjunc": 9041,
      "excis": 9042,
      "portions": 9043,
      "morning": 9044,
      "attacks": 9045,
      "retrograde": 9046,
      "propofol": 9047,
      "science": 9048,
      "oblasts": 9049,
      "phagocytosis": 9050,
      "bigu": 9051,
      "cooling": 9052,
      "accomplished": 9053,
      "cigaret": 9054,
      "NR": 9055,
      "ROS": 9056,
      "fmri": 9057,
      "iare": 9058,
      "lind": 9059,
      "zon": 9060,
      "inadequate": 9061,
      "ani": 9062,
      "why": 9063,
      "spl": 9064,
      "submitted": 9065,
      "arium": 9066,
      "somewhat": 9067,
      "expensive": 9068,
      "betaadrenergic": 9069,
      "suggestive": 9070,
      "automatic": 9071,
      "autosomal": 9072,
      "penicillin": 9073,
      "correspond": 9074,
      "communic": 9075,
      "driving": 9076,
      "furo": 9077,
      "gradients": 9078,
      "behavioural": 9079,
      "believe": 9080,
      "estrus": 9081,
      "scaffol": 9082,
      "monolayers": 9083,
      "hydrolase": 9084,
      "BK": 9085,
      "HI": 9086,
      "SV": 9087,
      "lect": 9088,
      "mapped": 9089,
      "scc": 9090,
      "warm": 9091,
      "enabled": 9092,
      "sided": 9093,
      "exons": 9094,
      "socalled": 9095,
      "ceramide": 9096,
      "author": 9097,
      "ubunit": 9098,
      "oriented": 9099,
      "tricho": 9100,
      "modulatory": 9101,
      "walls": 9102,
      "lactation": 9103,
      "erythrocyte": 9104,
      "conservative": 9105,
      "bdnf": 9106,
      "glycoly": 9107,
      "intravascular": 9108,
      "oxidized": 9109,
      "amniotic": 9110,
[...]
