{
  "version": "1.0",
  "truncation": null,
  "padding": null,
  "added_tokens": [
    {
      "id": 0,
      "content": "<UNK>",
      "single_word": false,
      "lstrip": false,
      "rstrip": false,
      "normalized": false,
      "special": true
    },
    {
      "id": 1,
      "content": "<SEP>",
      "single_word": false,
      "lstrip": false,
      "rstrip": false,
      "normalized": false,
      "special": true
    },
    {
      "id": 2,
      "content": "<MASK>",
      "single_word": false,
      "lstrip": false,
      "rstrip": false,
      "normalized": false,
      "special": true
    },
    {
      "id": 3,
      "content": "<CLS>",
      "single_word": false,
      "lstrip": false,
      "rstrip": false,
      "normalized": false,
      "special": true
    }
  ],
  "normalizer": null,
  "pre_tokenizer": {
    "type": "Whitespace"
  },
  "post_processor": null,
  "decoder": null,
  "model": {
    "type": "WordPiece",
    "unk_token": "<UNK>",
    "continuing_subword_prefix": "##",
    "max_input_chars_per_word": 100,
    "vocab": {
      "<UNK>": 0,
      "<SEP>": 1,
      "<MASK>": 2,
      "<CLS>": 3,
      "&": 4,
      "'": 5,
      "(": 6,
      ")": 7,
      "+": 8,
      ",": 9,
      "-": 10,
      ".": 11,
      "/": 12,
      "0": 13,
      "1": 14,
      "2": 15,
      "3": 16,
      "4": 17,
      "5": 18,
      "6": 19,
      "7": 20,
      "8": 21,
      "9": 22,
      "A": 23,
      "B": 24,
      "C": 25,
      "D": 26,
      "E": 27,
      "F": 28,
      "G": 29,
      "H": 30,
      "I": 31,
      "J": 32,
      "K": 33,
      "L": 34,
      "M": 35,
      "N": 36,
      "O": 37,
      "P": 38,
      "Q": 39,
      "R": 40,
      "S": 41,
      "T": 42,
      "U": 43,
      "V": 44,
      "W": 45,
      "X": 46,
      "Y": 47,
      "Z": 48,
      "[": 49,
      "]": 50,
      "a": 51,
      "b": 52,
      "c": 53,
      "d": 54,
      "e": 55,
      "f": 56,
      "g": 57,
      "h": 58,
      "i": 59,
      "j": 60,
      "k": 61,
      "l": 62,
      "m": 63,
      "n": 64,
      "o": 65,
      "p": 66,
      "q": 67,
      "r": 68,
      "s": 69,
      "t": 70,
      "u": 71,
      "v": 72,
      "w": 73,
      "x": 74,
      "y": 75,
      "z": 76,
      "": 77,
      "": 78,
      "": 79,
      "": 80,
      "": 81,
      "": 82,
      "": 83,
      "": 84,
      "": 85,
      "": 86,
      "": 87,
      "": 88,
      "": 89,
      "": 90,
      "": 91,
      "": 92,
      "": 93,
      "": 94,
      "": 95,
      "": 96,
      "": 97,
      "": 98,
      "": 99,
      "": 100,
      "": 101,
      "": 102,
      "": 103,
      "": 104,
      "": 105,
      "": 106,
      "": 107,
      "¡": 108,
      "¢": 109,
      "£": 110,
      "¤": 111,
      "¥": 112,
      "¦": 113,
      "§": 114,
      "¨": 115,
      "©": 116,
      "ª": 117,
      "«": 118,
      "¬": 119,
      "­": 120,
      "®": 121,
      "¯": 122,
      "°": 123,
      "±": 124,
      "²": 125,
      "³": 126,
      "´": 127,
      "µ": 128,
      "¶": 129,
      "·": 130,
      "¸": 131,
      "¹": 132,
      "º": 133,
      "»": 134,
      "¼": 135,
      "½": 136,
      "¾": 137,
      "¿": 138,
      "Â": 139,
      "Ã": 140,
      "Ä": 141,
      "Å": 142,
      "Æ": 143,
      "Ç": 144,
      "È": 145,
      "É": 146,
      "Ê": 147,
      "Ë": 148,
      "Ì": 149,
      "Í": 150,
      "Î": 151,
      "Ï": 152,
      "Ð": 153,
      "Ñ": 154,
      "Ò": 155,
      "Ó": 156,
      "×": 157,
      "Ø": 158,
      "Û": 159,
      "à": 160,
      "á": 161,
      "â": 162,
      "ã": 163,
      "ê": 164,
      "î": 165,
      "ï": 166,
      "ð": 167,
      "ô": 168,
      "##e": 169,
      "##u": 170,
      "##o": 171,
      "##d": 172,
      "##n": 173,
      "##a": 174,
      "##l": 175,
      "##t": 176,
      "##h": 177,
      "##y": 178,
      "##m": 179,
      "##i": 180,
      "##c": 181,
      "##s": 182,
      "##p": 183,
      "##r": 184,
      "##g": 185,
      "##b": 186,
      "##w": 187,
      "##k": 188,
      "##v": 189,
      "##f": 190,
      "##A": 191,
      "##F": 192,
      "##q": 193,
      "##x": 194,
      "##z": 195,
      "##â": 196,
      "##Î": 197,
      "##º": 198,
      "##Ä": 199,
      "##E": 200,
      "##j": 201,
      "##T": 202,
      "##N": 203,
      "##Â": 204,
      "##L": 205,
      "##S": 206,
      "##": 207,
      "##Ã": 208,
      "##µ": 209,
      "##O": 210,
      "##P": 211,
      "##ï": 212,
      "##C": 213,
      "##Ì": 214,
      "##Q": 215,
      "##Å": 216,
      "##B": 217,
      "##M": 218,
      "##": 219,
      "##H": 220,
      "##V": 221,
      "##I": 222,
      "##U": 223,
      "##Ï": 224,
      "##Y": 225,
      "##K": 226,
      "##1": 227,
      "##3": 228,
      "##´": 229,
      "##R": 230,
      "##É": 231,
      "##D": 232,
      "##G": 233,
      "##Ñ": 234,
      "##Ë": 235,
      "##¥": 236,
      "##W": 237,
      "##0": 238,
      "##¸": 239,
      "##": 240,
      "##Ð": 241,
      "##2": 242,
      "##¦": 243,
      "##J": 244,
      "##ª": 245,
      "##È": 246,
      "##": 247,
      "##": 248,
      "##": 249,
      "##": 250,
      "##X": 251,
      "##¨": 252,
      "##Z": 253,
      "##¢": 254,
      "##5": 255,
      "##¹": 256,
      "##ô": 257,
      "##9": 258,
      "##6": 259,
      "##]": 260,
      "##": 261,
      "##¯": 262,
      "##": 263,
      "##4": 264,
      "##7": 265,
      "##¾": 266,
      "##Ç": 267,
      "##": 268,
      "##³": 269,
      "##×": 270,
      "##8": 271,
      "##": 272,
      "##Ò": 273,
      "##Ó": 274,
      "##": 275,
      "##á": 276,
      "##¶": 277,
      "##": 278,
      "##î": 279,
      "##": 280,
      "##ã": 281,
      "##½": 282,
      "##": 283,
      "##": 284,
      "##": 285,
      "##": 286,
      "##©": 287,
      "##¤": 288,
      "##¬": 289,
      "##": 290,
      "##£": 291,
      "##": 292,
      "##": 293,
      "##": 294,
      "##+": 295,
      "##)": 296,
      "##-": 297,
      "##¼": 298,
      "##Í": 299,
      "##§": 300,
      "##Ê": 301,
      "##": 302,
      "##": 303,
      "##": 304,
      "##": 305,
      "##ð": 306,
      "##·": 307,
      "##¡": 308,
      "##¿": 309,
      "##Æ": 310,
      "##²": 311,
      "##": 312,
      "##°": 313,
      "##": 314,
      "##»": 315,
      "##": 316,
      "##«": 317,
      "##": 318,
      "##Û": 319,
      "##(": 320,
      "th": 321,
      "##ti": 322,
      "##er": 323,
      "##on": 324,
      "##en": 325,
      "the": 326,
      "##ed": 327,
      "##es": 328,
      "##in": 329,
      "in": 330,
      "##al": 331,
      "of": 332,
      "an": 333,
      "##at": 334,
      "##or": 335,
      "##as": 336,
      "##ro": 337,
      "and": 338,
      "##an": 339,
      "##it": 340,
      "##tion": 341,
      "##ic": 342,
      "##ar": 343,
      "##re": 344,
      "##is": 345,
      "##ent": 346,
      "##ec": 347,
      "##el": 348,
      "to": 349,
      "##ing": 350,
      "##ation": 351,
      "##ol": 352,
      "##ul": 353,
      "##et": 354,
      "##os": 355,
      "##om": 356,
      "##ur": 357,
      "##ac": 358,
      "##ith": 359,
      "with": 360,
      "##ly": 361,
      "##id": 362,
      "##us": 363,
      "##ati": 364,
      "##ve": 365,
      "##le": 366,
      "##ere": 367,
      "##th": 368,
      "##tr": 369,
      "con": 370,
      "pro": 371,
      "##uc": 372,
      "##ig": 373,
      "##ter": 374,
      "for": 375,
      "was": 376,
      "##em": 377,
      "##ated": 378,
      "##am": 379,
      "##ep": 380,
      "##ts": 381,
      "##if": 382,
      "##il": 383,
      "is": 384,
      "##ow": 385,
      "##oc": 386,
      "as": 387,
      "##im": 388,
      "##ess": 389,
      "##od": 390,
      "ex": 391,
      "were": 392,
      "##ut": 393,
      "##um": 394,
      "##un": 395,
      "that": 396,
      "by": 397,
      "res": 398,
      "##op": 399,
      "ac": 400,
      "##ell": 401,
      "##ot": 402,
      "on": 403,
      "##tic": 404,
      "##ity": 405,
      "##ir": 406,
      "##ents": 407,
      "al": 408,
      "##ate": 409,
      "##ce": 410,
      "##rom": 411,
      "st": 412,
      "##ab": 413,
      "be": 414,
      "##og": 415,
      "##di": 416,
      "##ion": 417,
      "##se": 418,
      "##ag": 419,
      "##ph": 420,
      "re": 421,
      "ch": 422,
      "##ain": 423,
      "##ys": 424,
      "com": 425,
      "wh": 426,
      "##ib": 427,
      "or": 428,
      "##ant": 429,
      "##ver": 430,
      "##ine": 431,
      "su": 432,
      "##ase": 433,
      "##ad": 434,
      "##ect": 435,
      "pr": 436,
      "##ff": 437,
      "at": 438,
      "##ap": 439,
      "##tin": 440,
      "##ical": 441,
      "cell": 442,
      "inc": 443,
      "##tiv": 444,
      "pati": 445,
      "tr": 446,
      "comp": 447,
      "im": 448,
      "we": 449,
      "from": 450,
      "##igh": 451,
      "##ment": 452,
      "dis": 453,
      "this": 454,
      "##te": 455,
      "patients": 456,
      "##ay": 457,
      "##qu": 458,
      "ad": 459,
      "are": 460,
      "sh": 461,
      "##iz": 462,
      "##yp": 463,
      "##duc": 464,
      "en": 465,
      "##pl": 466,
      "per": 467,
      "##ign": 468,
      "de": 469,
      "##ure": 470,
      "ne": 471,
      "##ence": 472,
      "##ific": 473,
      "##orm": 474,
      "##ous": 475,
      "un": 476,
      "rec": 477,
      "##ans": 478,
      "##fer": 479,
      "sp": 480,
      "##ations": 481,
      "##ch": 482,
      "di": 483,
      "##ud": 484,
      "##ens": 485,
      "ph": 486,
      "exp": 487,
      "##vel": 488,
      "##tive": 489,
      "##ers": 490,
      "##ted": 491,
      "eff": 492,
      "##ial": 493,
      "##ress": 494,
      "##ore": 495,
      "us": 496,
      "##ip": 497,
      "##yl": 498,
      "le": 499,
      "##reas": 500,
      "sign": 501,
      "##oth": 502,
      "##ular": 503,
      "not": 504,
      "##oun": 505,
      "se": 506,
      "##ia": 507,
      "##st": 508,
      "pre": 509,
      "these": 510,
      "##iv": 511,
      "cells": 512,
      "##pp": 513,
      "##ons": 514,
      "##eth": 515,
      "resp": 516,
      "##ting": 517,
      "##ges": 518,
      "##enti": 519,
      "##tor": 520,
      "cl": 521,
      "ass": 522,
      "cont": 523,
      "dif": 524,
      "##ug": 525,
      "##ary": 526,
      "##reat": 527,
      "##ich": 528,
      "##erm": 529,
      "bet": 530,
      "high": 531,
      "##ely": 532,
      "##bs": 533,
      "inf": 534,
      "gro": 535,
      "##up": 536,
      "ha": 537,
      "gen": 538,
      "##ym": 539,
      "par": 540,
      "##olog": 541,
      "##ort": 542,
      "resul": 543,
      "pl": 544,
      "##ath": 545,
      "activ": 546,
      "mic": 547,
      "trans": 548,
      "signific": 549,
      "ag": 550,
      "differ": 551,
      "##ies": 552,
      "me": 553,
      "str": 554,
      "##tein": 555,
      "##tions": 556,
      "significant": 557,
      "##ding": 558,
      "##ved": 559,
      "##der": 560,
      "rep": 561,
      "##enc": 562,
      "inter": 563,
      "show": 564,
      "pres": 565,
      "##ear": 566,
      "pos": 567,
      "which": 568,
      "co": 569,
      "##ance": 570,
      "##ally": 571,
      "than": 572,
      "##rol": 573,
      "imp": 574,
      "conc": 575,
      "am": 576,
      "##ist": 577,
      "rel": 578,
      "##ative": 579,
      "det": 580,
      "##ose": 581,
      "ev": 582,
      "##low": 583,
      "##yn": 584,
      "##reased": 585,
      "##ox": 586,
      "car": 587,
      "have": 588,
      "##one": 589,
      "##ra": 590,
      "inv": 591,
      "##we": 592,
      "anti": 593,
      "##end": 594,
      "sub": 595,
      "reg": 596,
      "##ects": 597,
      "but": 598,
      "protein": 599,
      "##atin": 600,
      "##and": 601,
      "##age": 602,
      "no": 603,
      "##ide": 604,
      "##tim": 605,
      "ab": 606,
      "##all": 607,
      "##hib": 608,
      "##ast": 609,
      "##ound": 610,
      "cor": 611,
      "tw": 612,
      "ind": 613,
      "dur": 614,
      "##ong": 615,
      "##ween": 616,
      "##entr": 617,
      "between": 618,
      "sur": 619,
      "treat": 620,
      "can": 621,
      "##ther": 622,
      "##ression": 623,
      "bl": 624,
      "##ue": 625,
      "anal": 626,
      "##yt": 627,
      "##able": 628,
      "##ected": 629,
      "compar": 630,
      "int": 631,
      "##ates": 632,
      "##est": 633,
      "##ech": 634,
      "##ied": 635,
      "##iti": 636,
      "##so": 637,
      "cons": 638,
      "ca": 639,
      "results": 640,
      "both": 641,
      "##oci": 642,
      "been": 643,
      "all": 644,
      "group": 645,
      "dec": 646,
      "##ulation": 647,
      "it": 648,
      "##ak": 649,
      "##ge": 650,
      "has": 651,
      "##vi": 652,
      "##duced": 653,
      "also": 654,
      "treatment": 655,
      "red": 656,
      "##ive": 657,
      "during": 658,
      "may": 659,
      "mod": 660,
      "ar": 661,
      "##yst": 662,
      "##ost": 663,
      "##cl": 664,
      "##cr": 665,
      "##udi": 666,
      "##form": 667,
      "##ass": 668,
      "##na": 669,
      "hyp": 670,
      "##ator": 671,
      "##ugh": 672,
      "##ach": 673,
      "##lu": 674,
      "studi": 675,
      "##ized": 676,
      "##ros": 677,
      "##ood": 678,
      "using": 679,
      "##ight": 680,
      "inhib": 681,
      "##ating": 682,
      "##mun": 683,
      "app": 684,
      "two": 685,
      "control": 686,
      "sug": 687,
      "##our": 688,
      "fol": 689,
      "##gen": 690,
      "low": 691,
      "##per": 692,
      "activity": 693,
      "##ob": 694,
      "##ined": 695,
      "increased": 696,
      "##ogen": 697,
      "sugges": 698,
      "##osis": 699,
      "##ree": 700,
      "sc": 701,
      "##ium": 702,
      "el": 703,
      "reduc": 704,
      "##ari": 705,
      "spec": 706,
      "##ases": 707,
      "##ection": 708,
      "##ater": 709,
      "##ility": 710,
      "##ub": 711,
      "mon": 712,
      "##ome": 713,
      "had": 714,
      "##anc": 715,
      "more": 716,
      "meth": 717,
      "rat": 718,
      "med": 719,
      "##act": 720,
      "##ism": 721,
      "acc": 722,
      "there": 723,
      "##br": 724,
      "associ": 725,
      "##unc": 726,
      "##als": 727,
      "dise": 728,
      "syn": 729,
      "##lud": 730,
      "##alu": 731,
      "obs": 732,
      "##acter": 733,
      "gl": 734,
      "chan": 735,
      "af": 736,
      "##iss": 737,
      "form": 738,
      "he": 739,
      "##rease": 740,
      "##ained": 741,
      "col": 742,
      "sim": 743,
      "##yd": 744,
      "concentr": 745,
      "bi": 746,
      "meas": 747,
      "present": 748,
      "level": 749,
      "used": 750,
      "##uld": 751,
      "des": 752,
      "ap": 753,
      "##ill": 754,
      "##out": 755,
      "##ures": 756,
      "##ological": 757,
      "##ays": 758,
      "##erap": 759,
      "##ition": 760,
      "how": 761,
      "obser": 762,
      "effect": 763,
      "significantly": 764,
      "##ysis": 765,
      "tim": 766,
      "ser": 767,
      "found": 768,
      "##ane": 769,
      "##ole": 770,
      "one": 771,
      "fac": 772,
      "##atic": 773,
      "es": 774,
      "clin": 775,
      "##agn": 776,
      "immun": 777,
      "their": 778,
      "##etic": 779,
      "##dition": 780,
      "man": 781,
      "T3": 782,
      "bas": 783,
      "##urr": 784,
      "suc": 785,
      "other": 786,
      "stud": 787,
      "indic": 788,
      "syst": 789,
      "sam": 790,
      "##ond": 791,
      "showed": 792,
      "expression": 793,
      "##velop": 794,
      "under": 795,
      "##ectiv": 796,
      "met": 797,
      "after": 798,
      "##ma": 799,
      "dr": 800,
      "oc": 801,
      "##ormal": 802,
      "##ever": 803,
      "effects": 804,
      "hum": 805,
      "compared": 806,
      "##esti": 807,
      "determ": 808,
      "##eptor": 809,
      "T0": 810,
      "develop": 811,
      "follow": 812,
      "##cess": 813,
      "##ri": 814,
      "pot": 815,
      "study": 816,
      "##epend": 817,
      "##ual": 818,
      "contr": 819,
      "##ype": 820,
      "##ata": 821,
      "system": 822,
      "however": 823,
      "its": 824,
      "end": 825,
      "ob": 826,
      "##inding": 827,
      "##ization": 828,
      "##esis": 829,
      "disease": 830,
      "##ective": 831,
      "clinical": 832,
      "##onstr": 833,
      "inhibit": 834,
      "##res": 835,
      "##ors": 836,
      "dem": 837,
      "path": 838,
      "##osph": 839,
      "##ron": 840,
      "##uct": 841,
      "em": 842,
      "##ct": 843,
      "acid": 844,
      "##ile": 845,
      "when": 846,
      "pol": 847,
      "##estig": 848,
      "intr": 849,
      "investig": 850,
      "method": 851,
      "includ": 852,
      "##oid": 853,
      "##action": 854,
      "##mon": 855,
      "id": 856,
      "##ucle": 857,
      "over": 858,
      "##ven": 859,
      "ins": 860,
      "associated": 861,
      "vari": 862,
      "##ions": 863,
      "only": 864,
      "ep": 865,
      "different": 866,
      "CS": 867,
      "##ite": 868,
      "##atory": 869,
      "observed": 870,
      "##vid": 871,
      "data": 872,
      "##itive": 873,
      "##ish": 874,
      "non": 875,
      "##oph": 876,
      "##ential": 877,
      "##gr": 878,
      "min": 879,
      "rem": 880,
      "##ici": 881,
      "studies": 882,
      "##ult": 883,
      "receptor": 884,
      "exam": 885,
      "produc": 886,
      "perform": 887,
      "##tal": 888,
      "into": 889,
      "blood": 890,
      "human": 891,
      "##ments": 892,
      "mg": 893,
      "##ectively": 894,
      "respon": 895,
      "char": 896,
      "##echan": 897,
      "year": 898,
      "##raph": 899,
      "sec": 900,
      "##ard": 901,
      "most": 902,
      "##unction": 903,
      "##ently": 904,
      "up": 905,
      "##lex": 906,
      "analysis": 907,
      "sm": 908,
      "therap": 909,
      "use": 910,
      "supp": 911,
      "response": 912,
      "demonstr": 913,
      "mechan": 914,
      "##min": 915,
      "caus": 916,
      "well": 917,
      "##ail": 918,
      "##rop": 919,
      "increase": 920,
      "##rel": 921,
      "##ik": 922,
      "##ination": 923,
      "##ild": 924,
      "factor": 925,
      "def": 926,
      "normal": 927,
      "##ace": 928,
      "##ency": 929,
      "##iqu": 930,
      "stim": 931,
      "mus": 932,
      "occ": 933,
      "qu": 934,
      "##tid": 935,
      "##ren": 936,
      "mar": 937,
      "aff": 938,
      "out": 939,
      "##usion": 940,
      "cr": 941,
      "rats": 942,
      "##ydro": 943,
      "##ured": 944,
      "micro": 945,
      "our": 946,
      "##ks": 947,
      "##ov": 948,
      "##ograph": 949,
      "ox": 950,
      "time": 951,
      "higher": 952,
      "##och": 953,
      "diagn": 954,
      "##ew": 955,
      "##entif": 956,
      "addition": 957,
      "##osed": 958,
      "##etr": 959,
      "three": 960,
      "evalu": 961,
      "##ulated": 962,
      "##ution": 963,
      "mol": 964,
      "cal": 965,
      "loc": 966,
      "such": 967,
      "##ences": 968,
      "##ants": 969,
      "##ible": 970,
      "##ependent": 971,
      "##adi": 972,
      "##av": 973,
      "character": 974,
      "##ix": 975,
      "changes": 976,
      "fr": 977,
      "##ilar": 978,
      "##ute": 979,
      "mal": 980,
      "tiss": 981,
      "##ked": 982,
      "##aining": 983,
      "peri": 984,
      "cyt": 985,
      "ris": 986,
      "##til": 987,
      "fir": 988,
      "neu": 989,
      "less": 990,
      "grow": 991,
      "ma": 992,
      "exper": 993,
      "##xim": 994,
      "cases": 995,
      "op": 996,
      "##own": 997,
      "identif": 998,
      "nucle": 999,
      "##reated": 1000,
      "##ains": 1001,
      "##ough": 1002,
      "##lic": 1003,
      "plas": 1004,
      "similar": 1005,
      "##umb": 1006,
      "rate": 1007,
      "fur": 1008,
      "##tern": 1009,
      "##cle": 1010,
      "##ord": 1011,
      "mut": 1012,
      "##ne": 1013,
      "import": 1014,
      "##fore": 1015,
      "##tical": 1016,
      "##idence": 1017,
      "##arg": 1018,
      "##oma": 1019,
      "##cin": 1020,
      "invol": 1021,
      "sel": 1022,
      "##inal": 1023,
      "##roph": 1024,
      "po": 1025,
      "mm": 1026,
      "##ature": 1027,
      "assess": 1028,
      "role": 1029,
      "##tained": 1030,
      "antib": 1031,
      "those": 1032,
      "##amm": 1033,
      "first": 1034,
      "##rough": 1035,
      "mem": 1036,
      "##erg": 1037,
      "CA": 1038,
      "respectively": 1039,
      "struct": 1040,
      "mul": 1041,
      "mice": 1042,
      "##ior": 1043,
      "##ability": 1044,
      "##zym": 1045,
      "tes": 1046,
      "##por": 1047,
      "mechanism": 1048,
      "phosph": 1049,
      "pred": 1050,
      "my": 1051,
      "where": 1052,
      "partic": 1053,
      "did": 1054,
      "##ang": 1055,
      "dep": 1056,
      "vir": 1057,
      "gene": 1058,
      "##cop": 1059,
      "##ple": 1060,
      "##ody": 1061,
      "##ex": 1062,
      "C2": 1063,
      "##ery": 1064,
      "del": 1065,
      "##ines": 1066,
      "drug": 1067,
      "##ology": 1068,
      "br": 1069,
      "years": 1070,
      "cd": 1071,
      "hyper": 1072,
      "sol": 1073,
      "##ft": 1074,
      "respons": 1075,
      "suggest": 1076,
      "##tit": 1077,
      "molec": 1078,
      "impro": 1079,
      "##vers": 1080,
      "process": 1081,
      "could": 1082,
      "through": 1083,
      "age": 1084,
      "##med": 1085,
      "##ities": 1086,
      "numb": 1087,
      "##ten": 1088,
      "subj": 1089,
      "mean": 1090,
      "##its": 1091,
      "heal": 1092,
      "##abol": 1093,
      "reduced": 1094,
      "fib": 1095,
      "patient": 1096,
      "##ited": 1097,
      "##echn": 1098,
      "neur": 1099,
      "repor": 1100,
      "##arly": 1101,
      "##requ": 1102,
      "##air": 1103,
      "prim": 1104,
      "new": 1105,
      "##ful": 1106,
      "##ement": 1107,
      "sens": 1108,
      "decreased": 1109,
      "lower": 1110,
      "growth": 1111,
      "days": 1112,
      "levels": 1113,
      "techn": 1114,
      "within": 1115,
      "vit": 1116,
      "##ocyt": 1117,
      "inj": 1118,
      "reve": 1119,
      "gener": 1120,
      "model": 1121,
      "##cer": 1122,
      "##ether": 1123,
      "great": 1124,
      "##ps": 1125,
      "##las": 1126,
      "fe": 1127,
      "presence": 1128,
      "##ived": 1129,
      "post": 1130,
      "bec": 1131,
      "main": 1132,
      "enzym": 1133,
      "##omy": 1134,
      "##ize": 1135,
      "function": 1136,
      "type": 1137,
      "finding": 1138,
      "##pt": 1139,
      "##vious": 1140,
      "##plic": 1141,
      "while": 1142,
      "sever": 1143,
      "important": 1144,
      "extr": 1145,
      "concentration": 1146,
      "total": 1147,
      "risk": 1148,
      "concentrations": 1149,
      "comb": 1150,
      "flu": 1151,
      "appro": 1152,
      "hem": 1153,
      "poss": 1154,
      "cap": 1155,
      "isol": 1156,
      "##ither": 1157,
      "##abl": 1158,
      "il": 1159,
      "cardi": 1160,
      "health": 1161,
      "##ms": 1162,
      "metabol": 1163,
      "do": 1164,
      "ii": 1165,
      "reveal": 1166,
      "surg": 1167,
      "gr": 1168,
      "##orph": 1169,
      "synth": 1170,
      "performed": 1171,
      "##ind": 1172,
      "##asc": 1173,
      "##ok": 1174,
      "tum": 1175,
      "month": 1176,
      "##eter": 1177,
      "##ins": 1178,
      "##ef": 1179,
      "frequ": 1180,
      "studied": 1181,
      "some": 1182,
      "period": 1183,
      "##ould": 1184,
      "induced": 1185,
      "press": 1186,
      "val": 1187,
      "kn": 1188,
      "##istr": 1189,
      "wee": 1190,
      "calc": 1191,
      "complex": 1192,
      "requ": 1193,
      "test": 1194,
      "previous": 1195,
      "##rect": 1196,
      "conf": 1197,
      "##ade": 1198,
      "##tivity": 1199,
      "cy": 1200,
      "exc": 1201,
      "without": 1202,
      "##oh": 1203,
      "who": 1204,
      "therapy": 1205,
      "each": 1206,
      "##gan": 1207,
      "hydro": 1208,
      "plasma": 1209,
      "##pha": 1210,
      "increas": 1211,
      "##pec": 1212,
      "potential": 1213,
      "mr": 1214,
      "prob": 1215,
      "lip": 1216,
      "##ise": 1217,
      "##ues": 1218,
      "anim": 1219,
      "##over": 1220,
      "number": 1221,
      "correl": 1222,
      "##crib": 1223,
      "child": 1224,
      "including": 1225,
      "abs": 1226,
      "##onal": 1227,
      "##ages": 1228,
      "experim": 1229,
      "radi": 1230,
      "induc": 1231,
      "disc": 1232,
      "##use": 1233,
      "proteins": 1234,
      "##ically": 1235,
      "##ately": 1236,
      "##ified": 1237,
      "ext": 1238,
      "##ressed": 1239,
      "##kg": 1240,
      "mo": 1241,
      "##ardi": 1242,
      "measured": 1243,
      "##gf": 1244,
      "dna": 1245,
      "indi": 1246,
      "tissue": 1247,
      "due": 1248,
      "vol": 1249,
      "activation": 1250,
      "following": 1251,
      "obtained": 1252,
      "##though": 1253,
      "four": 1254,
      "although": 1255,
      "small": 1256,
      "findings": 1257,
      "membr": 1258,
      "chem": 1259,
      "investigated": 1260,
      "long": 1261,
      "medi": 1262,
      "sampl": 1263,
      "##ulin": 1264,
      "prot": 1265,
      "##ced": 1266,
      "coll": 1267,
      "sing": 1268,
      "##induced": 1269,
      "prog": 1270,
      "##ange": 1271,
      "revealed": 1272,
      "lim": 1273,
      "##eng": 1274,
      "##oper": 1275,
      "##ock": 1276,
      "##ymph": 1277,
      "##par": 1278,
      "##ds": 1279,
      "prol": 1280,
      "##amine": 1281,
      "##vely": 1282,
      "techniqu": 1283,
      "##af": 1284,
      "among": 1285,
      "##ider": 1286,
      "demonstrated": 1287,
      "pressure": 1288,
      "surf": 1289,
      "enh": 1290,
      "either": 1291,
      "wor": 1292,
      "multi": 1293,
      "appear": 1294,
      "##tics": 1295,
      "##ily": 1296,
      "treated": 1297,
      "er": 1298,
      "##val": 1299,
      "pop": 1300,
      "##amin": 1301,
      "##reg": 1302,
      "##erc": 1303,
      "describ": 1304,
      "##aneous": 1305,
      "tem": 1306,
      "lymph": 1307,
      "ele": 1308,
      "##ography": 1309,
      "les": 1310,
      "muscle": 1311,
      "##ung": 1312,
      "##iver": 1313,
      "initi": 1314,
      "further": 1315,
      "common": 1316,
      "##und": 1317,
      "##atal": 1318,
      "##ores": 1319,
      "they": 1320,
      "early": 1321,
      "subjects": 1322,
      "valu": 1323,
      "reported": 1324,
      "so": 1325,
      "##ory": 1326,
      "##omen": 1327,
      "##yr": 1328,
      "##ural": 1329,
      "measure": 1330,
      "##ves": 1331,
      "##ditions": 1332,
      "##ished": 1333,
      "##ival": 1334,
      "admin": 1335,
      "curr": 1336,
      "av": 1337,
      "influ": 1338,
      "conditions": 1339,
      "sk": 1340,
      "ren": 1341,
      "pur": 1342,
      "based": 1343,
      "deg": 1344,
      "##eptid": 1345,
      "lab": 1346,
      "predic": 1347,
      "hep": 1348,
      "pe": 1349,
      "##ha": 1350,
      "consider": 1351,
      "##cs": 1352,
      "examined": 1353,
      "##ital": 1354,
      "whereas": 1355,
      "prom": 1356,
      "##iel": 1357,
      "##ets": 1358,
      "case": 1359,
      "identified": 1360,
      "##emia": 1361,
      "thus": 1362,
      "##ension": 1363,
      "##zed": 1364,
      "##fl": 1365,
      "day": 1366,
      "months": 1367,
      "##ake": 1368,
      "differences": 1369,
      "##crip": 1370,
      "ol": 1371,
      "determined": 1372,
      "greater": 1373,
      "again": 1374,
      "##amic": 1375,
      "aut": 1376,
      "##ellular": 1377,
      "##ack": 1378,
      "MM": 1379,
      "rh": 1380,
      "##ypes": 1381,
      "sequ": 1382,
      "##ike": 1383,
      "pat": 1384,
      "vitro": 1385,
      "arter": 1386,
      "nm": 1387,
      "pathw": 1388,
      "##ocytes": 1389,
      "responses": 1390,
      "##ie": 1391,
      "##actions": 1392,
      "region": 1393,
      "##oles": 1394,
      "##int": 1395,
      "ps": 1396,
      "cle": 1397,
      "SE": 1398,
      "several": 1399,
      "##led": 1400,
      "phen": 1401,
      "PC": 1402,
      "##ateral": 1403,
      "##eph": 1404,
      "evidence": 1405,
      "chrom": 1406,
      "chron": 1407,
      "developed": 1408,
      "##ascular": 1409,
      "samples": 1410,
      "specific": 1411,
      "values": 1412,
      "##les": 1413,
      "term": 1414,
      "##ties": 1415,
      "ret": 1416,
      "related": 1417,
      "shown": 1418,
      "##lyc": 1419,
      "organ": 1420,
      "##anti": 1421,
      "##vere": 1422,
      "##ause": 1423,
      "virus": 1424,
      "diagnosis": 1425,
      "hist": 1426,
      "membrane": 1427,
      "fl": 1428,
      "same": 1429,
      "prop": 1430,
      "single": 1431,
      "pul": 1432,
      "lead": 1433,
      "if": 1434,
      "##ness": 1435,
      "phys": 1436,
      "##omes": 1437,
      "##view": 1438,
      "ang": 1439,
      "resist": 1440,
      "rele": 1441,
      "##ectr": 1442,
      "positive": 1443,
      "individ": 1444,
      "AS": 1445,
      "formation": 1446,
      "second": 1447,
      "##rec": 1448,
      "est": 1449,
      "cult": 1450,
      "##ale": 1451,
      "alter": 1452,
      "against": 1453,
      "genes": 1454,
      "surv": 1455,
      "##rome": 1456,
      "primary": 1457,
      "enhanc": 1458,
      "inhibition": 1459,
      "##ty": 1460,
      "class": 1461,
      "local": 1462,
      "CF": 1463,
      "infection": 1464,
      "flow": 1465,
      "about": 1466,
      "animals": 1467,
      "children": 1468,
      "before": 1469,
      "sep": 1470,
      "os": 1471,
      "##ogn": 1472,
      "requir": 1473,
      "rati": 1474,
      "occurr": 1475,
      "rece": 1476,
      "mat": 1477,
      "##otic": 1478,
      "whether": 1479,
      "analy": 1480,
      "sym": 1481,
      "##rh": 1482,
      "##ational": 1483,
      "production": 1484,
      "CG": 1485,
      "subs": 1486,
      "dose": 1487,
      "detected": 1488,
      "surface": 1489,
      "sus": 1490,
      "##ric": 1491,
      "##ental": 1492,
      "##medi": 1493,
      "##sequ": 1494,
      "bone": 1495,
      "##oss": 1496,
      "##roscop": 1497,
      "cir": 1498,
      "vis": 1499,
      "chronic": 1500,
      "ben": 1501,
      "proper": 1502,
      "because": 1503,
      "##itis": 1504,
      "##plant": 1505,
      "decrease": 1506,
      "##of": 1507,
      "fem": 1508,
      "elect": 1509,
      "range": 1510,
      "aim": 1511,
      "##ross": 1512,
      "determine": 1513,
      "##ased": 1514,
      "##ites": 1515,
      "molecular": 1516,
      "##are": 1517,
      "##iter": 1518,
      "##ii": 1519,
      "##ocy": 1520,
      "here": 1521,
      "ul": 1522,
      "##vement": 1523,
      "stimulation": 1524,
      "##iven": 1525,
      "acute": 1526,
      "##ick": 1527,
      "provid": 1528,
      "equ": 1529,
      "##ning": 1530,
      "##ength": 1531,
      "perc": 1532,
      "development": 1533,
      "##istration": 1534,
      "##let": 1535,
      "##old": 1536,
      "##az": 1537,
      "direct": 1538,
      "##eration": 1539,
      "should": 1540,
      "##icient": 1541,
      "involved": 1542,
      "##ening": 1543,
      "und": 1544,
      "##ont": 1545,
      "##ethyl": 1546,
      "weeks": 1547,
      "alpha": 1548,
      "signal": 1549,
      "prov": 1550,
      "evaluated": 1551,
      "dom": 1552,
      "indicate": 1553,
      "left": 1554,
      "hypoth": 1555,
      "##ensity": 1556,
      "##odies": 1557,
      "##uss": 1558,
      "groups": 1559,
      "##hip": 1560,
      "various": 1561,
      "param": 1562,
      "contrast": 1563,
      "body": 1564,
      "transcrip": 1565,
      "##ams": 1566,
      "expl": 1567,
      "##lor": 1568,
      "##icity": 1569,
      "##tional": 1570,
      "women": 1571,
      "tox": 1572,
      "##ving": 1573,
      "CL": 1574,
      "##ax": 1575,
      "renal": 1576,
      "compon": 1577,
      "neg": 1578,
      "known": 1579,
      "muc": 1580,
      "viv": 1581,
      "targ": 1582,
      "sal": 1583,
      "##rin": 1584,
      "reduction": 1585,
      "##Cs": 1586,
      "contrib": 1587,
      "##ea": 1588,
      "##aging": 1589,
      "##sp": 1590,
      "##urs": 1591,
      "isolated": 1592,
      "electr": 1593,
      "##atively": 1594,
      "beta": 1595,
      "synd": 1596,
      "neuro": 1597,
      "infl": 1598,
      "lung": 1599,
      "##amp": 1600,
      "caused": 1601,
      "mit": 1602,
      "enzyme": 1603,
      "##ety": 1604,
      "vivo": 1605,
      "review": 1606,
      "##inant": 1607,
      "mechanisms": 1608,
      "##onic": 1609,
      "cycl": 1610,
      "administration": 1611,
      "##acellular": 1612,
      "report": 1613,
      "diet": 1614,
      "sin": 1615,
      "##ption": 1616,
      "species": 1617,
      "##ield": 1618,
      "##ml": 1619,
      "characteris": 1620,
      "relations": 1621,
      "dos": 1622,
      "SC": 1623,
      "weight": 1624,
      "proced": 1625,
      "rap": 1626,
      "ir": 1627,
      "oxid": 1628,
      "phase": 1629,
      "##oplas": 1630,
      "##eters": 1631,
      "produced": 1632,
      "##ules": 1633,
      "SS": 1634,
      "controls": 1635,
      "##active": 1636,
      "bacter": 1637,
      "mass": 1638,
      "outc": 1639,
      "##uted": 1640,
      "##orb": 1641,
      "##ice": 1642,
      "##tric": 1643,
      "need": 1644,
      "work": 1645,
      "differenti": 1646,
      "vs": 1647,
      "##itivity": 1648,
      "fail": 1649,
      "confir": 1650,
      "any": 1651,
      "##osp": 1652,
      "der": 1653,
      "##ocardi": 1654,
      "##pecific": 1655,
      "ner": 1656,
      "possible": 1657,
      "##app": 1658,
      "##etal": 1659,
      "##arm": 1660,
      "therefore": 1661,
      "circ": 1662,
      "##vir": 1663,
      "##ner": 1664,
      "part": 1665,
      "carb": 1666,
      "survival": 1667,
      "##trib": 1668,
      "receptors": 1669,
      "loss": 1670,
      "fam": 1671,
      "secre": 1672,
      "mrna": 1673,
      "relationship": 1674,
      "water": 1675,
      "carcin": 1676,
      "TP": 1677,
      "volum": 1678,
      "pattern": 1679,
      "methods": 1680,
      "PS": 1681,
      "inflamm": 1682,
      "##ification": 1683,
      "##yth": 1684,
      "previously": 1685,
      "nec": 1686,
      "many": 1687,
      "maxim": 1688,
      "diab": 1689,
      "estim": 1690,
      "PE": 1691,
      "coun": 1692,
      "resid": 1693,
      "##ept": 1694,
      "stimul": 1695,
      "##ably": 1696,
      "RT": 1697,
      "ratio": 1698,
      "##ogenesis": 1699,
      "stand": 1700,
      "##ptom": 1701,
      "ach": 1702,
      "ec": 1703,
      "##rotein": 1704,
      "lesions": 1705,
      "##ologic": 1706,
      "##vent": 1707,
      "##uk": 1708,
      "area": 1709,
      "inhibited": 1710,
      "##lement": 1711,
      "sl": 1712,
      "##arge": 1713,
      "##ensive": 1714,
      "##ulf": 1715,
      "severe": 1716,
      "##ality": 1717,
      "properties": 1718,
      "##opath": 1719,
      "##atis": 1720,
      "##eu": 1721,
      "kin": 1722,
      "##ometr": 1723,
      "approxim": 1724,
      "dys": 1725,
      "elev": 1726,
      "mac": 1727,
      "rapid": 1728,
      "##ta": 1729,
      "##tain": 1730,
      "enc": 1731,
      "complic": 1732,
      "OD": 1733,
      "surgery": 1734,
      "beha": 1735,
      "##inc": 1736,
      "morph": 1737,
      "##ynamic": 1738,
      "strong": 1739,
      "##ections": 1740,
      "##roc": 1741,
      "structure": 1742,
      "##ient": 1743,
      "##trans": 1744,
      "syndrome": 1745,
      "prof": 1746,
      "population": 1747,
      "##ochem": 1748,
      "injur": 1749,
      "##tis": 1750,
      "mark": 1751,
      "##fic": 1752,
      "exhib": 1753,
      "##nal": 1754,
      "recom": 1755,
      "hypert": 1756,
      "rates": 1757,
      "mgkg": 1758,
      "##rine": 1759,
      "current": 1760,
      "tra": 1761,
      "##jor": 1762,
      "CR": 1763,
      "tested": 1764,
      "##gl": 1765,
      "provide": 1766,
      "##ylation": 1767,
      "major": 1768,
      "expressed": 1769,
      "polym": 1770,
      "mater": 1771,
      "resistance": 1772,
      "##olic": 1773,
      "##ule": 1774,
      "##ists": 1775,
      "genetic": 1776,
      "##monary": 1777,
      "six": 1778,
      "##eptide": 1779,
      "ms": 1780,
      "behavi": 1781,
      "##operative": 1782,
      "conduc": 1783,
      "pers": 1784,
      "cardiac": 1785,
      "repres": 1786,
      "##tinal": 1787,
      "serum": 1788,
      "IB": 1789,
      "result": 1790,
      "establ": 1791,
      "applic": 1792,
      "##els": 1793,
      "insulin": 1794,
      "##rees": 1795,
      "PT": 1796,
      "##omp": 1797,
      "cm": 1798,
      "##ission": 1799,
      "##otherap": 1800,
      "SN": 1801,
      "multiple": 1802,
      "inform": 1803,
      "super": 1804,
      "nit": 1805,
      "very": 1806,
      "##iciency": 1807,
      "discuss": 1808,
      "tumor": 1809,
      "increasing": 1810,
      "five": 1811,
      "##otox": 1812,
      "##ually": 1813,
      "unders": 1814,
      "##mit": 1815,
      "gluc": 1816,
      "##ording": 1817,
      "##ns": 1818,
      "##ae": 1819,
      "##ward": 1820,
      "gu": 1821,
      "particular": 1822,
      "difference": 1823,
      "L1": 1824,
      "line": 1825,
      "contin": 1826,
      "parameters": 1827,
      "hom": 1828,
      "##ygen": 1829,
      "##itor": 1830,
      "microm": 1831,
      "##ene": 1832,
      "##ateg": 1833,
      "reaction": 1834,
      "##atures": 1835,
      "amin": 1836,
      "##ulations": 1837,
      "att": 1838,
      "lo": 1839,
      "site": 1840,
      "intra": 1841,
      "##elial": 1842,
      "technique": 1843,
      "##ouse": 1844,
      "binding": 1845,
      "lif": 1846,
      "##acy": 1847,
      "##otor": 1848,
      "antibodies": 1849,
      "prolif": 1850,
      "ro": 1851,
      "##emic": 1852,
      "##ire": 1853,
      "care": 1854,
      "##ogenic": 1855,
      "##ones": 1856,
      "da": 1857,
      "conclud": 1858,
      "approximately": 1859,
      "AF": 1860,
      "synthesis": 1861,
      "##ull": 1862,
      "##agon": 1863,
      "##resp": 1864,
      "##istent": 1865,
      "followed": 1866,
      "fat": 1867,
      "male": 1868,
      "cat": 1869,
      "brain": 1870,
      "size": 1871,
      "PR": 1872,
      "##verse": 1873,
      "target": 1874,
      "pc": 1875,
      "##mic": 1876,
      "##iological": 1877,
      "design": 1878,
      "underst": 1879,
      "prepar": 1880,
      "prec": 1881,
      "pain": 1882,
      "##da": 1883,
      "degrees": 1884,
      "magn": 1885,
      "##terior": 1886,
      "##pr": 1887,
      "order": 1888,
      "##ych": 1889,
      "ml": 1890,
      "##ids": 1891,
      "hel": 1892,
      "assessed": 1893,
      "via": 1894,
      "characterized": 1895,
      "temper": 1896,
      "##fusion": 1897,
      "##entric": 1898,
      "nor": 1899,
      "##vant": 1900,
      "horm": 1901,
      "antibody": 1902,
      "##row": 1903,
      "cancer": 1904,
      "short": 1905,
      "##dl": 1906,
      "ig": 1907,
      "success": 1908,
      "##ides": 1909,
      "##therm": 1910,
      "gra": 1911,
      "required": 1912,
      "containing": 1913,
      "##ude": 1914,
      "##roduc": 1915,
      "content": 1916,
      "##romb": 1917,
      "ax": 1918,
      "negative": 1919,
      "##ops": 1920,
      "frequency": 1921,
      "pulmonary": 1922,
      "types": 1923,
      "##ostic": 1924,
      "TPS": 1925,
      "indicated": 1926,
      "novel": 1927,
      "impair": 1928,
      "##de": 1929,
      "gas": 1930,
      "volume": 1931,
      "sensitivity": 1932,
      "will": 1933,
      "amoun": 1934,
      "resulted": 1935,
      "##activ": 1936,
      "aden": 1937,
      "pathway": 1938,
      "tub": 1939,
      "BB": 1940,
      "presented": 1941,
      "ve": 1942,
      "##viron": 1943,
      "allow": 1944,
      "factors": 1945,
      "regul": 1946,
      "##otherapy": 1947,
      "described": 1948,
      "association": 1949,
      "##omer": 1950,
      "##ised": 1951,
      "highly": 1952,
      "cause": 1953,
      "##eutic": 1954,
      "##pa": 1955,
      "then": 1956,
      "avail": 1957,
      "##omic": 1958,
      "combination": 1959,
      "cellular": 1960,
      "symptom": 1961,
      "ct": 1962,
      "hear": 1963,
      "increases": 1964,
      "inhibitor": 1965,
      "##tory": 1966,
      "##rogen": 1967,
      "standard": 1968,
      "given": 1969,
      "dim": 1970,
      "information": 1971,
      "suggesting": 1972,
      "ant": 1973,
      "value": 1974,
      "dam": 1975,
      "imaging": 1976,
      "poly": 1977,
      "action": 1978,
      "cere": 1979,
      "vi": 1980,
      "##arc": 1981,
      "epith": 1982,
      "injury": 1983,
      "aver": 1984,
      "subst": 1985,
      "ability": 1986,
      "##osition": 1987,
      "exerc": 1988,
      "experiments": 1989,
      "##tine": 1990,
      "sch": 1991,
      "free": 1992,
      "##earch": 1993,
      "abn": 1994,
      "potenti": 1995,
      "evaluate": 1996,
      "separ": 1997,
      "performance": 1998,
      "##terol": 1999,
      "##yro": 2000,
      "relative": 2001,
      "seen": 2002,
      "##omal": 2003,
      "research": 2004,
      "calcium": 2005,
      "percent": 2006,
      "death": 2007,
      "parti": 2008,
      "correlated": 2009,
      "EC": 2010,
      "##gn": 2011,
      "##oxid": 2012,
      "regions": 2013,
      "angi": 2014,
      "##ours": 2015,
      "demonstrate": 2016,
      "antigen": 2017,
      "drugs": 2018,
      "investigate": 2019,
      "tissues": 2020,
      "marked": 2021,
      "skin": 2022,
      "##aps": 2023,
      "fil": 2024,
      "##ters": 2025,
      "enhanced": 2026,
      "hosp": 2027,
      "achie": 2028,
      "being": 2029,
      "##order": 2030,
      "pap": 2031,
      "strains": 2032,
      "cent": 2033,
      "##ian": 2034,
      "nucleus": 2035,
      "MI": 2036,
      "glyc": 2037,
      "diseases": 2038,
      "considered": 2039,
      "analys": 2040,
      "oper": 2041,
      "##uth": 2042,
      "manag": 2043,
      "##ially": 2044,
      "##hydro": 2045,
      "##thermore": 2046,
      "##opt": 2047,
      "hr": 2048,
      "analyzed": 2049,
      "##uble": 2050,
      "furthermore": 2051,
      "mouse": 2052,
      "##olar": 2053,
      "block": 2054,
      "since": 2055,
      "##tle": 2056,
      "##arb": 2057,
      "nerve": 2058,
      "##eral": 2059,
      "environ": 2060,
      "abnormal": 2061,
      "phosphor": 2062,
      "##ytic": 2063,
      "useful": 2064,
      "affected": 2065,
      "vac": 2066,
      "included": 2067,
      "ta": 2068,
      "##co": 2069,
      "kinase": 2070,
      "surgical": 2071,
      "approach": 2072,
      "adj": 2073,
      "##ayed": 2074,
      "##bl": 2075,
      "initial": 2076,
      "influence": 2077,
      "models": 2078,
      "suggested": 2079,
      "##andom": 2080,
      "##osure": 2081,
      "##line": 2082,
      "therapeutic": 2083,
      "peak": 2084,
      "ultr": 2085,
      "subsequ": 2086,
      "even": 2087,
      "optim": 2088,
      "trial": 2089,
      "##atus": 2090,
      "overall": 2091,
      "occurred": 2092,
      "##iving": 2093,
      "accum": 2094,
      "##ying": 2095,
      "iv": 2096,
      "##ancy": 2097,
      "##based": 2098,
      "##antit": 2099,
      "antagon": 2100,
      "##tered": 2101,
      "sod": 2102,
      "##omas": 2103,
      "##itu": 2104,
      "##ances": 2105,
      "##truc": 2106,
      "recent": 2107,
      "##roscopy": 2108,
      "##plied": 2109,
      "cer": 2110,
      "lin": 2111,
      "pharm": 2112,
      "continu": 2113,
      "support": 2114,
      "##oresc": 2115,
      "sw": 2116,
      "her": 2117,
      "orig": 2118,
      "cross": 2119,
      "acet": 2120,
      "foc": 2121,
      "##olution": 2122,
      "exercise": 2123,
      "distrib": 2124,
      "##itation": 2125,
      "##idne": 2126,
      "##tically": 2127,
      "index": 2128,
      "interaction": 2129,
      "mix": 2130,
      "neurons": 2131,
      "lik": 2132,
      "random": 2133,
      "might": 2134,
      "improved": 2135,
      "stress": 2136,
      "CT": 2137,
      "times": 2138,
      "chann": 2139,
      "GA": 2140,
      "##asis": 2141,
      "received": 2142,
      "cs": 2143,
      "##ocyte": 2144,
      "state": 2145,
      "his": 2146,
      "##ca": 2147,
      "##lusion": 2148,
      "##ergic": 2149,
      "##orption": 2150,
      "set": 2151,
      "liver": 2152,
      "##ode": 2153,
      "systems": 2154,
      "kidne": 2155,
      "condition": 2156,
      "monitor": 2157,
      "bel": 2158,
      "incidence": 2159,
      "acids": 2160,
      "ov": 2161,
      "stage": 2162,
      "recogn": 2163,
      "tak": 2164,
      "##fr": 2165,
      "##anol": 2166,
      "SP": 2167,
      "##ecting": 2168,
      "phot": 2169,
      "thromb": 2170,
      "##ographic": 2171,
      "##red": 2172,
      "##related": 2173,
      "##eti": 2174,
      "##ressive": 2175,
      "##tegr": 2176,
      "oxygen": 2177,
      "##take": 2178,
      "complet": 2179,
      "suggests": 2180,
      "pa": 2181,
      "men": 2182,
      "##ision": 2183,
      "quantit": 2184,
      "agg": 2185,
      "eg": 2186,
      "sex": 2187,
      "least": 2188,
      "##ondr": 2189,
      "fold": 2190,
      "comparis": 2191,
      "##otype": 2192,
      "##ke": 2193,
      "amino": 2194,
      "particip": 2195,
      "ra": 2196,
      "healthy": 2197,
      "add": 2198,
      "vers": 2199,
      "CE": 2200,
      "compound": 2201,
      "heter": 2202,
      "features": 2203,
      "elevated": 2204,
      "larg": 2205,
      "pig": 2206,
      "fraction": 2207,
      "lig": 2208,
      "poor": 2209,
      "CP": 2210,
      "oral": 2211,
      "##iratory": 2212,
      "##izing": 2213,
      "eth": 2214,
      "##ibr": 2215,
      "transfer": 2216,
      "mort": 2217,
      "spect": 2218,
      "pregn": 2219,
      "##tex": 2220,
      "record": 2221,
      "environment": 2222,
      "available": 2223,
      "management": 2224,
      "combined": 2225,
      "doses": 2226,
      "air": 2227,
      "##tral": 2228,
      "scre": 2229,
      "ess": 2230,
      "apopt": 2231,
      "agents": 2232,
      "##me": 2233,
      "ic": 2234,
      "characteristics": 2235,
      "lipid": 2236,
      "diss": 2237,
      "##ochondr": 2238,
      "ER": 2239,
      "made": 2240,
      "##ogenous": 2241,
      "statis": 2242,
      "##ands": 2243,
      "confirmed": 2244,
      "average": 2245,
      "##agen": 2246,
      "metabolism": 2247,
      "##unctions": 2248,
      "##plantation": 2249,
      "accur": 2250,
      "##like": 2251,
      "atten": 2252,
      "adh": 2253,
      "AD": 2254,
      "absence": 2255,
      "##ended": 2256,
      "carr": 2257,
      "measurements": 2258,
      "family": 2259,
      "hospital": 2260,
      "##orders": 2261,
      "applied": 2262,
      "ver": 2263,
      "often": 2264,
      "transp": 2265,
      "mutations": 2266,
      "seg": 2267,
      "mortality": 2268,
      "hy": 2269,
      "##edi": 2270,
      "##anding": 2271,
      "regulation": 2272,
      "uptake": 2273,
      "damage": 2274,
      "play": 2275,
      "tests": 2276,
      "##go": 2277,
      "life": 2278,
      "hal": 2279,
      "HR": 2280,
      "##bry": 2281,
      "coron": 2282,
      "andor": 2283,
      "strateg": 2284,
      "##ibility": 2285,
      "techniques": 2286,
      "atr": 2287,
      "immune": 2288,
      "##eric": 2289,
      "##olesterol": 2290,
      "procedure": 2291,
      "##ust": 2292,
      "pd": 2293,
      "##emb": 2294,
      "##rob": 2295,
      "disorders": 2296,
      "myocardi": 2297,
      "glut": 2298,
      "induction": 2299,
      "followup": 2300,
      "chlor": 2301,
      "ampl": 2302,
      "prevent": 2303,
      "rna": 2304,
      "hc": 2305,
      "clear": 2306,
      "medium": 2307,
      "does": 2308,
      "psych": 2309,
      "mitochondr": 2310,
      "##actic": 2311,
      "prost": 2312,
      "individual": 2313,
      "corresp": 2314,
      "temperature": 2315,
      "secretion": 2316,
      "IC": 2317,
      "better": 2318,
      "recurr": 2319,
      "intracellular": 2320,
      "benef": 2321,
      "minim": 2322,
      "thir": 2323,
      "##entricular": 2324,
      "##uals": 2325,
      "improve": 2326,
      "sodium": 2327,
      "female": 2328,
      "##urn": 2329,
      "RP": 2330,
      "##sh": 2331,
      "length": 2332,
      "experi": 2333,
      "pharmac": 2334,
      "##till": 2335,
      "dist": 2336,
      "proliferation": 2337,
      "integr": 2338,
      "proble": 2339,
      "##terone": 2340,
      "##reast": 2341,
      "##vation": 2342,
      "SM": 2343,
      "##ogl": 2344,
      "progr": 2345,
      "duration": 2346,
      "##esth": 2347,
      "few": 2348,
      "dop": 2349,
      "recently": 2350,
      "et": 2351,
      "visual": 2352,
      "##ark": 2353,
      "cur": 2354,
      "embry": 2355,
      "deliver": 2356,
      "##type": 2357,
      "sour": 2358,
      "peptide": 2359,
      "mel": 2360,
      "detect": 2361,
      "capac": 2362,
      "distin": 2363,
      "hydrox": 2364,
      "breast": 2365,
      "cri": 2366,
      "##ising": 2367,
      "##etes": 2368,
      "##lying": 2369,
      "coronary": 2370,
      "week": 2371,
      "##enced": 2372,
      "NC": 2373,
      "##eta": 2374,
      "##aff": 2375,
      "fluid": 2376,
      "lit": 2377,
      "##eled": 2378,
      "##estinal": 2379,
      "according": 2380,
      "obj": 2381,
      "RA": 2382,
      "##activity": 2383,
      "consistent": 2384,
      "C1": 2385,
      "material": 2386,
      "youn": 2387,
      "represent": 2388,
      "complications": 2389,
      "PA": 2390,
      "##acts": 2391,
      "additional": 2392,
      "##pose": 2393,
      "individuals": 2394,
      "preval": 2395,
      "electro": 2396,
      "failure": 2397,
      "##yroid": 2398,
      "##abil": 2399,
      "would": 2400,
      "##atur": 2401,
      "prior": 2402,
      "components": 2403,
      "sulf": 2404,
      "signaling": 2405,
      "medical": 2406,
      "carcinoma": 2407,
      "##ogene": 2408,
      "util": 2409,
      "differentiation": 2410,
      "##ortic": 2411,
      "pub": 2412,
      "##ators": 2413,
      "outcome": 2414,
      "##ture": 2415,
      "##dependent": 2416,
      "affect": 2417,
      "displ": 2418,
      "functional": 2419,
      "established": 2420,
      "net": 2421,
      "##oral": 2422,
      "young": 2423,
      "pp": 2424,
      "appar": 2425,
      "patterns": 2426,
      "density": 2427,
      "discussed": 2428,
      "successful": 2429,
      "apoptosis": 2430,
      "recover": 2431,
      "structures": 2432,
      "##igr": 2433,
      "##ectomy": 2434,
      "saf": 2435,
      "isch": 2436,
      "processes": 2437,
      "solution": 2438,
      "depend": 2439,
      "good": 2440,
      "##ols": 2441,
      "vas": 2442,
      "##inity": 2443,
      "identify": 2444,
      "ng": 2445,
      "transcription": 2446,
      "##ave": 2447,
      "mid": 2448,
      "##occ": 2449,
      "comparison": 2450,
      "##ulate": 2451,
      "likely": 2452,
      "cp": 2453,
      "prote": 2454,
      "##king": 2455,
      "promo": 2456,
      "arterial": 2457,
      "##ication": 2458,
      "slow": 2459,
      "large": 2460,
      "sle": 2461,
      "down": 2462,
      "lines": 2463,
      "##tp": 2464,
      "##resh": 2465,
      "##eline": 2466,
      "##ces": 2467,
      "exposure": 2468,
      "motor": 2469,
      "conclusion": 2470,
      "dig": 2471,
      "na": 2472,
      "##used": 2473,
      "moder": 2474,
      "##otid": 2475,
      "lat": 2476,
      "panc": 2477,
      "RE": 2478,
      "##ulating": 2479,
      "transport": 2480,
      "epid": 2481,
      "indicating": 2482,
      "asp": 2483,
      "basis": 2484,
      "AA": 2485,
      "chromos": 2486,
      "nan": 2487,
      "##function": 2488,
      "alph": 2489,
      "ERP": 2490,
      "##amide": 2491,
      "release": 2492,
      "pm": 2493,
      "SF": 2494,
      "repe": 2495,
      "PET": 2496,
      "ke": 2497,
      "##itude": 2498,
      "inflammatory": 2499,
      "##cell": 2500,
      "kidney": 2501,
      "cop": 2502,
      "##mission": 2503,
      "##idine": 2504,
      "interactions": 2505,
      "plac": 2506,
      "progn": 2507,
      "inhibitors": 2508,
      "nuclear": 2509,
      "heart": 2510,
      "effective": 2511,
      "##io": 2512,
      "chall": 2513,
      "upon": 2514,
      "frag": 2515,
      "##ales": 2516,
      "centr": 2517,
      "underw": 2518,
      "ED": 2519,
      "diagnostic": 2520,
      "still": 2521,
      "##ochemical": 2522,
      "##bp": 2523,
      "##ler": 2524,
      "metabolic": 2525,
      "biological": 2526,
      "resulting": 2527,
      "application": 2528,
      "##utaneous": 2529,
      "desp": 2530,
      "bm": 2531,
      "ultras": 2532,
      "##ove": 2533,
      "##cep": 2534,
      "fin": 2535,
      "daily": 2536,
      "hiv": 2537,
      "diabetes": 2538,
      "despite": 2539,
      "suff": 2540,
      "ie": 2541,
      "status": 2542,
      "disorder": 2543,
      "hours": 2544,
      "catal": 2545,
      "functions": 2546,
      "##pecially": 2547,
      "star": 2548,
      "##fac": 2549,
      "molecules": 2550,
      "##orescence": 2551,
      "oste": 2552,
      "especially": 2553,
      "limited": 2554,
      "##olip": 2555,
      "tog": 2556,
      "##read": 2557,
      "malign": 2558,
      "##inated": 2559,
      "tas": 2560,
      "ed": 2561,
      "proposed": 2562,
      "conven": 2563,
      "##ling": 2564,
      "altern": 2565,
      "incub": 2566,
      "exhibited": 2567,
      "together": 2568,
      "##upl": 2569,
      "assessment": 2570,
      "essential": 2571,
      "##ophil": 2572,
      "underwent": 2573,
      "bil": 2574,
      "sample": 2575,
      "implic": 2576,
      "domain": 2577,
      "moreover": 2578,
      "SD": 2579,
      "labor": 2580,
      "electron": 2581,
      "pathways": 2582,
      "revers": 2583,
      "##yg": 2584,
      "##oz": 2585,
      "##ious": 2586,
      "rare": 2587,
      "field": 2588,
      "lack": 2589,
      "##kn": 2590,
      "##ovascular": 2591,
      "##urse": 2592,
      "lateral": 2593,
      "mes": 2594,
      "independent": 2595,
      "capacity": 2596,
      "colon": 2597,
      "leuk": 2598,
      "##utions": 2599,
      "hip": 2600,
      "const": 2601,
      "don": 2602,
      "hypertension": 2603,
      "component": 2604,
      "them": 2605,
      "examination": 2606,
      "IP": 2607,
      "versus": 2608,
      "chemical": 2609,
      "fas": 2610,
      "##iting": 2611,
      "hepatic": 2612,
      "hand": 2613,
      "cre": 2614,
      "##anged": 2615,
      "nons": 2616,
      "analyses": 2617,
      "maximum": 2618,
      "eight": 2619,
      "degree": 2620,
      "##onding": 2621,
      "##okine": 2622,
      "mutant": 2623,
      "##estion": 2624,
      "##eff": 2625,
      "##rold": 2626,
      "step": 2627,
      "dynamic": 2628,
      "remains": 2629,
      "por": 2630,
      "CM": 2631,
      "necess": 2632,
      "##nf": 2633,
      "##utr": 2634,
      "enzymes": 2635,
      "##lation": 2636,
      "distinct": 2637,
      "derived": 2638,
      "change": 2639,
      "seem": 2640,
      "structural": 2641,
      "adv": 2642,
      "##tib": 2643,
      "metast": 2644,
      "cholesterol": 2645,
      "##ier": 2646,
      "##immun": 2647,
      "iii": 2648,
      "hormone": 2649,
      "ci": 2650,
      "##isted": 2651,
      "##aptic": 2652,
      "##uff": 2653,
      "qual": 2654,
      "exposed": 2655,
      "##term": 2656,
      "##ense": 2657,
      "##oprotein": 2658,
      "##wor": 2659,
      "biops": 2660,
      "median": 2661,
      "microgr": 2662,
      "lact": 2663,
      "bar": 2664,
      "accumulation": 2665,
      "food": 2666,
      "conducted": 2667,
      "spinal": 2668,
      "refl": 2669,
      "##earold": 2670,
      "##oy": 2671,
      "ey": 2672,
      "PL": 2673,
      "substr": 2674,
      "##inf": 2675,
      "sem": 2676,
      "CB": 2677,
      "##trum": 2678,
      "physiological": 2679,
      "gran": 2680,
      "adul": 2681,
      "basal": 2682,
      "preven": 2683,
      "myocardial": 2684,
      "##ored": 2685,
      "chromat": 2686,
      "plat": 2687,
      "dog": 2688,
      "AC": 2689,
      "##ermal": 2690,
      "mutation": 2691,
      "##aph": 2692,
      "methyl": 2693,
      "##idity": 2694,
      "##enz": 2695,
      "conclude": 2696,
      "commun": 2697,
      "occur": 2698,
      "AT": 2699,
      "fer": 2700,
      "critical": 2701,
      "##abs": 2702,
      "baseline": 2703,
      "situ": 2704,
      "##oglob": 2705,
      "selective": 2706,
      "purpose": 2707,
      "##gens": 2708,
      "macroph": 2709,
      "yearold": 2710,
      "##ame": 2711,
      "respiratory": 2712,
      "appears": 2713,
      "typ": 2714,
      "amount": 2715,
      "##oline": 2716,
      "course": 2717,
      "ST": 2718,
      "##ining": 2719,
      "ht": 2720,
      "dependent": 2721,
      "sn": 2722,
      "##ydr": 2723,
      "##oll": 2724,
      "experiment": 2725,
      "bir": 2726,
      "fed": 2727,
      "recomb": 2728,
      "##ephal": 2729,
      "recorded": 2730,
      "bp": 2731,
      "sites": 2732,
      "transform": 2733,
      "wild": 2734,
      "##ociated": 2735,
      "liter": 2736,
      "##ather": 2737,
      "migr": 2738,
      "mediated": 2739,
      "pg": 2740,
      "ref": 2741,
      "hypothesis": 2742,
      "origin": 2743,
      "##teroid": 2744,
      "##ressing": 2745,
      "##vic": 2746,
      "ion": 2747,
      "##uter": 2748,
      "##ched": 2749,
      "epithelial": 2750,
      "active": 2751,
      "provides": 2752,
      "position": 2753,
      "load": 2754,
      "prevalence": 2755,
      "ear": 2756,
      "##pos": 2757,
      "ill": 2758,
      "##imens": 2759,
      "little": 2760,
      "##ocl": 2761,
      "subsequent": 2762,
      "proj": 2763,
      "##ceptib": 2764,
      "wall": 2765,
      "mainly": 2766,
      "##venous": 2767,
      "markers": 2768,
      "toward": 2769,
      "##brid": 2770,
      "relatively": 2771,
      "propor": 2772,
      "products": 2773,
      "te": 2774,
      "she": 2775,
      "DP": 2776,
      "causes": 2777,
      "much": 2778,
      "infusion": 2779,
      "lesion": 2780,
      "##ables": 2781,
      "##round": 2782,
      "series": 2783,
      "iso": 2784,
      "impact": 2785,
      "achieved": 2786,
      "cf": 2787,
      "##eding": 2788,
      "particularly": 2789,
      "postoperative": 2790,
      "agon": 2791,
      "seven": 2792,
      "neuronal": 2793,
      "##lycer": 2794,
      "##rup": 2795,
      "rho": 2796,
      "accoun": 2797,
      "taken": 2798,
      "selected": 2799,
      "##phen": 2800,
      "invas": 2801,
      "collected": 2802,
      "quanti": 2803,
      "kg": 2804,
      "sleep": 2805,
      "eryth": 2806,
      "##acr": 2807,
      "##isting": 2808,
      "tempor": 2809,
      "paper": 2810,
      "lys": 2811,
      "include": 2812,
      "extent": 2813,
      "purified": 2814,
      "diffic": 2815,
      "self": 2816,
      "##mediate": 2817,
      "##ged": 2818,
      "require": 2819,
      "forms": 2820,
      "late": 2821,
      "remained": 2822,
      "induce": 2823,
      "whole": 2824,
      "mc": 2825,
      "direc": 2826,
      "side": 2827,
      "##oked": 2828,
      "##other": 2829,
      "decreas": 2830,
      "anterior": 2831,
      "consequ": 2832,
      "inh": 2833,
      "##odes": 2834,
      "directly": 2835,
      "##known": 2836,
      "##ray": 2837,
      "##ergy": 2838,
      "adren": 2839,
      "##put": 2840,
      "remov": 2841,
      "chain": 2842,
      "recomm": 2843,
      "sequences": 2844,
      "##esized": 2845,
      "head": 2846,
      "pregnancy": 2847,
      "defined": 2848,
      "endoth": 2849,
      "##ered": 2850,
      "trig": 2851,
      "myel": 2852,
      "spont": 2853,
      "events": 2854,
      "conventional": 2855,
      "sperm": 2856,
      "spontaneous": 2857,
      "consum": 2858,
      "##coh": 2859,
      "reli": 2860,
      "cogn": 2861,
      "highest": 2862,
      "dysfunction": 2863,
      "key": 2864,
      "reduce": 2865,
      "later": 2866,
      "atp": 2867,
      "##oxide": 2868,
      "understanding": 2869,
      "cultures": 2870,
      "improvement": 2871,
      "cortical": 2872,
      "symptoms": 2873,
      "PP": 2874,
      "infections": 2875,
      "##grad": 2876,
      "responsible": 2877,
      "##ret": 2878,
      "prolong": 2879,
      "tau": 2880,
      "facil": 2881,
      "outcomes": 2882,
      "susceptib": 2883,
      "##oding": 2884,
      "##anes": 2885,
      "##oxy": 2886,
      "##etry": 2887,
      "criter": 2888,
      "literature": 2889,
      "##ococc": 2890,
      "##acted": 2891,
      "toler": 2892,
      "contribute": 2893,
      "##oint": 2894,
      "corresponding": 2895,
      "##rot": 2896,
      "fetal": 2897,
      "suppor": 2898,
      "IN": 2899,
      "IS": 2900,
      "incor": 2901,
      "kine": 2902,
      "bal": 2903,
      "cys": 2904,
      "conn": 2905,
      "##amma": 2906,
      "continuous": 2907,
      "undergo": 2908,
      "viral": 2909,
      "bacterial": 2910,
      "auth": 2911,
      "simult": 2912,
      "toxicity": 2913,
      "phosphorylation": 2914,
      "##oin": 2915,
      "describe": 2916,
      "##osa": 2917,
      "##NA": 2918,
      "##alpha": 2919,
      "treatments": 2920,
      "simultaneous": 2921,
      "##associated": 2922,
      "know": 2923,
      "##utes": 2924,
      "measures": 2925,
      "glucose": 2926,
      "testing": 2927,
      "dm": 2928,
      "diabetic": 2929,
      "##cine": 2930,
      "artic": 2931,
      "##ference": 2932,
      "##rix": 2933,
      "lay": 2934,
      "var": 2935,
      "susp": 2936,
      "vess": 2937,
      "PCD": 2938,
      "##urb": 2939,
      "networ": 2940,
      "##cles": 2941,
      "calculated": 2942,
      "sd": 2943,
      "mt": 2944,
      "animal": 2945,
      "cycle": 2946,
      "##rosis": 2947,
      "substanti": 2948,
      "carried": 2949,
      "##ogr": 2950,
      "dil": 2951,
      "reach": 2952,
      "haem": 2953,
      "adults": 2954,
      "##onin": 2955,
      "##illary": 2956,
      "though": 2957,
      "general": 2958,
      "mil": 2959,
      "sum": 2960,
      "adap": 2961,
      "sil": 2962,
      "stimulated": 2963,
      "residues": 2964,
      "diagnosed": 2965,
      "chemotherapy": 2966,
      "antic": 2967,
      "specificity": 2968,
      "emerg": 2969,
      "empl": 2970,
      "inflammation": 2971,
      "##cler": 2972,
      "occurs": 2973,
      "##ively": 2974,
      "repl": 2975,
      "across": 2976,
      "##umin": 2977,
      "training": 2978,
      "RPA": 2979,
      "##enting": 2980,
      "above": 2981,
      "urin": 2982,
      "yield": 2983,
      "microscopy": 2984,
      "extracellular": 2985,
      "##osine": 2986,
      "predom": 2987,
      "##phosph": 2988,
      "estimated": 2989,
      "##oscop": 2990,
      "cardiovascular": 2991,
      "##rem": 2992,
      "cultured": 2993,
      "quantitative": 2994,
      "##he": 2995,
      "##fs": 2996,
      "soc": 2997,
      "##ytes": 2998,
      "##rolog": 2999,
      "assay": 3000,
      "##encies": 3001,
      "CSD": 3002,
      "able": 3003,
      "right": 3004,
      "##ectin": 3005,
      "underlying": 3006,
      "urinary": 3007,
      "##treated": 3008,
      "##otrop": 3009,
      "periph": 3010,
      "##VI": 3011,
      "act": 3012,
      "wid": 3013,
      "bre": 3014,
      "##arin": 3015,
      "provided": 3016,
      "linear": 3017,
      "along": 3018,
      "gh": 3019,
      "collagen": 3020,
      "incorpor": 3021,
      "norm": 3022,
      "hs": 3023,
      "hypox": 3024,
      "##radi": 3025,
      "PD": 3026,
      "coli": 3027,
      "distribution": 3028,
      "pt": 3029,
      "involvement": 3030,
      "open": 3031,
      "##ocal": 3032,
      "screening": 3033,
      "##cc": 3034,
      "depression": 3035,
      "reproduc": 3036,
      "##atric": 3037,
      "located": 3038,
      "vascular": 3039,
      "##ann": 3040,
      "frequently": 3041,
      "deriv": 3042,
      "##xp": 3043,
      "##istry": 3044,
      "pair": 3045,
      "##beta": 3046,
      "bloc": 3047,
      "interven": 3048,
      "internal": 3049,
      "mitochondrial": 3050,
      "imm": 3051,
      "alcoh": 3052,
      "biom": 3053,
      "means": 3054,
      "populations": 3055,
      "bro": 3056,
      "doc": 3057,
      "importance": 3058,
      "isolates": 3059,
      "restric": 3060,
      "agent": 3061,
      "PH": 3062,
      "##eness": 3063,
      "##art": 3064,
      "pac": 3065,
      "coupl": 3066,
      "analog": 3067,
      "rab": 3068,
      "##istic": 3069,
      "slight": 3070,
      "altered": 3071,
      "practic": 3072,
      "supplement": 3073,
      "produce": 3074,
      "dors": 3075,
      "examine": 3076,
      "detection": 3077,
      "LT": 3078,
      "##ils": 3079,
      "##bral": 3080,
      "repair": 3081,
      "go": 3082,
      "muscles": 3083,
      "las": 3084,
      "point": 3085,
      "som": 3086,
      "excl": 3087,
      "##erative": 3088,
      "transplantation": 3089,
      "strongly": 3090,
      "##uture": 3091,
      "cereb": 3092,
      "modified": 3093,
      "chol": 3094,
      "infants": 3095,
      "hybrid": 3096,
      "AR": 3097,
      "neurop": 3098,
      "adult": 3099,
      "intravenous": 3100,
      "sequence": 3101,
      "##acet": 3102,
      "measurement": 3103,
      "##ending": 3104,
      "manner": 3105,
      "top": 3106,
      "affinity": 3107,
      "##mediated": 3108,
      "##lasts": 3109,
      "tumors": 3110,
      "##char": 3111,
      "hb": 3112,
      "diam": 3113,
      "gel": 3114,
      "##olytic": 3115,
      "micrograms": 3116,
      "necessary": 3117,
      "##neum": 3118,
      "matrix": 3119,
      "strength": 3120,
      "ech": 3121,
      "partial": 3122,
      "procedures": 3123,
      "hl": 3124,
      "unknown": 3125,
      "leading": 3126,
      "magnetic": 3127,
      "hp": 3128,
      "bio": 3129,
      "##aged": 3130,
      "challen": 3131,
      "micros": 3132,
      "oxidative": 3133,
      "correlation": 3134,
      "thick": 3135,
      "constant": 3136,
      "##tration": 3137,
      "##arily": 3138,
      "pk": 3139,
      "males": 3140,
      "alterations": 3141,
      "cytotox": 3142,
      "replic": 3143,
      "platel": 3144,
      "##ledge": 3145,
      "##ber": 3146,
      "##osin": 3147,
      "##exp": 3148,
      "mamm": 3149,
      "plant": 3150,
      "##enic": 3151,
      "bound": 3152,
      "ventricular": 3153,
      "ss": 3154,
      "rather": 3155,
      "score": 3156,
      "progression": 3157,
      "neural": 3158,
      "delivery": 3159,
      "SA": 3160,
      "generated": 3161,
      "simple": 3162,
      "hepat": 3163,
      "complexes": 3164,
      "laboratory": 3165,
      "conj": 3166,
      "immunore": 3167,
      "removal": 3168,
      "bind": 3169,
      "interval": 3170,
      "gab": 3171,
      "gast": 3172,
      "adhes": 3173,
      "knowledge": 3174,
      "##last": 3175,
      "dogs": 3176,
      "##irus": 3177,
      "assays": 3178,
      "##odynamic": 3179,
      "VVI": 3180,
      "experimental": 3181,
      "carbon": 3182,
      "ds": 3183,
      "##eling": 3184,
      "##ometric": 3185,
      "mild": 3186,
      "severity": 3187,
      "##nas": 3188,
      "concer": 3189,
      "rb": 3190,
      "criteria": 3191,
      "nutr": 3192,
      "gastric": 3193,
      "objective": 3194,
      "liqu": 3195,
      "formed": 3196,
      "##osterone": 3197,
      "enter": 3198,
      "polymorph": 3199,
      "##uit": 3200,
      "V1": 3201,
      "controlled": 3202,
      "light": 3203,
      "excre": 3204,
      "shows": 3205,
      "lymphocytes": 3206,
      "MICs": 3207,
      "question": 3208,
      "appeared": 3209,
      "##opathy": 3210,
      "fluorescence": 3211,
      "##isms": 3212,
      "observ": 3213,
      "##otypes": 3214,
      "acqu": 3215,
      "help": 3216,
      "larger": 3217,
      "stages": 3218,
      "rad": 3219,
      "##ynth": 3220,
      "protoc": 3221,
      "endogenous": 3222,
      "place": 3223,
      "reson": 3224,
      "##ohist": 3225,
      "weak": 3226,
      "fatty": 3227,
      "dietary": 3228,
      "processing": 3229,
      "females": 3230,
      "antagonist": 3231,
      "TA": 3232,
      "monitoring": 3233,
      "led": 3234,
      "impaired": 3235,
      "cryst": 3236,
      "constit": 3237,
      "shif": 3238,
      "##gin": 3239,
      "clinically": 3240,
      "effic": 3241,
      "##imin": 3242,
      "potent": 3243,
      "##ights": 3244,
      "regard": 3245,
      "subc": 3246,
      "##roscopic": 3247,
      "polymer": 3248,
      "##gs": 3249,
      "percentage": 3250,
      "##rophy": 3251,
      "HP": 3252,
      "activities": 3253,
      "tom": 3254,
      "marrow": 3255,
      "PI": 3256,
      "trials": 3257,
      "contained": 3258,
      "malignant": 3259,
      "respond": 3260,
      "channel": 3261,
      "cc": 3262,
      "##elium": 3263,
      "maximal": 3264,
      "apparent": 3265,
      "injection": 3266,
      "olig": 3267,
      "ip": 3268,
      "surve": 3269,
      "prepared": 3270,
      "##ensitive": 3271,
      "##orrh": 3272,
      "humans": 3273,
      "immunohist": 3274,
      "neon": 3275,
      "aged": 3276,
      "source": 3277,
      "composition": 3278,
      "##iotic": 3279,
      "medic": 3280,
      "##day": 3281,
      "##onucle": 3282,
      "##ylated": 3283,
      "intensity": 3284,
      "best": 3285,
      "##lo": 3286,
      "DU": 3287,
      "states": 3288,
      "cognitive": 3289,
      "scores": 3290,
      "promot": 3291,
      "ste": 3292,
      "obes": 3293,
      "double": 3294,
      "##otyp": 3295,
      "hg": 3296,
      "pathogenesis": 3297,
      "replac": 3298,
      "clus": 3299,
      "mechanical": 3300,
      "##istered": 3301,
      "alternative": 3302,
      "igg": 3303,
      "marker": 3304,
      "recombinant": 3305,
      "##uring": 3306,
      "pancre": 3307,
      "histological": 3308,
      "##otide": 3309,
      "sr": 3310,
      "gp": 3311,
      "##utive": 3312,
      "specif": 3313,
      "cas": 3314,
      "kda": 3315,
      "moderate": 3316,
      "pneum": 3317,
      "md": 3318,
      "ten": 3319,
      "cath": 3320,
      "statistically": 3321,
      "cytoplas": 3322,
      "##atives": 3323,
      "promoter": 3324,
      "##erved": 3325,
      "concluded": 3326,
      "host": 3327,
      "word": 3328,
      "bacteria": 3329,
      "central": 3330,
      "##ique": 3331,
      "pcr": 3332,
      "efficiency": 3333,
      "urine": 3334,
      "auto": 3335,
      "access": 3336,
      "##ronch": 3337,
      "##poc": 3338,
      "##way": 3339,
      "glob": 3340,
      "probably": 3341,
      "another": 3342,
      "variety": 3343,
      "aortic": 3344,
      "antigens": 3345,
      "manif": 3346,
      "usually": 3347,
      "##aine": 3348,
      "future": 3349,
      "cord": 3350,
      "##most": 3351,
      "third": 3352,
      "plus": 3353,
      "nuclei": 3354,
      "radiation": 3355,
      "##tively": 3356,
      "having": 3357,
      "iron": 3358,
      "trunc": 3359,
      "##ert": 3360,
      "##truct": 3361,
      "intestinal": 3362,
      "coh": 3363,
      "##agl": 3364,
      "##ze": 3365,
      "retin": 3366,
      "stem": 3367,
      "investigation": 3368,
      "thyroid": 3369,
      "difficult": 3370,
      "valid": 3371,
      "clos": 3372,
      "##path": 3373,
      "fix": 3374,
      "melan": 3375,
      "reactions": 3376,
      "developing": 3377,
      "##ld": 3378,
      "hemat": 3379,
      "##BA": 3380,
      "##aw": 3381,
      "##izes": 3382,
      "throughout": 3383,
      "EDC": 3384,
      "finally": 3385,
      "anesth": 3386,
      "##pocamp": 3387,
      "AL": 3388,
      "##cd": 3389,
      "markedly": 3390,
      "spati": 3391,
      "ns": 3392,
      "SL": 3393,
      "rabb": 3394,
      "##ompan": 3395,
      "##obic": 3396,
      "designed": 3397,
      "atrial": 3398,
      "deficiency": 3399,
      "peripheral": 3400,
      "pass": 3401,
      "certain": 3402,
      "specimens": 3403,
      "authors": 3404,
      "vel": 3405,
      "##ral": 3406,
      "generation": 3407,
      "prosp": 3408,
      "od": 3409,
      "compounds": 3410,
      "accompan": 3411,
      "##ivers": 3412,
      "##angl": 3413,
      "##itone": 3414,
      "upreg": 3415,
      "areas": 3416,
      "predominant": 3417,
      "tract": 3418,
      "stro": 3419,
      "prolonged": 3420,
      "pow": 3421,
      "limit": 3422,
      "pb": 3423,
      "##mitted": 3424,
      "posi": 3425,
      "yet": 3426,
      "Az": 3427,
      "##encing": 3428,
      "NP": 3429,
      "##rosp": 3430,
      "aggreg": 3431,
      "NI": 3432,
      "product": 3433,
      "interp": 3434,
      "longer": 3435,
      "##adren": 3436,
      "almost": 3437,
      "variables": 3438,
      "##equ": 3439,
      "facilit": 3440,
      "map": 3441,
      "posterior": 3442,
      "SV": 3443,
      "cos": 3444,
      "##itr": 3445,
      "specifically": 3446,
      "macrophages": 3447,
      "##eg": 3448,
      "##ened": 3449,
      "now": 3450,
      "##uls": 3451,
      "liquid": 3452,
      "determination": 3453,
      "resonance": 3454,
      "predicted": 3455,
      "##ternal": 3456,
      "##man": 3457,
      "##inations": 3458,
      "##ulatory": 3459,
      "phenotype": 3460,
      "must": 3461,
      "##rs": 3462,
      "compare": 3463,
      "##binding": 3464,
      "thresh": 3465,
      "scan": 3466,
      "rapidly": 3467,
      "ure": 3468,
      "upp": 3469,
      "tri": 3470,
      "##tract": 3471,
      "rs": 3472,
      "grad": 3473,
      "##orn": 3474,
      "ana": 3475,
      "##mp": 3476,
      "alk": 3477,
      "##free": 3478,
      "participants": 3479,
      "##max": 3480,
      "famil": 3481,
      "cb": 3482,
      "terms": 3483,
      "##ars": 3484,
      "neurolog": 3485,
      "segment": 3486,
      "birth": 3487,
      "##osynth": 3488,
      "differential": 3489,
      "bronch": 3490,
      "##onia": 3491,
      "transl": 3492,
      "##rocytes": 3493,
      "cann": 3494,
      "stability": 3495,
      "MC": 3496,
      "substit": 3497,
      "np": 3498,
      "##lin": 3499,
      "focus": 3500,
      "##arding": 3501,
      "chromatography": 3502,
      "environmental": 3503,
      "leads": 3504,
      "old": 3505,
      "PM": 3506,
      "gly": 3507,
      "##ering": 3508,
      "toxic": 3509,
      "##usions": 3510,
      "guid": 3511,
      "neph": 3512,
      "MS": 3513,
      "SQ": 3514,
      "subun": 3515,
      "igf": 3516,
      "inner": 3517,
      "plays": 3518,
      "employ": 3519,
      "spl": 3520,
      "quality": 3521,
      "##oclonal": 3522,
      "establish": 3523,
      "profile": 3524,
      "nod": 3525,
      "CC": 3526,
      "spe": 3527,
      "scale": 3528,
      "opp": 3529,
      "comparable": 3530,
      "veloc": 3531,
      "transient": 3532,
      "##elling": 3533,
      "profil": 3534,
      "commonly": 3535,
      "nat": 3536,
      "perf": 3537,
      "nine": 3538,
      "temporal": 3539,
      "transmission": 3540,
      "LD": 3541,
      "##ophys": 3542,
      "summ": 3543,
      "upper": 3544,
      "hippocamp": 3545,
      "##astic": 3546,
      "##eptides": 3547,
      "generally": 3548,
      "##ots": 3549,
      "##ify": 3550,
      "images": 3551,
      "##sis": 3552,
      "lear": 3553,
      "half": 3554,
      "glomer": 3555,
      "strategies": 3556,
      "AP": 3557,
      "detail": 3558,
      "tb": 3559,
      "occl": 3560,
      "##itary": 3561,
      "asym": 3562,
      "##uts": 3563,
      "force": 3564,
      "prefer": 3565,
      "##ching": 3566,
      "reports": 3567,
      "confirm": 3568,
      "unique": 3569,
      "##tile": 3570,
      "anat": 3571,
      "culture": 3572,
      "pancreatic": 3573,
      "article": 3574,
      "##umer": 3575,
      "##ella": 3576,
      "proportion": 3577,
      "##eletal": 3578,
      "dev": 3579,
      "channels": 3580,
      "units": 3581,
      "cho": 3582,
      "biopsy": 3583,
      "stimuli": 3584,
      "experience": 3585,
      "molecule": 3586,
      "monoclonal": 3587,
      "distal": 3588,
      "truncated": 3589,
      "needed": 3590,
      "den": 3591,
      "##ylch": 3592,
      "oxide": 3593,
      "lv": 3594,
      "##try": 3595,
      "ever": 3596,
      "particles": 3597,
      "##be": 3598,
      "comm": 3599,
      "superior": 3600,
      "##ometry": 3601,
      "words": 3602,
      "relation": 3603,
      "##alysis": 3604,
      "wildtype": 3605,
      "alone": 3606,
      "majority": 3607,
      "dorsal": 3608,
      "injected": 3609,
      "bur": 3610,
      "efficacy": 3611,
      "##erent": 3612,
      "##olysis": 3613,
      "ros": 3614,
      "irradi": 3615,
      "diameter": 3616,
      "##arr": 3617,
      "paras": 3618,
      "full": 3619,
      "overe": 3620,
      "pyr": 3621,
      "##obacter": 3622,
      "receiving": 3623,
      "##ired": 3624,
      "seiz": 3625,
      "##ape": 3626,
      "home": 3627,
      "##ector": 3628,
      "R2": 3629,
      "problems": 3630,
      "##version": 3631,
      "##aline": 3632,
      "energy": 3633,
      "cand": 3634,
      "characteristic": 3635,
      "##ema": 3636,
      "alcohol": 3637,
      "observations": 3638,
      "##ooth": 3639,
      "cortic": 3640,
      "adverse": 3641,
      "task": 3642,
      "infarc": 3643,
      "polyp": 3644,
      "pv": 3645,
      "##ilateral": 3646,
      "thym": 3647,
      "##hc": 3648,
      "incubation": 3649,
      "ID": 3650,
      "optimal": 3651,
      "bov": 3652,
      "lar": 3653,
      "absorption": 3654,
      "aer": 3655,
      "##tility": 3656,
      "exist": 3657,
      "phosphate": 3658,
      "involving": 3659,
      "signals": 3660,
      "##ythm": 3661,
      "tend": 3662,
      "##fa": 3663,
      "mob": 3664,
      "stre": 3665,
      "chromosome": 3666,
      "cytok": 3667,
      "ge": 3668,
      "regarding": 3669,
      "last": 3670,
      "##oids": 3671,
      "medial": 3672,
      "amounts": 3673,
      "overexp": 3674,
      "artery": 3675,
      "##atid": 3676,
      "##ics": 3677,
      "##hyd": 3678,
      "special": 3679,
      "signs": 3680,
      "mv": 3681,
      "mixed": 3682,
      "##activation": 3683,
      "##termin": 3684,
      "##ula": 3685,
      "microg": 3686,
      "##time": 3687,
      "plasm": 3688,
      "##tra": 3689,
      "IM": 3690,
      "##ibly": 3691,
      "##uration": 3692,
      "##olec": 3693,
      "##ellar": 3694,
      "ven": 3695,
      "##dom": 3696,
      "resistant": 3697,
      "nf": 3698,
      "currently": 3699,
      "remain": 3700,
      "##roup": 3701,
      "antioxid": 3702,
      "evaluation": 3703,
      "repeated": 3704,
      "cortex": 3705,
      "##imen": 3706,
      "complement": 3707,
      "ho": 3708,
      "rib": 3709,
      "stroke": 3710,
      "AM": 3711,
      "perfusion": 3712,
      "##cm": 3713,
      "oxidation": 3714,
      "blocked": 3715,
      "candid": 3716,
      "venti": 3717,
      "maternal": 3718,
      "DUE": 3719,
      "older": 3720,
      "gastro": 3721,
      "indicates": 3722,
      "milk": 3723,
      "strain": 3724,
      "##rier": 3725,
      "fish": 3726,
      "frequent": 3727,
      "elic": 3728,
      "safety": 3729,
      "degrad": 3730,
      "##acchar": 3731,
      "ON": 3732,
      "far": 3733,
      "##vices": 3734,
      "##oglyc": 3735,
      "##avage": 3736,
      "##orbidity": 3737,
      "divid": 3738,
      "##ump": 3739,
      "##ident": 3740,
      "coeff": 3741,
      "##yc": 3742,
      "##ylase": 3743,
      "numer": 3744,
      "ethanol": 3745,
      "smok": 3746,
      "##atase": 3747,
      "amplitude": 3748,
      "##ings": 3749,
      "progressive": 3750,
      "##iology": 3751,
      "mri": 3752,
      "unc": 3753,
      "noted": 3754,
      "twent": 3755,
      "BP": 3756,
      "partially": 3757,
      "until": 3758,
      "fav": 3759,
      "consumption": 3760,
      "offer": 3761,
      "fragment": 3762,
      "##ows": 3763,
      "widely": 3764,
      "disrup": 3765,
      "##activated": 3766,
      "##anth": 3767,
      "gest": 3768,
      "tnf": 3769,
      "network": 3770,
      "##etric": 3771,
      "advant": 3772,
      "radio": 3773,
      "steroid": 3774,
      "practice": 3775,
      "##ophosph": 3776,
      "termin": 3777,
      "delayed": 3778,
      "fluor": 3779,
      "lh": 3780,
      "plants": 3781,
      "numbers": 3782,
      "##eption": 3783,
      "attenu": 3784,
      "longterm": 3785,
      "germ": 3786,
      "phospholip": 3787,
      "excretion": 3788,
      "IF": 3789,
      "rise": 3790,
      "complete": 3791,
      "mir": 3792,
      "gaba": 3793,
      "recip": 3794,
      "relevant": 3795,
      "attrib": 3796,
      "added": 3797,
      "dopamine": 3798,
      "clon": 3799,
      "around": 3800,
      "rest": 3801,
      "##ione": 3802,
      "external": 3803,
      "setting": 3804,
      "##ochemistry": 3805,
      "##transfer": 3806,
      "oh": 3807,
      "##anced": 3808,
      "parall": 3809,
      "except": 3810,
      "##ina": 3811,
      "ur": 3812,
      "##edim": 3813,
      "smooth": 3814,
      "##asal": 3815,
      "bac": 3816,
      "##ias": 3817,
      "##cal": 3818,
      "princ": 3819,
      "view": 3820,
      "BL": 3821,
      "prognosis": 3822,
      "problem": 3823,
      "exch": 3824,
      "ful": 3825,
      "neut": 3826,
      "mutants": 3827,
      "randomized": 3828,
      "##seud": 3829,
      "recording": 3830,
      "excess": 3831,
      "##raw": 3832,
      "##osomal": 3833,
      "velocity": 3834,
      "selection": 3835,
      "maintained": 3836,
      "accuracy": 3837,
      "camp": 3838,
      "##osomes": 3839,
      "dosed": 3840,
      "none": 3841,
      "decreases": 3842,
      "failed": 3843,
      "conform": 3844,
      "become": 3845,
      "fo": 3846,
      "expected": 3847,
      "turn": 3848,
      "volun": 3849,
      "program": 3850,
      "near": 3851,
      "##cp": 3852,
      "intermediate": 3853,
      "##ss": 3854,
      "##esia": 3855,
      "##rog": 3856,
      "fract": 3857,
      "like": 3858,
      "REC": 3859,
      "impairment": 3860,
      "reconstr": 3861,
      "pal": 3862,
      "interfer": 3863,
      "aimed": 3864,
      "thor": 3865,
      "bovine": 3866,
      "adhesion": 3867,
      "respect": 3868,
      "social": 3869,
      "##to": 3870,
      "##clerosis": 3871,
      "sa": 3872,
      "##ecutive": 3873,
      "rou": 3874,
      "prevention": 3875,
      "##ients": 3876,
      "perme": 3877,
      "vitamin": 3878,
      "HC": 3879,
      "dele": 3880,
      "reducing": 3881,
      "strategy": 3882,
      "defects": 3883,
      "significance": 3884,
      "##organ": 3885,
      "contain": 3886,
      "eas": 3887,
      "localized": 3888,
      "nature": 3889,
      "hydroly": 3890,
      "real": 3891,
      "mp": 3892,
      "microb": 3893,
      "bo": 3894,
      "iss": 3895,
      "ter": 3896,
      "EM": 3897,
      "traum": 3898,
      "smaller": 3899,
      "LA": 3900,
      "successfully": 3901,
      "uter": 3902,
      "##eal": 3903,
      "requires": 3904,
      "potentially": 3905,
      "challenge": 3906,
      "##tif": 3907,
      "excit": 3908,
      "prem": 3909,
      "HF": 3910,
      "sph": 3911,
      "ligand": 3912,
      "sensory": 3913,
      "latter": 3914,
      "wide": 3915,
      "clearance": 3916,
      "radical": 3917,
      "recovery": 3918,
      "epis": 3919,
      "##iety": 3920,
      "nad": 3921,
      "ga": 3922,
      "follic": 3923,
      "metabolites": 3924,
      "cis": 3925,
      "pseud": 3926,
      "ovari": 3927,
      "put": 3928,
      "vag": 3929,
      "efficient": 3930,
      "event": 3931,
      "GABA": 3932,
      "morphological": 3933,
      "##ument": 3934,
      "neither": 3935,
      "##iform": 3936,
      "regression": 3937,
      "approaches": 3938,
      "colum": 3939,
      "spatial": 3940,
      "##by": 3941,
      "degen": 3942,
      "suppression": 3943,
      "neoplas": 3944,
      "arr": 3945,
      "defic": 3946,
      "##ats": 3947,
      "vary": 3948,
      "hd": 3949,
      "##np": 3950,
      "labeled": 3951,
      "MA": 3952,
      "##aking": 3953,
      "sci": 3954,
      "mu": 3955,
      "pathological": 3956,
      "primarily": 3957,
      "squ": 3958,
      "##leuk": 3959,
      "ischemia": 3960,
      "slightly": 3961,
      "##bers": 3962,
      "vessels": 3963,
      "##aces": 3964,
      "construc": 3965,
      "tool": 3966,
      "equal": 3967,
      "sensitive": 3968,
      "genome": 3969,
      "gradi": 3970,
      "##den": 3971,
      "##ucid": 3972,
      "##aryn": 3973,
      "morphology": 3974,
      "tomography": 3975,
      "restor": 3976,
      "attention": 3977,
      "recurrent": 3978,
      "localization": 3979,
      "administered": 3980,
      "accompanied": 3981,
      "AB": 3982,
      "asc": 3983,
      "##esic": 3984,
      "fast": 3985,
      "cytos": 3986,
      "pen": 3987,
      "G1": 3988,
      "cytoch": 3989,
      "eye": 3990,
      "pf": 3991,
      "divided": 3992,
      "alb": 3993,
      "below": 3994,
      "reconstruc": 3995,
      "roles": 3996,
      "##cers": 3997,
      "lob": 3998,
      "skeletal": 3999,
      "evoked": 4000,
      "tumour": 4001,
      "donor": 4002,
      "CN": 4003,
      "poin": 4004,
      "pi": 4005,
      "migration": 4006,
      "joint": 4007,
      "cyp": 4008,
      "gangl": 4009,
      "##less": 4010,
      "dend": 4011,
      "congen": 4012,
      "lam": 4013,
      "##tors": 4014,
      "CBF": 4015,
      "sten": 4016,
      "HS": 4017,
      "organic": 4018,
      "profiles": 4019,
      "extensive": 4020,
      "cerebral": 4021,
      "seems": 4022,
      "##fts": 4023,
      "reviewed": 4024,
      "enti": 4025,
      "##kin": 4026,
      "typical": 4027,
      "protection": 4028,
      "##factory": 4029,
      "close": 4030,
      "##idal": 4031,
      "dex": 4032,
      "manifest": 4033,
      "##bc": 4034,
      "earl": 4035,
      "tgf": 4036,
      "ads": 4037,
      "lc": 4038,
      "transf": 4039,
      "secondary": 4040,
      "abund": 4041,
      "synaptic": 4042,
      "arteries": 4043,
      "behavioral": 4044,
      "eng": 4045,
      "##ensional": 4046,
      "preparation": 4047,
      "alg": 4048,
      "##ls": 4049,
      "potentials": 4050,
      "suppressed": 4051,
      "dehydro": 4052,
      "behavior": 4053,
      "##elated": 4054,
      "##itable": 4055,
      "fiber": 4056,
      "##que": 4057,
      "domains": 4058,
      "##apping": 4059,
      "##ypt": 4060,
      "gm": 4061,
      "##osal": 4062,
      "prostate": 4063,
      "infil": 4064,
      "flex": 4065,
      "##ope": 4066,
      "morbidity": 4067,
      "reas": 4068,
      "avoid": 4069,
      "##ropri": 4070,
      "##anine": 4071,
      "pigs": 4072,
      "echocardi": 4073,
      "##hydrox": 4074,
      "quantif": 4075,
      "rot": 4076,
      "##hg": 4077,
      "attem": 4078,
      "##jection": 4079,
      "possibility": 4080,
      "fm": 4081,
      "electroph": 4082,
      "prevented": 4083,
      "##ared": 4084,
      "dp": 4085,
      "actin": 4086,
      "broad": 4087,
      "nonc": 4088,
      "deep": 4089,
      "##aves": 4090,
      "##rous": 4091,
      "heat": 4092,
      "ons": 4093,
      "susceptibility": 4094,
      "recurrence": 4095,
      "extract": 4096,
      "ngml": 4097,
      "retrosp": 4098,
      "##ozyg": 4099,
      "##ontaining": 4100,
      "linked": 4101,
      "##estern": 4102,
      "heterogene": 4103,
      "##olved": 4104,
      "SVR": 4105,
      "refer": 4106,
      "##ectiveness": 4107,
      "anx": 4108,
      "##oa": 4109,
      "resolution": 4110,
      "oil": 4111,
      "##roblasts": 4112,
      "activated": 4113,
      "##oses": 4114,
      "resection": 4115,
      "ME": 4116,
      "##onomic": 4117,
      "##amus": 4118,
      "contact": 4119,
      "coc": 4120,
      "##ectivity": 4121,
      "##pathetic": 4122,
      "link": 4123,
      "interv": 4124,
      "cav": 4125,
      "core": 4126,
      "##ediated": 4127,
      "##derived": 4128,
      "vaccine": 4129,
      "##gans": 4130,
      "occurrence": 4131,
      "##raz": 4132,
      "##arch": 4133,
      "##esting": 4134,
      "undergoing": 4135,
      "##oglobin": 4136,
      "sera": 4137,
      "transition": 4138,
      "##teen": 4139,
      "grade": 4140,
      "##dp": 4141,
      "feed": 4142,
      "emb": 4143,
      "suppress": 4144,
      "##genic": 4145,
      "systemic": 4146,
      "SO": 4147,
      "soluble": 4148,
      "synthesized": 4149,
      "gon": 4150,
      "##apse": 4151,
      "fully": 4152,
      "accel": 4153,
      "uv": 4154,
      "##hood": 4155,
      "evolution": 4156,
      "elements": 4157,
      "account": 4158,
      "asth": 4159,
      "showing": 4160,
      "##itoneal": 4161,
      "gamma": 4162,
      "##ields": 4163,
      "gal": 4164,
      "##vis": 4165,
      "peroxid": 4166,
      "unit": 4167,
      "##ycin": 4168,
      "adequ": 4169,
      "SMB": 4170,
      "world": 4171,
      "##coprotein": 4172,
      "recognition": 4173,
      "agonist": 4174,
      "soft": 4175,
      "therm": 4176,
      "contraction": 4177,
      "diff": 4178,
      "##ustr": 4179,
      "implant": 4180,
      "abol": 4181,
      "transpor": 4182,
      "epile": 4183,
      "infarction": 4184,
      "elucid": 4185,
      "movement": 4186,
      "adi": 4187,
      "lps": 4188,
      "##thr": 4189,
      "disp": 4190,
      "regulated": 4191,
      "ts": 4192,
      "##ocar": 4193,
      "##icians": 4194,
      "bile": 4195,
      "musc": 4196,
      "cad": 4197,
      "cg": 4198,
      "EP": 4199,
      "induces": 4200,
      "extracts": 4201,
      "inhibitory": 4202,
      "NT": 4203,
      "recr": 4204,
      "learning": 4205,
      "image": 4206,
      "contains": 4207,
      "spectrum": 4208,
      "##ogenetic": 4209,
      "whose": 4210,
      "inst": 4211,
      "delta": 4212,
      "fa": 4213,
      "predict": 4214,
      "thal": 4215,
      "##phenyl": 4216,
      "conjug": 4217,
      "##abeled": 4218,
      "downreg": 4219,
      "phenomen": 4220,
      "vesic": 4221,
      "employed": 4222,
      "##erich": 4223,
      "##ylcholine": 4224,
      "extrem": 4225,
      "every": 4226,
      "##acin": 4227,
      "##anial": 4228,
      "aug": 4229,
      "##infl": 4230,
      "encoding": 4231,
      "recognized": 4232,
      "##timulated": 4233,
      "chick": 4234,
      "endothelial": 4235,
      "dn": 4236,
      "prognostic": 4237,
      "call": 4238,
      "saline": 4239,
      "##hs": 4240,
      "##gal": 4241,
      "gre": 4242,
      "protocol": 4243,
      "minimal": 4244,
      "color": 4245,
      "threshold": 4246,
      "##group": 4247,
      "defin": 4248,
      "computed": 4249,
      "stabil": 4250,
      "fit": 4251,
      "invasive": 4252,
      "solid": 4253,
      "accurate": 4254,
      "diets": 4255,
      "ratios": 4256,
      "##rophic": 4257,
      "##ople": 4258,
      "periods": 4259,
      "PN": 4260,
      "consecutive": 4261,
      "SH": 4262,
      "document": 4263,
      "##vas": 4264,
      "laser": 4265,
      "sustained": 4266,
      "orth": 4267,
      "targets": 4268,
      "synthetic": 4269,
      "regional": 4270,
      "PG": 4271,
      "electrical": 4272,
      "##aemia": 4273,
      "hypothal": 4274,
      "CD": 4275,
      "##ank": 4276,
      "benz": 4277,
      "tetr": 4278,
      "fractions": 4279,
      "airway": 4280,
      "##adder": 4281,
      "ast": 4282,
      "tel": 4283,
      "ranged": 4284,
      "##itant": 4285,
      "replication": 4286,
      "terminal": 4287,
      "trigg": 4288,
      "contrac": 4289,
      "port": 4290,
      "##rich": 4291,
      "##erated": 4292,
      "ultrasound": 4293,
      "aa": 4294,
      "closely": 4295,
      "western": 4296,
      "sections": 4297,
      "##olin": 4298,
      "##oside": 4299,
      "##phas": 4300,
      "##vascular": 4301,
      "conver": 4302,
      "allows": 4303,
      "kinetics": 4304,
      "compr": 4305,
      "subsequently": 4306,
      "ips": 4307,
      "defect": 4308,
      "root": 4309,
      "##ches": 4310,
      "catheter": 4311,
      "base": 4312,
      "media": 4313,
      "##itud": 4314,
      "##eds": 4315,
      "interleuk": 4316,
      "read": 4317,
      "rr": 4318,
      "##urg": 4319,
      "retinal": 4320,
      "clearly": 4321,
      "hz": 4322,
      "##atically": 4323,
      "##istant": 4324,
      "basic": 4325,
      "minor": 4326,
      "bond": 4327,
      "##osite": 4328,
      "protective": 4329,
      "space": 4330,
      "onset": 4331,
      "allel": 4332,
      "estrogen": 4333,
      "##ging": 4334,
      "VP": 4335,
      "##ensin": 4336,
      "nk": 4337,
      "applications": 4338,
      "##fold": 4339,
      "intervals": 4340,
      "neonatal": 4341,
      "##ocrine": 4342,
      "##bal": 4343,
      "wave": 4344,
      "##reatment": 4345,
      "spectroscopy": 4346,
      "##tingu": 4347,
      "disturb": 4348,
      "spectrom": 4349,
      "##ession": 4350,
      "metal": 4351,
      "neutroph": 4352,
      "compl": 4353,
      "community": 4354,
      "##iral": 4355,
      "power": 4356,
      "progress": 4357,
      "ty": 4358,
      "contex": 4359,
      "discr": 4360,
      "substrates": 4361,
      "occurring": 4362,
      "prospective": 4363,
      "native": 4364,
      "##dr": 4365,
      "educ": 4366,
      "az": 4367,
      "##gest": 4368,
      "uns": 4369,
      "gland": 4370,
      "##lux": 4371,
      "cytokines": 4372,
      "band": 4373,
      "##ectal": 4374,
      "##abstract": 4375,
      "##tenance": 4376,
      "died": 4377,
      "biosynth": 4378,
      "##positive": 4379,
      "tolerance": 4380,
      "cost": 4381,
      "##ylate": 4382,
      "thickness": 4383,
      "##adiol": 4384,
      "eti": 4385,
      "lipoprotein": 4386,
      "NS": 4387,
      "##pro": 4388,
      "magnitude": 4389,
      "uncle": 4390,
      "HA": 4391,
      "motion": 4392,
      "fibroblasts": 4393,
      "##atitis": 4394,
      "dynamics": 4395,
      "interest": 4396,
      "##ophage": 4397,
      "log": 4398,
      "RI": 4399,
      "##ga": 4400,
      "##ositive": 4401,
      "##entially": 4402,
      "PCS": 4403,
      "run": 4404,
      "enhance": 4405,
      "neutral": 4406,
      "maintenance": 4407,
      "obstruc": 4408,
      "possibly": 4409,
      "sufficient": 4410,
      "##ophag": 4411,
      "##rolled": 4412,
      "##plas": 4413,
      "##inflamm": 4414,
      "elder": 4415,
      "caps": 4416,
      "publ": 4417,
      "##ways": 4418,
      "distingu": 4419,
      "members": 4420,
      "hydroph": 4421,
      "wk": 4422,
      "##zing": 4423,
      "serot": 4424,
      "NK": 4425,
      "bran": 4426,
      "interleukin": 4427,
      "displayed": 4428,
      "curve": 4429,
      "cv": 4430,
      "TM": 4431,
      "##elin": 4432,
      "##terminal": 4433,
      "##nt": 4434,
      "##oxin": 4435,
      "exhibit": 4436,
      "##omycin": 4437,
      "cytochrome": 4438,
      "FC": 4439,
      "immedi": 4440,
      "materials": 4441,
      "##azole": 4442,
      "##ror": 4443,
      "unclear": 4444,
      "##eps": 4445,
      "##thal": 4446,
      "separation": 4447,
      "categ": 4448,
      "wt": 4449,
      "tradition": 4450,
      "##opic": 4451,
      "public": 4452,
      "fibrosis": 4453,
      "indirect": 4454,
      "##oic": 4455,
      "##ycl": 4456,
      "hydrogen": 4457,
      "parallel": 4458,
      "effectiveness": 4459,
      "remaining": 4460,
      "nonin": 4461,
      "fall": 4462,
      "history": 4463,
      "recommended": 4464,
      "polar": 4465,
      "##illin": 4466,
      "FA": 4467,
      "dehydrogen": 4468,
      "reactive": 4469,
      "lamin": 4470,
      "consist": 4471,
      "exchange": 4472,
      "inters": 4473,
      "lum": 4474,
      "way": 4475,
      "fibr": 4476,
      "AG": 4477,
      "##tum": 4478,
      "points": 4479,
      "adenosine": 4480,
      "##pass": 4481,
      "circulating": 4482,
      "express": 4483,
      "dimin": 4484,
      "##ximal": 4485,
      "epithelium": 4486,
      "##ives": 4487,
      "systolic": 4488,
      "##eres": 4489,
      "##icin": 4490,
      "statistical": 4491,
      "elderly": 4492,
      "cdna": 4493,
      "##ologous": 4494,
      "xray": 4495,
      "soil": 4496,
      "granul": 4497,
      "earlier": 4498,
      "jap": 4499,
      "du": 4500,
      "published": 4501,
      "F0": 4502,
      "mode": 4503,
      "##ococcus": 4504,
      "developmental": 4505,
      "immediately": 4506,
      "TR": 4507,
      "similarly": 4508,
      "physical": 4509,
      "##transferase": 4510,
      "##ocation": 4511,
      "final": 4512,
      "thi": 4513,
      "##ynaptic": 4514,
      "ifn": 4515,
      "relationships": 4516,
      "varied": 4517,
      "synthase": 4518,
      "blot": 4519,
      "VL": 4520,
      "mature": 4521,
      "appearance": 4522,
      "organs": 4523,
      "benefit": 4524,
      "##itin": 4525,
      "observation": 4526,
      "##otropic": 4527,
      "disch": 4528,
      "interesting": 4529,
      "released": 4530,
      "entire": 4531,
      "amp": 4532,
      "##oman": 4533,
      "isoform": 4534,
      "##tering": 4535,
      "##ogens": 4536,
      "##intestinal": 4537,
      "##mod": 4538,
      "limb": 4539,
      "global": 4540,
      "##tradiol": 4541,
      "sup": 4542,
      "tl": 4543,
      "equival": 4544,
      "AI": 4545,
      "##tase": 4546,
      "puls": 4547,
      "bul": 4548,
      "##atum": 4549,
      "##athy": 4550,
      "promising": 4551,
      "##dle": 4552,
      "segments": 4553,
      "##iary": 4554,
      "retic": 4555,
      "PV": 4556,
      "##gluc": 4557,
      "ldl": 4558,
      "##upp": 4559,
      "ions": 4560,
      "location": 4561,
      "##ocytic": 4562,
      "detectable": 4563,
      "##atp": 4564,
      "##arrh": 4565,
      "ather": 4566,
      "##angi": 4567,
      "nitric": 4568,
      "cover": 4569,
      "nucleotide": 4570,
      "##otomy": 4571,
      "tp": 4572,
      "CH": 4573,
      "back": 4574,
      "possess": 4575,
      "antioxidant": 4576,
      "sinus": 4577,
      "modulation": 4578,
      "substrate": 4579,
      "ATP": 4580,
      "classification": 4581,
      "reverse": 4582,
      "preoperative": 4583,
      "AE": 4584,
      "tet": 4585,
      "irradiation": 4586,
      "relax": 4587,
      "center": 4588,
      "##assium": 4589,
      "gastrointestinal": 4590,
      "kill": 4591,
      "TC": 4592,
      "nam": 4593,
      "##ovirus": 4594,
      "rt": 4595,
      "staining": 4596,
      "probe": 4597,
      "aspects": 4598,
      "vein": 4599,
      "twenty": 4600,
      "##acer": 4601,
      "measuring": 4602,
      "tm": 4603,
      "introduc": 4604,
      "strept": 4605,
      "nac": 4606,
      "glutath": 4607,
      "myc": 4608,
      "princip": 4609,
      "competi": 4610,
      "tcell": 4611,
      "##ble": 4612,
      "##ico": 4613,
      "enhancement": 4614,
      "reflex": 4615,
      "adrenal": 4616,
      "questionna": 4617,
      "neurological": 4618,
      "##ulus": 4619,
      "sources": 4620,
      "duct": 4621,
      "dosedependent": 4622,
      "simultaneously": 4623,
      "##tries": 4624,
      "##orage": 4625,
      "##ediatric": 4626,
      "##ream": 4627,
      "##uron": 4628,
      "##ervation": 4629,
      "replacement": 4630,
      "egf": 4631,
      "congenital": 4632,
      "##iveness": 4633,
      "numerous": 4634,
      "##enol": 4635,
      "diast": 4636,
      "FP": 4637,
      "##anging": 4638,
      "##opo": 4639,
      "correc": 4640,
      "benign": 4641,
      "##elled": 4642,
      "##ench": 4643,
      "##ocytosis": 4644,
      "plan": 4645,
      "##ependently": 4646,
      "thought": 4647,
      "MMP": 4648,
      "behaviour": 4649,
      "nutrition": 4650,
      "gc": 4651,
      "MR": 4652,
      "fif": 4653,
      "satur": 4654,
      "##thers": 4655,
      "rp": 4656,
      "##olesc": 4657,
      "mn": 4658,
      "regen": 4659,
      "##inflammatory": 4660,
      "##zation": 4661,
      "context": 4662,
      "##ophageal": 4663,
      "ovarian": 4664,
      "organization": 4665,
      "solutions": 4666,
      "##ush": 4667,
      "trend": 4668,
      "pan": 4669,
      "implications": 4670,
      "##ulum": 4671,
      "stable": 4672,
      "poorly": 4673,
      "fung": 4674,
      "column": 4675,
      "rabbits": 4676,
      "hemorrh": 4677,
      "additionally": 4678,
      "node": 4679,
      "pharmacological": 4680,
      "implicated": 4681,
      "##load": 4682,
      "unch": 4683,
      "##ropriate": 4684,
      "inoc": 4685,
      "tit": 4686,
      "consisted": 4687,
      "##itol": 4688,
      "ye": 4689,
      "assign": 4690,
      "represents": 4691,
      "expressing": 4692,
      "past": 4693,
      "highl": 4694,
      "##ogra": 4695,
      "aw": 4696,
      "stenosis": 4697,
      "pla": 4698,
      "gain": 4699,
      "ld": 4700,
      "largely": 4701,
      "##emat": 4702,
      "stri": 4703,
      "##ecal": 4704,
      "suitable": 4705,
      "py": 4706,
      "infer": 4707,
      "separate": 4708,
      "recommend": 4709,
      "predominantly": 4710,
      "rod": 4711,
      "concom": 4712,
      "hour": 4713,
      "caro": 4714,
      "potassium": 4715,
      "##bor": 4716,
      "hypoxia": 4717,
      "fet": 4718,
      "immunoreactivity": 4719,
      "hippocampus": 4720,
      "survey": 4721,
      "cytoplasmic": 4722,
      "influenced": 4723,
      "break": 4724,
      "deletion": 4725,
      "##isation": 4726,
      "hemodynamic": 4727,
      "capable": 4728,
      "towards": 4729,
      "##oved": 4730,
      "discover": 4731,
      "##amate": 4732,
      "allowed": 4733,
      "nurs": 4734,
      "sympathetic": 4735,
      "obesity": 4736,
      "schiz": 4737,
      "abnormalities": 4738,
      "cancers": 4739,
      "off": 4740,
      "dehydrogenase": 4741,
      "predictive": 4742,
      "subjected": 4743,
      "adolesc": 4744,
      "presentation": 4745,
      "tre": 4746,
      "pathology": 4747,
      "##bo": 4748,
      "derivatives": 4749,
      "membranes": 4750,
      "abolished": 4751,
      "##tig": 4752,
      "people": 4753,
      "mmhg": 4754,
      "concomitant": 4755,
      "hm": 4756,
      "understood": 4757,
      "##wh": 4758,
      "##isa": 4759,
      "gradient": 4760,
      "conserved": 4761,
      "variations": 4762,
      "precurs": 4763,
      "eb": 4764,
      "##oflu": 4765,
      "reliable": 4766,
      "never": 4767,
      "##erv": 4768,
      "spectra": 4769,
      "cows": 4770,
      "##ool": 4771,
      "transcriptional": 4772,
      "initiation": 4773,
      "persistent": 4774,
      "esch": 4775,
      "countries": 4776,
      "##eli": 4777,
      "ann": 4778,
      "neck": 4779,
      "platelet": 4780,
      "##iotics": 4781,
      "##ocarcin": 4782,
      "##aper": 4783,
      "cu": 4784,
      "##acc": 4785,
      "cruc": 4786,
      "intake": 4787,
      "inhibits": 4788,
      "counter": 4789,
      "pret": 4790,
      "##orith": 4791,
      "LC": 4792,
      "analysed": 4793,
      "##urys": 4794,
      "removed": 4795,
      "creatin": 4796,
      "algorith": 4797,
      "##otoxin": 4798,
      "arch": 4799,
      "##erichia": 4800,
      "amb": 4801,
      "excell": 4802,
      "##dehyd": 4803,
      "implement": 4804,
      "others": 4805,
      "MP": 4806,
      "safe": 4807,
      "routine": 4808,
      "MF": 4809,
      "##odil": 4810,
      "cohort": 4811,
      "##ionic": 4812,
      "nh": 4813,
      "mixture": 4814,
      "PF": 4815,
      "adapt": 4816,
      "satis": 4817,
      "exogenous": 4818,
      "escherichia": 4819,
      "FL": 4820,
      "lymphoma": 4821,
      "resting": 4822,
      "##des": 4823,
      "contribution": 4824,
      "glycoprotein": 4825,
      "##gative": 4826,
      "dominant": 4827,
      "CAA": 4828,
      "fibers": 4829,
      "unchanged": 4830,
      "##elf": 4831,
      "affecting": 4832,
      "buff": 4833,
      "##immune": 4834,
      "##acent": 4835,
      "##flow": 4836,
      "##stream": 4837,
      "correct": 4838,
      "substantial": 4839,
      "##erfusion": 4840,
      "embryos": 4841,
      "americ": 4842,
      "onc": 4843,
      "reached": 4844,
      "ln": 4845,
      "bladder": 4846,
      "##eceptor": 4847,
      "thre": 4848,
      "commerc": 4849,
      "hf": 4850,
      "##itus": 4851,
      "complication": 4852,
      "db": 4853,
      "INF": 4854,
      "instit": 4855,
      "thorac": 4856,
      "cannot": 4857,
      "##con": 4858,
      "##eficient": 4859,
      "histopath": 4860,
      "BA": 4861,
      "##obil": 4862,
      "shift": 4863,
      "phosphatid": 4864,
      "genomic": 4865,
      "##ohydr": 4866,
      "##erelated": 4867,
      "##insic": 4868,
      "mineral": 4869,
      "guine": 4870,
      "DR": 4871,
      "benefic": 4872,
      "csf": 4873,
      "viruses": 4874,
      "glutathione": 4875,
      "classified": 4876,
      "initially": 4877,
      "dc": 4878,
      "endoscop": 4879,
      "occlusion": 4880,
      "S1": 4881,
      "metastasis": 4882,
      "coupled": 4883,
      "valve": 4884,
      "nitr": 4885,
      "elevation": 4886,
      "HI": 4887,
      "overexpression": 4888,
      "##ologies": 4889,
      "##ficial": 4890,
      "hair": 4891,
      "cyclic": 4892,
      "##ogram": 4893,
      "angiot": 4894,
      "storage": 4895,
      "##versely": 4896,
      "vaccin": 4897,
      "##off": 4898,
      "middle": 4899,
      "ventilation": 4900,
      "assum": 4901,
      "cytokine": 4902,
      "prac": 4903,
      "##aries": 4904,
      "excellent": 4905,
      "infected": 4906,
      "pn": 4907,
      "interf": 4908,
      "##accharide": 4909,
      "anxiety": 4910,
      "toxin": 4911,
      "pneumonia": 4912,
      "##dose": 4913,
      "##osens": 4914,
      "##roduced": 4915,
      "pharmacokine": 4916,
      "ket": 4917,
      "##ompl": 4918,
      "national": 4919,
      "became": 4920,
      "incorporation": 4921,
      "wound": 4922,
      "ble": 4923,
      "putative": 4924,
      "spectrometry": 4925,
      "choice": 4926,
      "##acting": 4927,
      "antis": 4928,
      "volunte": 4929,
      "##rontal": 4930,
      "compart": 4931,
      "return": 4932,
      "estimate": 4933,
      "##enchym": 4934,
      "mitochondria": 4935,
      "salt": 4936,
      "beneficial": 4937,
      "actions": 4938,
      "fibrin": 4939,
      "amyl": 4940,
      "hybridization": 4941,
      "proges": 4942,
      "HT": 4943,
      "##oyl": 4944,
      "##ercul": 4945,
      "zone": 4946,
      "focal": 4947,
      "modification": 4948,
      "ane": 4949,
      "nitrogen": 4950,
      "lt": 4951,
      "mim": 4952,
      "inser": 4953,
      "propose": 4954,
      "##RNA": 4955,
      "hydroxy": 4956,
      "residual": 4957,
      "natural": 4958,
      "##chron": 4959,
      "correlations": 4960,
      "refr": 4961,
      "retro": 4962,
      "whom": 4963,
      "pathophys": 4964,
      "embryonic": 4965,
      "find": 4966,
      "##Ts": 4967,
      "coord": 4968,
      "move": 4969,
      "verte": 4970,
      "cleavage": 4971,
      "leg": 4972,
      "ester": 4973,
      "##fication": 4974,
      "balance": 4975,
      "lap": 4976,
      "rob": 4977,
      "explain": 4978,
      "monitored": 4979,
      "input": 4980,
      "MD": 4981,
      "SR": 4982,
      "ow": 4983,
      "elicited": 4984,
      "device": 4985,
      "##ises": 4986,
      "sarc": 4987,
      "##bular": 4988,
      "##ete": 4989,
      "ranging": 4990,
      "Th": 4991,
      "make": 4992,
      "subt": 4993,
      "##rose": 4994,
      "dat": 4995,
      "##aden": 4996,
      "ker": 4997,
      "recovered": 4998,
      "therapies": 4999,
      "serious": 5000,
      "tt": 5001,
      "orient": 5002,
      "##mental": 5003,
      "##teine": 5004,
      "##aring": 5005,
      "composed": 5006,
      "##uv": 5007,
      "maturation": 5008,
      "computer": 5009,
      "ML": 5010,
      "sulfate": 5011,
      "##operatively": 5012,
      "axons": 5013,
      "frequencies": 5014,
      "##appear": 5015,
      "comparing": 5016,
      "characterization": 5017,
      "Kd": 5018,
      "epidem": 5019,
      "##argeting": 5020,
      "ce": 5021,
      "##vasive": 5022,
      "fact": 5023,
      "pron": 5024,
      "randomly": 5025,
      "monke": 5026,
      "decline": 5027,
      "cytotoxic": 5028,
      "hex": 5029,
      "interventions": 5030,
      "##ritic": 5031,
      "##taining": 5032,
      "la": 5033,
      "confidence": 5034,
      "TT": 5035,
      "reversed": 5036,
      "bypass": 5037,
      "smoking": 5038,
      "dy": 5039,
      "aort": 5040,
      "wa": 5041,
      "involves": 5042,
      "##tious": 5043,
      "kne": 5044,
      "har": 5045,
      "##otr": 5046,
      "positively": 5047,
      "feas": 5048,
      "intact": 5049,
      "##olds": 5050,
      "glu": 5051,
      "neurot": 5052,
      "changed": 5053,
      "asthma": 5054,
      "variant": 5055,
      "##pler": 5056,
      "kd": 5057,
      "aspir": 5058,
      "characterize": 5059,
      "dl": 5060,
      "yeast": 5061,
      "##oxygen": 5062,
      "##ided": 5063,
      "##oblast": 5064,
      "layer": 5065,
      "heparin": 5066,
      "experienced": 5067,
      "thin": 5068,
      "newly": 5069,
      "ple": 5070,
      "conversion": 5071,
      "antih": 5072,
      "providing": 5073,
      "fragments": 5074,
      "spread": 5075,
      "##orts": 5076,
      "##grade": 5077,
      "IV": 5078,
      "aneurys": 5079,
      "##phosphate": 5080,
      "variation": 5081,
      "##zyme": 5082,
      "##infected": 5083,
      "dh": 5084,
      "##idase": 5085,
      "oct": 5086,
      "concept": 5087,
      "cam": 5088,
      "vector": 5089,
      "adjacent": 5090,
      "clar": 5091,
      "mill": 5092,
      "##ori": 5093,
      "labeling": 5094,
      "reflect": 5095,
      "ub": 5096,
      "shock": 5097,
      "invasion": 5098,
      "adequate": 5099,
      "delay": 5100,
      "occup": 5101,
      "growing": 5102,
      "intern": 5103,
      "mRNA": 5104,
      "WG": 5105,
      "chloride": 5106,
      "##oxic": 5107,
      "axis": 5108,
      "eu": 5109,
      "intrac": 5110,
      "##riers": 5111,
      "families": 5112,
      "##etized": 5113,
      "##ophren": 5114,
      "affects": 5115,
      "bc": 5116,
      "phosphatase": 5117,
      "separated": 5118,
      "fresh": 5119,
      "subunits": 5120,
      "assemb": 5121,
      "##brain": 5122,
      "degradation": 5123,
      "regulate": 5124,
      "pure": 5125,
      "ib": 5126,
      "traditional": 5127,
      "height": 5128,
      "catalytic": 5129,
      "arg": 5130,
      "##ariate": 5131,
      "DA": 5132,
      "##ilibr": 5133,
      "td": 5134,
      "##independent": 5135,
      "nd": 5136,
      "BC": 5137,
      "subcutaneous": 5138,
      "surfaces": 5139,
      "##isc": 5140,
      "mgl": 5141,
      "derm": 5142,
      "posts": 5143,
      "##ipl": 5144,
      "obtain": 5145,
      "subject": 5146,
      "mast": 5147,
      "ring": 5148,
      "##aphyl": 5149,
      "##otypic": 5150,
      "layers": 5151,
      "diastolic": 5152,
      "sul": 5153,
      "done": 5154,
      "schizophren": 5155,
      "completed": 5156,
      "TN": 5157,
      "##era": 5158,
      "transformation": 5159,
      "antibiotic": 5160,
      "attach": 5161,
      "restricted": 5162,
      "seizures": 5163,
      "polymerase": 5164,
      "acquired": 5165,
      "equivalent": 5166,
      "##but": 5167,
      "##axis": 5168,
      "mas": 5169,
      "lactate": 5170,
      "sv": 5171,
      "investigations": 5172,
      "##itory": 5173,
      "regular": 5174,
      "##tial": 5175,
      "cytotoxicity": 5176,
      "##xt": 5177,
      "##artic": 5178,
      "inactivation": 5179,
      "tc": 5180,
      "##iaz": 5181,
      "pediatric": 5182,
      "univers": 5183,
      "##isk": 5184,
      "cox": 5185,
      "opi": 5186,
      "considerable": 5187,
      "ak": 5188,
      "thereby": 5189,
      "VA": 5190,
      "##uses": 5191,
      "completely": 5192,
      "EA": 5193,
      "mental": 5194,
      "##ontin": 5195,
      "inhal": 5196,
      "crucial": 5197,
      "##onate": 5198,
      "doub": 5199,
      "OP": 5200,
      "##tisol": 5201,
      "serotonin": 5202,
      "glycos": 5203,
      "understand": 5204,
      "##uded": 5205,
      "circum": 5206,
      "##ament": 5207,
      "effectively": 5208,
      "determining": 5209,
      "dd": 5210,
      "##err": 5211,
      "immunoglob": 5212,
      "##elines": 5213,
      "##uting": 5214,
      "##oplast": 5215,
      "##oon": 5216,
      "sexual": 5217,
      "placed": 5218,
      "##iii": 5219,
      "##oring": 5220,
      "rar": 5221,
      "##oxyl": 5222,
      "biosynthesis": 5223,
      "glomerular": 5224,
      "##plc": 5225,
      "hypothesized": 5226,
      "trauma": 5227,
      "##ostasis": 5228,
      "##ineph": 5229,
      "coefficient": 5230,
      "demonstrates": 5231,
      "woman": 5232,
      "consisting": 5233,
      "achieve": 5234,
      "xen": 5235,
      "fixed": 5236,
      "eyes": 5237,
      "illness": 5238,
      "living": 5239,
      "supplementation": 5240,
      "cod": 5241,
      "somat": 5242,
      "elisa": 5243,
      "dependence": 5244,
      "vegf": 5245,
      "##agland": 5246,
      "diffuse": 5247,
      "##olarization": 5248,
      "thermal": 5249,
      "##down": 5250,
      "TS": 5251,
      "##sa": 5252,
      "peptides": 5253,
      "melanoma": 5254,
      "nr": 5255,
      "mum": 5256,
      "##imination": 5257,
      "##urine": 5258,
      "volunteers": 5259,
      "lac": 5260,
      "##enes": 5261,
      "ah": 5262,
      "##ameth": 5263,
      "pic": 5264,
      "depending": 5265,
      "##akes": 5266,
      "transgenic": 5267,
      "incubated": 5268,
      "phases": 5269,
      "identification": 5270,
      "autom": 5271,
      "tun": 5272,
      "subgroup": 5273,
      "gi": 5274,
      "##vision": 5275,
      "##water": 5276,
      "targeting": 5277,
      "deposition": 5278,
      "##phyl": 5279,
      "extracted": 5280,
      "gn": 5281,
      "##wide": 5282,
      "carbohydr": 5283,
      "fu": 5284,
      "nasal": 5285,
      "agonists": 5286,
      "gonad": 5287,
      "memory": 5288,
      "osc": 5289,
      "##letion": 5290,
      "kinetic": 5291,
      "portion": 5292,
      "caud": 5293,
      "clinic": 5294,
      "explore": 5295,
      "##iciently": 5296,
      "AGA": 5297,
      "chest": 5298,
      "substance": 5299,
      "##clin": 5300,
      "emission": 5301,
      "proved": 5302,
      "describes": 5303,
      "##fp": 5304,
      "##acetyl": 5305,
      "##agg": 5306,
      "reconstruction": 5307,
      "##eptive": 5308,
      "##actin": 5309,
      "tail": 5310,
      "##ensions": 5311,
      "ect": 5312,
      "##osing": 5313,
      "sham": 5314,
      "mmp": 5315,
      "##assay": 5316,
      "dram": 5317,
      "explained": 5318,
      "acetate": 5319,
      "display": 5320,
      "detailed": 5321,
      "##ades": 5322,
      "anomal": 5323,
      "tg": 5324,
      "regimen": 5325,
      "guidelines": 5326,
      "arm": 5327,
      "##atr": 5328,
      "episodes": 5329,
      "promote": 5330,
      "##ring": 5331,
      "documented": 5332,
      "transduc": 5333,
      "optical": 5334,
      "##idin": 5335,
      "slic": 5336,
      "##ories": 5337,
      "hormones": 5338,
      "##ectious": 5339,
      "nearly": 5340,
      "##ancies": 5341,
      "##oration": 5342,
      "strom": 5343,
      "##ued": 5344,
      "pet": 5345,
      "cns": 5346,
      "once": 5347,
      "matter": 5348,
      "hydrolysis": 5349,
      "##encephal": 5350,
      "varying": 5351,
      "HCs": 5352,
      "residue": 5353,
      "aggregation": 5354,
      "DM": 5355,
      "metastases": 5356,
      "personal": 5357,
      "gave": 5358,
      "distributed": 5359,
      "shape": 5360,
      "includes": 5361,
      "locus": 5362,
      "sf": 5363,
      "suspected": 5364,
      "augment": 5365,
      "fund": 5366,
      "volt": 5367,
      "temperatures": 5368,
      "permeability": 5369,
      "##ife": 5370,
      "ens": 5371,
      "zinc": 5372,
      "multiv": 5373,
      "##reh": 5374,
      "circulation": 5375,
      "testosterone": 5376,
      "##dominal": 5377,
      "progen": 5378,
      "repeat": 5379,
      "##erculosis": 5380,
      "absent": 5381,
      "deficits": 5382,
      "correspond": 5383,
      "cardiomy": 5384,
      "hap": 5385,
      "degeneration": 5386,
      "PSA": 5387,
      "aging": 5388,
      "eosin": 5389,
      "cycles": 5390,
      "angiography": 5391,
      "##electr": 5392,
      "oscill": 5393,
      "antibiotics": 5394,
      "graft": 5395,
      "medull": 5396,
      "lipids": 5397,
      "phenomenon": 5398,
      "angiotensin": 5399,
      "##ifications": 5400,
      "##ested": 5401,
      "##omers": 5402,
      "progesterone": 5403,
      "##hydr": 5404,
      "##ozygous": 5405,
      "outer": 5406,
      "targeted": 5407,
      "reduces": 5408,
      "pool": 5409,
      "carotid": 5410,
      "##opro": 5411,
      "##ton": 5412,
      "##ospor": 5413,
      "##entral": 5414,
      "trach": 5415,
      "carcinomas": 5416,
      "##iologic": 5417,
      "nonp": 5418,
      "cutaneous": 5419,
      "barrier": 5420,
      "discharge": 5421,
      "associations": 5422,
      "mucosal": 5423,
      "antagonists": 5424,
      "distance": 5425,
      "decl": 5426,
      "insp": 5427,
      "attributed": 5428,
      "adjus": 5429,
      "gs": 5430,
      "##opol": 5431,
      "dialysis": 5432,
      "susceptible": 5433,
      "viability": 5434,
      "cn": 5435,
      "overl": 5436,
      "##enia": 5437,
      "hcv": 5438,
      "##oe": 5439,
      "ulcer": 5440,
      "introduced": 5441,
      "biomark": 5442,
      "##omical": 5443,
      "fill": 5444,
      "appropriate": 5445,
      "noninvasive": 5446,
      "hdl": 5447,
      "absol": 5448,
      "bd": 5449,
      "hyd": 5450,
      "osm": 5451,
      "implantation": 5452,
      "##ounced": 5453,
      "autoimmune": 5454,
      "TG": 5455,
      "##ev": 5456,
      "evident": 5457,
      "disappear": 5458,
      "##igen": 5459,
      "nc": 5460,
      "eps": 5461,
      "inp": 5462,
      "capillary": 5463,
      "BS": 5464,
      "##ptomatic": 5465,
      "differentiated": 5466,
      "pros": 5467,
      "platelets": 5468,
      "depends": 5469,
      "technology": 5470,
      "##chlor": 5471,
      "mucosa": 5472,
      "prel": 5473,
      "immunohistochemical": 5474,
      "organisms": 5475,
      "##ips": 5476,
      "##affected": 5477,
      "lymphocyte": 5478,
      "spin": 5479,
      "arrh": 5480,
      "##lutin": 5481,
      "ran": 5482,
      "shor": 5483,
      "sequencing": 5484,
      "##wise": 5485,
      "##rosine": 5486,
      "##atig": 5487,
      "##alk": 5488,
      "amyloid": 5489,
      "##iatric": 5490,
      "rv": 5491,
      "gestation": 5492,
      "promin": 5493,
      "stead": 5494,
      "##imer": 5495,
      "km": 5496,
      "##ortun": 5497,
      "insuff": 5498,
      "lep": 5499,
      "##opa": 5500,
      "cold": 5501,
      "##dehyde": 5502,
      "PLT": 5503,
      "##draw": 5504,
      "coag": 5505,
      "cortisol": 5506,
      "causing": 5507,
      "questionnaire": 5508,
      "theory": 5509,
      "lowest": 5510,
      "feature": 5511,
      "##part": 5512,
      "direction": 5513,
      "begin": 5514,
      "continued": 5515,
      "heav": 5516,
      "greatly": 5517,
      "hams": 5518,
      "intrinsic": 5519,
      "ba": 5520,
      "T2": 5521,
      "##ements": 5522,
      "example": 5523,
      "##reath": 5524,
      "ck": 5525,
      "favor": 5526,
      "enzymatic": 5527,
      "##uvant": 5528,
      "nt": 5529,
      "intervention": 5530,
      "##lycerol": 5531,
      "gold": 5532,
      "FB": 5533,
      "pel": 5534,
      "prostagland": 5535,
      "twice": 5536,
      "curves": 5537,
      "particle": 5538,
      "compreh": 5539,
      "histamine": 5540,
      "pronounced": 5541,
      "exer": 5542,
      "dt": 5543,
      "retrospective": 5544,
      "reason": 5545,
      "immunohistochemistry": 5546,
      "##itch": 5547,
      "lp": 5548,
      "gli": 5549,
      "prophyl": 5550,
      "ages": 5551,
      "symptomatic": 5552,
      "##OS": 5553,
      "presenting": 5554,
      "medicine": 5555,
      "iod": 5556,
      "decreasing": 5557,
      "inn": 5558,
      "##mc": 5559,
      "shr": 5560,
      "emo": 5561,
      "FF": 5562,
      "##dna": 5563,
      "knee": 5564,
      "mitral": 5565,
      "benefits": 5566,
      "brom": 5567,
      "epit": 5568,
      "supported": 5569,
      "grown": 5570,
      "persons": 5571,
      "donors": 5572,
      "lang": 5573,
      "##robial": 5574,
      "sampling": 5575,
      "mis": 5576,
      "sheep": 5577,
      "movements": 5578,
      "HB": 5579,
      "bis": 5580,
      "parent": 5581,
      "raised": 5582,
      "reproductive": 5583,
      "belie": 5584,
      "metabolite": 5585,
      "quin": 5586,
      "programs": 5587,
      "atheros": 5588,
      "##usc": 5589,
      "instrum": 5590,
      "tumours": 5591,
      "doppler": 5592,
      "pkc": 5593,
      "lapa": 5594,
      "##eless": 5595,
      "contents": 5596,
      "counts": 5597,
      "##illus": 5598,
      "pent": 5599,
      "##quin": 5600,
      "hn": 5601,
      "ju": 5602,
      "binds": 5603,
      "##luor": 5604,
      "diminished": 5605,
      "dyst": 5606,
      "##tures": 5607,
      "##ontal": 5608,
      "bilateral": 5609,
      "crosslin": 5610,
      "stained": 5611,
      "count": 5612,
      "eeg": 5613,
      "ald": 5614,
      "echocardiography": 5615,
      "always": 5616,
      "independently": 5617,
      "gd": 5618,
      "##ention": 5619,
      "section": 5620,
      "assigned": 5621,
      "TE": 5622,
      "##inary": 5623,
      "rout": 5624,
      "whe": 5625,
      "conduct": 5626,
      "estimates": 5627,
      "##roun": 5628,
      "operation": 5629,
      "chond": 5630,
      "##opathic": 5631,
      "anaesth": 5632,
      "bri": 5633,
      "sig": 5634,
      "##ads": 5635,
      "address": 5636,
      "matched": 5637,
      "infectious": 5638,
      "serve": 5639,
      "correlate": 5640,
      "expans": 5641,
      "unilateral": 5642,
      "dispers": 5643,
      "arth": 5644,
      "MZ": 5645,
      "immediate": 5646,
      "scanning": 5647,
      "fatig": 5648,
      "oocytes": 5649,
      "##sin": 5650,
      "antimic": 5651,
      "##entical": 5652,
      "blockade": 5653,
      "belong": 5654,
      "attemp": 5655,
      "education": 5656,
      "atyp": 5657,
      "bic": 5658,
      "adenocarcin": 5659,
      "##olecular": 5660,
      "noc": 5661,
      "uterine": 5662,
      "cerebellar": 5663,
      "olfactory": 5664,
      "gamm": 5665,
      "what": 5666,
      "compens": 5667,
      "##resistant": 5668,
      "cats": 5669,
      "drin": 5670,
      "equilibr": 5671,
      "withdraw": 5672,
      "dry": 5673,
      "presents": 5674,
      "leaf": 5675,
      "isolation": 5676,
      "reperfusion": 5677,
      "##cribed": 5678,
      "phag": 5679,
      "epileps": 5680,
      "asymptomatic": 5681,
      "accept": 5682,
      "tryp": 5683,
      "clones": 5684,
      "fab": 5685,
      "##undred": 5686,
      "sensor": 5687,
      "intes": 5688,
      "##yle": 5689,
      "##omat": 5690,
      "pretreatment": 5691,
      "##inephrine": 5692,
      "maintain": 5693,
      "biochemical": 5694,
      "cut": 5695,
      "##rag": 5696,
      "##ainduced": 5697,
      "tension": 5698,
      "longitud": 5699,
      "immunos": 5700,
      "radiotherapy": 5701,
      "nmr": 5702,
      "##plants": 5703,
      "trim": 5704,
      "manifestations": 5705,
      "##uf": 5706,
      "sensiti": 5707,
      "date": 5708,
      "pairs": 5709,
      "eosinophil": 5710,
      "penetr": 5711,
      "intersti": 5712,
      "##omized": 5713,
      "extens": 5714,
      "lungs": 5715,
      "RII": 5716,
      "junction": 5717,
      "gir": 5718,
      "gender": 5719,
      "chains": 5720,
      "pert": 5721,
      "substances": 5722,
      "regulatory": 5723,
      "coupling": 5724,
      "HD": 5725,
      "##ril": 5726,
      "##gi": 5727,
      "unaffected": 5728,
      "cation": 5729,
      "shorter": 5730,
      "##iar": 5731,
      "wr": 5732,
      "upregulated": 5733,
      "absolute": 5734,
      "analyze": 5735,
      "precip": 5736,
      "zn": 5737,
      "portal": 5738,
      "remark": 5739,
      "regulating": 5740,
      "##ighted": 5741,
      "existence": 5742,
      "hearing": 5743,
      "arom": 5744,
      "ligands": 5745,
      "##ala": 5746,
      "antimicrobial": 5747,
      "##cn": 5748,
      "cyst": 5749,
      "prediction": 5750,
      "vasodil": 5751,
      "recipients": 5752,
      "biopsies": 5753,
      "polymorphism": 5754,
      "##otides": 5755,
      "facilitate": 5756,
      "VG": 5757,
      "fever": 5758,
      "##imb": 5759,
      "ammon": 5760,
      "scat": 5761,
      "consequences": 5762,
      "extremely": 5763,
      "##ietic": 5764,
      "##aria": 5765,
      "goal": 5766,
      "theore": 5767,
      "controlling": 5768,
      "apical": 5769,
      "##ocomp": 5770,
      "crystall": 5771,
      "##ni": 5772,
      "lacking": 5773,
      "##erence": 5774,
      "distinguish": 5775,
      "##alian": 5776,
      "ubiqu": 5777,
      "soci": 5778,
      "unus": 5779,
      "directed": 5780,
      "S9": 5781,
      "dissoci": 5782,
      "RC": 5783,
      "NF": 5784,
      "hence": 5785,
      "indices": 5786,
      "nerv": 5787,
      "##ophen": 5788,
      "##aken": 5789,
      "##plasia": 5790,
      "seas": 5791,
      "childhood": 5792,
      "analges": 5793,
      "adsorption": 5794,
      "advanced": 5795,
      "heavy": 5796,
      "flav": 5797,
      "neutrophils": 5798,
      "parad": 5799,
      "hypertensive": 5800,
      "vul": 5801,
      "##iod": 5802,
      "challeng": 5803,
      "stimulus": 5804,
      "limits": 5805,
      "##osyl": 5806,
      "hypertrophy": 5807,
      "bcl": 5808,
      "##lets": 5809,
      "interestingly": 5810,
      "##enal": 5811,
      "immunoflu": 5812,
      "conduction": 5813,
      "nico": 5814,
      "##bb": 5815,
      "minimum": 5816,
      "vessel": 5817,
      "venous": 5818,
      "injuries": 5819,
      "terminals": 5820,
      "spermat": 5821,
      "mening": 5822,
      "exclus": 5823,
      "coch": 5824,
      "influenz": 5825,
      "##omotor": 5826,
      "aure": 5827,
      "##csf": 5828,
      "yielded": 5829,
      "preced": 5830,
      "mostly": 5831,
      "contro": 5832,
      "transplant": 5833,
      "define": 5834,
      "selectively": 5835,
      "##certain": 5836,
      "proximal": 5837,
      "hsp": 5838,
      "recordings": 5839,
      "##inese": 5840,
      "dual": 5841,
      "loading": 5842,
      "advantage": 5843,
      "##tpcr": 5844,
      "currents": 5845,
      "itself": 5846,
      "intensive": 5847,
      "brief": 5848,
      "explored": 5849,
      "sedim": 5850,
      "##mal": 5851,
      "ABD": 5852,
      "green": 5853,
      "immunity": 5854,
      "au": 5855,
      "triglycer": 5856,
      "##ituitary": 5857,
      "interpret": 5858,
      "supr": 5859,
      "programm": 5860,
      "##imers": 5861,
      "hundred": 5862,
      "##uria": 5863,
      "exce": 5864,
      "tuberculosis": 5865,
      "sb": 5866,
      "##phase": 5867,
      "controvers": 5868,
      "refrac": 5869,
      "reductase": 5870,
      "contributes": 5871,
      "asymm": 5872,
      "presum": 5873,
      "amph": 5874,
      "stimulate": 5875,
      "SB": 5876,
      "students": 5877,
      "endometr": 5878,
      "gap": 5879,
      "##ah": 5880,
      "idi": 5881,
      "##dep": 5882,
      "Tc": 5883,
      "treating": 5884,
      "depth": 5885,
      "dendritic": 5886,
      "grafts": 5887,
      "VE": 5888,
      "ipsilateral": 5889,
      "stom": 5890,
      "cartil": 5891,
      "chinese": 5892,
      "aberr": 5893,
      "transcript": 5894,
      "crosss": 5895,
      "GP": 5896,
      "decision": 5897,
      "discre": 5898,
      "parts": 5899,
      "##jun": 5900,
      "hemoglobin": 5901,
      "obese": 5902,
      "divers": 5903,
      "##azine": 5904,
      "PB": 5905,
      "diverse": 5906,
      "generate": 5907,
      "##oli": 5908,
      "receive": 5909,
      "##pc": 5910,
      "salmon": 5911,
      "##adic": 5912,
      "vl": 5913,
      "##ayer": 5914,
      "kind": 5915,
      "mb": 5916,
      "arrhythm": 5917,
      "devi": 5918,
      "services": 5919,
      "undert": 5920,
      "excitatory": 5921,
      "##ester": 5922,
      "needs": 5923,
      "negatively": 5924,
      "prominent": 5925,
      "cluster": 5926,
      "sti": 5927,
      "##geal": 5928,
      "epilepsy": 5929,
      "flux": 5930,
      "producing": 5931,
      "##oplasty": 5932,
      "##hydroxy": 5933,
      "##anded": 5934,
      "differed": 5935,
      "##osity": 5936,
      "##eed": 5937,
      "search": 5938,
      "relapse": 5939,
      "restriction": 5940,
      "##ocortic": 5941,
      "ile": 5942,
      "making": 5943,
      "prelimin": 5944,
      "##oints": 5945,
      "upregulation": 5946,
      "##cale": 5947,
      "immobil": 5948,
      "NO": 5949,
      "error": 5950,
      "noise": 5951,
      "phenyl": 5952,
      "devices": 5953,
      "##edic": 5954,
      "dip": 5955,
      "renin": 5956,
      "alz": 5957,
      "##lastic": 5958,
      "##mg": 5959,
      "##orbed": 5960,
      "##alin": 5961,
      "breath": 5962,
      "aureus": 5963,
      "nonh": 5964,
      "dens": 5965,
      "sir": 5966,
      "variable": 5967,
      "ot": 5968,
      "##ascul": 5969,
      "leuc": 5970,
      "parameter": 5971,
      "##oded": 5972,
      "cavity": 5973,
      "algorithm": 5974,
      "hypothalamus": 5975,
      "##gu": 5976,
      "dental": 5977,
      "reversible": 5978,
      "normally": 5979,
      "united": 5980,
      "##unt": 5981,
      "illustr": 5982,
      "hor": 5983,
      "##romy": 5984,
      "availability": 5985,
      "##opoietic": 5986,
      "##ortical": 5987,
      "superoxide": 5988,
      "leth": 5989,
      "arti": 5990,
      "##vo": 5991,
      "contractions": 5992,
      "descrip": 5993,
      "bu": 5994,
      "##isph": 5995,
      "atrophy": 5996,
      "focused": 5997,
      "guinea": 5998,
      "##bound": 5999,
      "advantages": 6000,
      "enl": 6001,
      "acetylcholine": 6002,
      "translocation": 6003,
      "depart": 6004,
      "cloned": 6005,
      "validated": 6006,
      "produces": 6007,
      "antiinflammatory": 6008,
      "projections": 6009,
      "rn": 6010,
      "REF": 6011,
      "##ury": 6012,
      "activator": 6013,
      "extension": 6014,
      "minutes": 6015,
      "cirrh": 6016,
      "inhibiting": 6017,
      "MN": 6018,
      "surroun": 6019,
      "ventric": 6020,
      "cry": 6021,
      "cond": 6022,
      "corne": 6023,
      "consistently": 6024,
      "hemorrhage": 6025,
      "immunoglobulin": 6026,
      "tasks": 6027,
      "thrombosis": 6028,
      "##aryngeal": 6029,
      "abundant": 6030,
      "tn": 6031,
      "solvent": 6032,
      "bat": 6033,
      "fc": 6034,
      "cataly": 6035,
      "secreted": 6036,
      "preliminary": 6037,
      "staphyl": 6038,
      "anesthesia": 6039,
      "expansion": 6040,
      "cai": 6041,
      "occas": 6042,
      "##adily": 6043,
      "morphine": 6044,
      "##ophyl": 6045,
      "ultrastruct": 6046,
      "pump": 6047,
      "cytoplasm": 6048,
      "original": 6049,
      "adip": 6050,
      "crystal": 6051,
      "abdominal": 6052,
      "alzhe": 6053,
      "ET": 6054,
      "##aa": 6055,
      "agre": 6056,
      "si": 6057,
      "output": 6058,
      "##ime": 6059,
      "moth": 6060,
      "schizophrenia": 6061,
      "fibrill": 6062,
      "tubular": 6063,
      "concerning": 6064,
      "constructed": 6065,
      "##kins": 6066,
      "reference": 6067,
      "transcripts": 6068,
      "steps": 6069,
      "improving": 6070,
      "pathogen": 6071,
      "##omon": 6072,
      "pge": 6073,
      "nar": 6074,
      "afric": 6075,
      "BM": 6076,
      "gsh": 6077,
      "##rotic": 6078,
      "utilized": 6079,
      "##asing": 6080,
      "rhe": 6081,
      "standardi": 6082,
      "##uary": 6083,
      "fields": 6084,
      "etiology": 6085,
      "seed": 6086,
      "intestine": 6087,
      "subunit": 6088,
      "bw": 6089,
      "proton": 6090,
      "give": 6091,
      "creatinine": 6092,
      "catech": 6093,
      "subtypes": 6094,
      "manip": 6095,
      "longitudinal": 6096,
      "aorta": 6097,
      "see": 6098,
      "undertaken": 6099,
      "GM": 6100,
      "kb": 6101,
      "typically": 6102,
      "stere": 6103,
      "mell": 6104,
      "fing": 6105,
      "commercial": 6106,
      "depressed": 6107,
      "NE": 6108,
      "adaptation": 6109,
      "microscopic": 6110,
      "admitted": 6111,
      "healing": 6112,
      "spectral": 6113,
      "##hd": 6114,
      "placebo": 6115,
      "emergency": 6116,
      "acquis": 6117,
      "##tead": 6118,
      "tube": 6119,
      "aggressive": 6120,
      "GC": 6121,
      "referred": 6122,
      "thoracic": 6123,
      "##avi": 6124,
      "homeostasis": 6125,
      "hab": 6126,
      "oxidase": 6127,
      "##kapp": 6128,
      "identical": 6129,
      "interstitial": 6130,
      "resour": 6131,
      "fatigue": 6132,
      "diarrh": 6133,
      "##ulose": 6134,
      "saliv": 6135,
      "cul": 6136,
      "##ulates": 6137,
      "estradiol": 6138,
      "hplc": 6139,
      "LP": 6140,
      "robust": 6141,
      "feeding": 6142,
      "##ready": 6143,
      "cham": 6144,
      "GS": 6145,
      "##vical": 6146,
      "risks": 6147,
      "##methyl": 6148,
      "acth": 6149,
      "igm": 6150,
      "surrounding": 6151,
      "##ocys": 6152,
      "already": 6153,
      "##ysaccharide": 6154,
      "##vents": 6155,
      "##orescent": 6156,
      "multic": 6157,
      "unf": 6158,
      "depos": 6159,
      "issues": 6160,
      "bow": 6161,
      "enrich": 6162,
      "neurotrans": 6163,
      "##au": 6164,
      "contamin": 6165,
      "synerg": 6166,
      "working": 6167,
      "assessing": 6168,
      "taking": 6169,
      "knock": 6170,
      "SI": 6171,
      "candidate": 6172,
      "speed": 6173,
      "easily": 6174,
      "BG": 6175,
      "charge": 6176,
      "TB": 6177,
      "electroc": 6178,
      "MV": 6179,
      "true": 6180,
      "constitu": 6181,
      "##romes": 6182,
      "lute": 6183,
      "CI": 6184,
      "medication": 6185,
      "initiated": 6186,
      "fracture": 6187,
      "phyt": 6188,
      "immunological": 6189,
      "intraper": 6190,
      "apparently": 6191,
      "##apped": 6192,
      "adjust": 6193,
      "consequence": 6194,
      "histologic": 6195,
      "ras": 6196,
      "OC": 6197,
      "cx": 6198,
      "surge": 6199,
      "plasmid": 6200,
      "atypical": 6201,
      "loop": 6202,
      "consists": 6203,
      "##izations": 6204,
      "nn": 6205,
      "##cap": 6206,
      "physicians": 6207,
      "wash": 6208,
      "vp": 6209,
      "peritoneal": 6210,
      "entry": 6211,
      "assembly": 6212,
      "##carb": 6213,
      "activate": 6214,
      "summar": 6215,
      "##antib": 6216,
      "electrode": 6217,
      "NM": 6218,
      "sac": 6219,
      "wat": 6220,
      "uncom": 6221,
      "inges": 6222,
      "##amination": 6223,
      "white": 6224,
      "called": 6225,
      "deaths": 6226,
      "##apses": 6227,
      "mono": 6228,
      "phyl": 6229,
      "##osome": 6230,
      "modulate": 6231,
      "american": 6232,
      "##blast": 6233,
      "erythrocytes": 6234,
      "disruption": 6235,
      "isoforms": 6236,
      "involve": 6237,
      "infiltration": 6238,
      "nervous": 6239,
      "kidneys": 6240,
      "immunoreactive": 6241,
      "##ilities": 6242,
      "mhc": 6243,
      "androgen": 6244,
      "##lip": 6245,
      "heterogeneous": 6246,
      "rup": 6247,
      "integrated": 6248,
      "##benz": 6249,
      "fore": 6250,
      "##ilic": 6251,
      "rarely": 6252,
      "filtration": 6253,
      "motility": 6254,
      "influences": 6255,
      "ls": 6256,
      "infant": 6257,
      "##trin": 6258,
      "synchron": 6259,
      "substantially": 6260,
      "foot": 6261,
      "combinations": 6262,
      "thirty": 6263,
      "immuno": 6264,
      "ES": 6265,
      "lost": 6266,
      "##oidal": 6267,
      "europ": 6268,
      "##asone": 6269,
      "interact": 6270,
      "##erate": 6271,
      "behaviors": 6272,
      "mellitus": 6273,
      "cef": 6274,
      "##yte": 6275,
      "nos": 6276,
      "potency": 6277,
      "##acranial": 6278,
      "##ems": 6279,
      "hydrophobic": 6280,
      "FR": 6281,
      "miss": 6282,
      "protease": 6283,
      "metall": 6284,
      "beginning": 6285,
      "mutagen": 6286,
      "responsiveness": 6287,
      "##rod": 6288,
      "##uch": 6289,
      "tur": 6290,
      "volumes": 6291,
      "precise": 6292,
      "premature": 6293,
      "##50": 6294,
      "##amous": 6295,
      "##clinical": 6296,
      "extraction": 6297,
      "cum": 6298,
      "##thern": 6299,
      "dosage": 6300,
      "anatomical": 6301,
      "lumb": 6302,
      "crosssection": 6303,
      "##uous": 6304,
      "concern": 6305,
      "peroxidase": 6306,
      "unusual": 6307,
      "angle": 6308,
      "ppm": 6309,
      "reductions": 6310,
      "##ifying": 6311,
      "admission": 6312,
      "UT": 6313,
      "pathogens": 6314,
      "##fc": 6315,
      "afferent": 6316,
      "pancreas": 6317,
      "refractory": 6318,
      "ICM": 6319,
      "copper": 6320,
      "mer": 6321,
      "blue": 6322,
      "nmol": 6323,
      "classes": 6324,
      "##opress": 6325,
      "edema": 6326,
      "principal": 6327,
      "traits": 6328,
      "solub": 6329,
      "##vs": 6330,
      "acquisition": 6331,
      "plastic": 6332,
      "recruit": 6333,
      "epidermal": 6334,
      "clusters": 6335,
      "lobe": 6336,
      "meal": 6337,
      "egg": 6338,
      "inher": 6339,
      "qualit": 6340,
      "nanop": 6341,
      "tgfbeta": 6342,
      "VH": 6343,
      "##lusions": 6344,
      "sple": 6345,
      "concurr": 6346,
      "evaluating": 6347,
      "ni": 6348,
      "identifying": 6349,
      "utilization": 6350,
      "albumin": 6351,
      "##adian": 6352,
      "mothers": 6353,
      "##iae": 6354,
      "sched": 6355,
      "##ofil": 6356,
      "endocrine": 6357,
      "deform": 6358,
      "adjuvant": 6359,
      "##onstric": 6360,
      "##inter": 6361,
      "##amycin": 6362,
      "##edimensional": 6363,
      "sclerosis": 6364,
      "ball": 6365,
      "##ometh": 6366,
      "##ocin": 6367,
      "subset": 6368,
      "microbial": 6369,
      "introduction": 6370,
      "compression": 6371,
      "next": 6372,
      "rtpcr": 6373,
      "multid": 6374,
      "nonspecific": 6375,
      "##factor": 6376,
      "##alact": 6377,
      "preventing": 6378,
      "ly": 6379,
      "rabbit": 6380,
      "existing": 6381,
      "##isp": 6382,
      "acts": 6383,
      "mi": 6384,
      "homogene": 6385,
      "remission": 6386,
      "##iance": 6387,
      "mapping": 6388,
      "##ubation": 6389,
      "pyl": 6390,
      "vacc": 6391,
      "##requency": 6392,
      "##anese": 6393,
      "international": 6394,
      "tor": 6395,
      "pren": 6396,
      "patch": 6397,
      "##acks": 6398,
      "delivered": 6399,
      "neurode": 6400,
      "infiltr": 6401,
      "neuron": 6402,
      "cervical": 6403,
      "regeneration": 6404,
      "aud": 6405,
      "##pir": 6406,
      "instead": 6407,
      "contractile": 6408,
      "downstream": 6409,
      "responded": 6410,
      "##opes": 6411,
      "##adr": 6412,
      "##ember": 6413,
      "lens": 6414,
      "carbohydrate": 6415,
      "Al": 6416,
      "##thritis": 6417,
      "fal": 6418,
      "detecting": 6419,
      "mediate": 6420,
      "persist": 6421,
      "younger": 6422,
      "tools": 6423,
      "##rp": 6424,
      "arteri": 6425,
      "##risk": 6426,
      "coding": 6427,
      "mor": 6428,
      "pil": 6429,
      "intrav": 6430,
      "lectin": 6431,
      "##ticular": 6432,
      "restored": 6433,
      "##ograms": 6434,
      "pressures": 6435,
      "embol": 6436,
      "##ley": 6437,
      "##get": 6438,
      "phenotypes": 6439,
      "glomerul": 6440,
      "##oresis": 6441,
      "##bre": 6442,
      "tib": 6443,
      "hpv": 6444,
      "##ocular": 6445,
      "virul": 6446,
      "waste": 6447,
      "fusion": 6448,
      "##bi": 6449,
      "infr": 6450,
      "porcine": 6451,
      "postm": 6452,
      "cartilage": 6453,
      "##olym": 6454,
      "##oplasmic": 6455,
      "valuable": 6456,
      "##train": 6457,
      "networks": 6458,
      "fixation": 6459,
      "quantified": 6460,
      "##platin": 6461,
      "comprehensive": 6462,
      "cochle": 6463,
      "##rotective": 6464,
      "psychiatric": 6465,
      "ischemic": 6466,
      "buffer": 6467,
      "interferon": 6468,
      "elucidate": 6469,
      "equilibrium": 6470,
      "regardless": 6471,
      "adduc": 6472,
      "pall": 6473,
      "mmoll": 6474,
      "decomp": 6475,
      "costs": 6476,
      "positions": 6477,
      "turnover": 6478,
      "microgl": 6479,
      "inducing": 6480,
      "mab": 6481,
      "enlarg": 6482,
      "percutaneous": 6483,
      "sds": 6484,
      "##containing": 6485,
      "##bility": 6486,
      "##ygd": 6487,
      "opportun": 6488,
      "##ped": 6489,
      "OB": 6490,
      "bands": 6491,
      "hol": 6492,
      "probes": 6493,
      "seizure": 6494,
      "noradren": 6495,
      "polypeptide": 6496,
      "vaccination": 6497,
      "##point": 6498,
      "monocytes": 6499,
      "workers": 6500,
      "": 6501,
      "derivative": 6502,
      "##astom": 6503,
      "##lig": 6504,
      "interface": 6505,
      "vascul": 6506,
      "facial": 6507,
      "##apt": 6508,
      "comparative": 6509,
      "immunofluorescence": 6510,
      "namely": 6511,
      "qt": 6512,
      "follows": 6513,
      "demonstrating": 6514,
      "glutamate": 6515,
      "M1": 6516,
      "tach": 6517,
      "endoscopic": 6518,
      "fasting": 6519,
      "probability": 6520,
      "atherosclerosis": 6521,
      "deficient": 6522,
      "blocking": 6523,
      "slices": 6524,
      "##oconstric": 6525,
      "##oxygenase": 6526,
      "intens": 6527,
      "virt": 6528,
      "onto": 6529,
      "uniform": 6530,
      "advances": 6531,
      "variance": 6532,
      "passive": 6533,
      "IL": 6534,
      "##ontrolled": 6535,
      "exists": 6536,
      "##enchymal": 6537,
      "##cent": 6538,
      "##ancer": 6539,
      "cystic": 6540,
      "sho": 6541,
      "alteration": 6542,
      "fractures": 6543,
      "reh": 6544,
      "dic": 6545,
      "embryo": 6546,
      "##erior": 6547,
      "##tumor": 6548,
      "withdrawal": 6549,
      "max": 6550,
      "arrest": 6551,
      "substitution": 6552,
      "rhythm": 6553,
      "respective": 6554,
      "##land": 6555,
      "IMT": 6556,
      "cytosolic": 6557,
      "regimens": 6558,
      "injections": 6559,
      "careful": 6560,
      "cil": 6561,
      "##hic": 6562,
      "proliferative": 6563,
      "phosphatidyl": 6564,
      "profession": 6565,
      "poll": 6566,
      "incre": 6567,
      "correction": 6568,
      "analytical": 6569,
      "prosth": 6570,
      "sud": 6571,
      "serial": 6572,
      "emphas": 6573,
      "heterogeneity": 6574,
      "DS": 6575,
      "##mt": 6576,
      "##ellum": 6577,
      "urea": 6578,
      "mh": 6579,
      "##rele": 6580,
      "pathogenic": 6581,
      "##ifer": 6582,
      "increasingly": 6583,
      "readily": 6584,
      "quantification": 6585,
      "##oscopy": 6586,
      "ocular": 6587,
      "IA": 6588,
      "##odial": 6589,
      "somatic": 6590,
      "microc": 6591,
      "fsh": 6592,
      "operative": 6593,
      "sets": 6594,
      "##elect": 6595,
      "WB": 6596,
      "##xin": 6597,
      "hypers": 6598,
      "consequently": 6599,
      "TH": 6600,
      "##pread": 6601,
      "##atile": 6602,
      "##tub": 6603,
      "greatest": 6604,
      "fewer": 6605,
      "##ners": 6606,
      "downregulation": 6607,
      "##care": 6608,
      "identi": 6609,
      "encoun": 6610,
      "fre": 6611,
      "tended": 6612,
      "prostaglandin": 6613,
      "##itions": 6614,
      "amplification": 6615,
      "gall": 6616,
      "narrow": 6617,
      "digestion": 6618,
      "faster": 6619,
      "vesti": 6620,
      "regulates": 6621,
      "squamous": 6622,
      "threedimensional": 6623,
      "isot": 6624,
      "weights": 6625,
      "member": 6626,
      "wides": 6627,
      "follicular": 6628,
      "rf": 6629,
      "requirements": 6630,
      "variability": 6631,
      "IR": 6632,
      "dark": 6633,
      "emg": 6634,
      "europe": 6635,
      "inclusion": 6636,
      "##ele": 6637,
      "LI": 6638,
      "leak": 6639,
      "sound": 6640,
      "centers": 6641,
      "integrity": 6642,
      "psychological": 6643,
      "drinking": 6644,
      "##amil": 6645,
      "diversity": 6646,
      "##usive": 6647,
      "TD": 6648,
      "adop": 6649,
      "crosssectional": 6650,
      "acetyl": 6651,
      "macrophage": 6652,
      "##adh": 6653,
      "erk": 6654,
      "theoretical": 6655,
      "amygd": 6656,
      "ki": 6657,
      "loci": 6658,
      "ones": 6659,
      "adenocarcinoma": 6660,
      "##elective": 6661,
      "complicated": 6662,
      "##omorph": 6663,
      "determin": 6664,
      "implanted": 6665,
      "optic": 6666,
      "cisplatin": 6667,
      "biliary": 6668,
      "diver": 6669,
      "summary": 6670,
      "MB": 6671,
      "##ette": 6672,
      "pes": 6673,
      "LS": 6674,
      "selectivity": 6675,
      "cattle": 6676,
      "##O2": 6677,
      "##opressin": 6678,
      "AH": 6679,
      "monkeys": 6680,
      "##alities": 6681,
      "idiopathic": 6682,
      "widespread": 6683,
      "aims": 6684,
      "exclusively": 6685,
      "##dm": 6686,
      "ejection": 6687,
      "##eb": 6688,
      "adolescents": 6689,
      "adjusted": 6690,
      "examinations": 6691,
      "antiv": 6692,
      "##epinephrine": 6693,
      "##anin": 6694,
      "##raf": 6695,
      "soy": 6696,
      "pituitary": 6697,
      "gut": 6698,
      "##elet": 6699,
      "polymorphisms": 6700,
      "ecg": 6701,
      "dimethyl": 6702,
      "systematic": 6703,
      "##tidine": 6704,
      "posttrans": 6705,
      "##weight": 6706,
      "mess": 6707,
      "requiring": 6708,
      "modifications": 6709,
      "mammalian": 6710,
      "sulph": 6711,
      "hemisph": 6712,
      "limitations": 6713,
      "starting": 6714,
      "artificial": 6715,
      "attenuated": 6716,
      "coagulation": 6717,
      "preparations": 6718,
      "excitation": 6719,
      "##ostatin": 6720,
      "##itect": 6721,
      "live": 6722,
      "tone": 6723,
      "##azol": 6724,
      "odds": 6725,
      "dissociation": 6726,
      "tyrosine": 6727,
      "nmda": 6728,
      "B6": 6729,
      "##ectors": 6730,
      "deterior": 6731,
      "obstructive": 6732,
      "##produc": 6733,
      "estimation": 6734,
      "orientation": 6735,
      "casp": 6736,
      "##icardi": 6737,
      "incorporated": 6738,
      "bey": 6739,
      "##ograft": 6740,
      "##ropathy": 6741,
      "##ropl": 6742,
      "stret": 6743,
      "nacl": 6744,
      "leaves": 6745,
      "project": 6746,
      "unlike": 6747,
      "atom": 6748,
      "##amethasone": 6749,
      "splic": 6750,
      "fram": 6751,
      "##veolar": 6752,
      "perman": 6753,
      "former": 6754,
      "beyond": 6755,
      "addi": 6756,
      "anastom": 6757,
      "ethyl": 6758,
      "multivariate": 6759,
      "anaer": 6760,
      "indicator": 6761,
      "supports": 6762,
      "considerably": 6763,
      "thyro": 6764,
      "autonomic": 6765,
      "##negative": 6766,
      "hcc": 6767,
      "chromosomal": 6768,
      "proven": 6769,
      "efficiently": 6770,
      "mobility": 6771,
      "Tx": 6772,
      "thrombin": 6773,
      "supply": 6774,
      "##ocr": 6775,
      "##ician": 6776,
      "##icients": 6777,
      "reticulum": 6778,
      "allowing": 6779,
      "libr": 6780,
      "skill": 6781,
      "##azep": 6782,
      "hard": 6783,
      "dich": 6784,
      "sequential": 6785,
      "cac": 6786,
      "attr": 6787,
      "##cious": 6788,
      "igfi": 6789,
      "alzheimers": 6790,
      "trp": 6791,
      "##iking": 6792,
      "pip": 6793,
      "##va": 6794,
      "catechol": 6795,
      "##ositol": 6796,
      "##ica": 6797,
      "##arter": 6798,
      "translation": 6799,
      "coefficients": 6800,
      "##la": 6801,
      "transm": 6802,
      "ICA": 6803,
      "##oceptor": 6804,
      "blast": 6805,
      "stomach": 6806,
      "japanese": 6807,
      "chromosomes": 6808,
      "alleles": 6809,
      "yr": 6810,
      "retina": 6811,
      "methylation": 6812,
      "surviv": 6813,
      "##ropyl": 6814,
      "follicles": 6815,
      "black": 6816,
      "destruc": 6817,
      "gnrh": 6818,
      "department": 6819,
      "##ensus": 6820,
      "vacu": 6821,
      "gradually": 6822,
      "##cence": 6823,
      "bleeding": 6824,
      "##thromb": 6825,
      "transporter": 6826,
      "start": 6827,
      "##atible": 6828,
      "##ococcal": 6829,
      "##ba": 6830,
      "##iminated": 6831,
      "Th1": 6832,
      "bowel": 6833,
      "orally": 6834,
      "intracranial": 6835,
      "outs": 6836,
      "similarity": 6837,
      "bmi": 6838,
      "university": 6839,
      "##back": 6840,
      "iga": 6841,
      "simulations": 6842,
      "supplemented": 6843,
      "pin": 6844,
      "ablation": 6845,
      "##omeric": 6846,
      "glucocortic": 6847,
      "myocardium": 6848,
      "communication": 6849,
      "##itals": 6850,
      "bf": 6851,
      "herein": 6852,
      "gy": 6853,
      "insight": 6854,
      "inactive": 6855,
      "hors": 6856,
      "plate": 6857,
      "##abilities": 6858,
      "protocols": 6859,
      "engine": 6860,
      "pathophysiology": 6861,
      "improvements": 6862,
      "reag": 6863,
      "pigment": 6864,
      "recommendations": 6865,
      "##zard": 6866,
      "##matic": 6867,
      "retard": 6868,
      "interview": 6869,
      "spor": 6870,
      "recruitment": 6871,
      "##blind": 6872,
      "dye": 6873,
      "aids": 6874,
      "##rox": 6875,
      "generalized": 6876,
      "##aemic": 6877,
      "pref": 6878,
      "diffusion": 6879,
      "monol": 6880,
      "utility": 6881,
      "influenza": 6882,
      "draw": 6883,
      "rig": 6884,
      "competitive": 6885,
      "efflux": 6886,
      "##athyroid": 6887,
      "##icular": 6888,
      "reliability": 6889,
      "lm": 6890,
      "murine": 6891,
      "predictors": 6892,
      "indications": 6893,
      "NA": 6894,
      "supporting": 6895,
      "collection": 6896,
      "##rown": 6897,
      "cyan": 6898,
      "pup": 6899,
      "##iol": 6900,
      "##nat": 6901,
      "##mut": 6902,
      "mlmin": 6903,
      "ank": 6904,
      "##otes": 6905,
      "norepinephrine": 6906,
      "LM": 6907,
      "##olum": 6908,
      "##ycardi": 6909,
      "cocaine": 6910,
      "MT": 6911,
      "aid": 6912,
      "esophageal": 6913,
      "tight": 6914,
      "##atpase": 6915,
      "##abin": 6916,
      "##elike": 6917,
      "issue": 6918,
      "retained": 6919,
      "##oluble": 6920,
      "carrier": 6921,
      "##otoxic": 6922,
      "##times": 6923,
      "conditioning": 6924,
      "options": 6925,
      "PIT": 6926,
      "vo": 6927,
      "take": 6928,
      "abundance": 6929,
      "betac": 6930,
      "##kappab": 6931,
      "##bm": 6932,
      "mgdl": 6933,
      "integration": 6934,
      "DW": 6935,
      "nig": 6936,
      "##obut": 6937,
      "sca": 6938,
      "bed": 6939,
      "acidic": 6940,
      "interference": 6941,
      "discontin": 6942,
      "halfl": 6943,
      "##inase": 6944,
      "##arp": 6945,
      "uncertain": 6946,
      "drain": 6947,
      "##angement": 6948,
      "backg": 6949,
      "fatal": 6950,
      "##erating": 6951,
      "##ulative": 6952,
      "RL": 6953,
      "##edependent": 6954,
      "route": 6955,
      "returned": 6956,
      "dox": 6957,
      "syndromes": 6958,
      "maintaining": 6959,
      "EC50": 6960,
      "speech": 6961,
      "bund": 6962,
      "jud": 6963,
      "scaff": 6964,
      "ground": 6965,
      "##oxacin": 6966,
      "film": 6967,
      "aneurysm": 6968,
      "axonal": 6969,
      "hind": 6970,
      "##usal": 6971,
      "##ectomized": 6972,
      "scal": 6973,
      "##nic": 6974,
      "##eck": 6975,
      "stromal": 6976,
      "jan": 6977,
      "##ought": 6978,
      "cerebellum": 6979,
      "##olus": 6980,
      "##enter": 6981,
      "##oster": 6982,
      "formulation": 6983,
      "simulated": 6984,
      "minute": 6985,
      "LDV": 6986,
      "merc": 6987,
      "electronic": 6988,
      "confer": 6989,
      "extended": 6990,
      "necrosis": 6991,
      "##bac": 6992,
      "##imp": 6993,
      "##chem": 6994,
      "propr": 6995,
      "stat": 6996,
      "spleen": 6997,
      "##dt": 6998,
      "chor": 6999,
      "sed": 7000,
      "anemia": 7001,
      "disability": 7002,
      "##ibration": 7003,
      "vesicles": 7004,
      "face": 7005,
      "om": 7006,
      "##pyr": 7007,
      "tsh": 7008,
      "##nis": 7009,
      "anth": 7010,
      "##anal": 7011,
      "considering": 7012,
      "##ensis": 7013,
      "simulation": 7014,
      "standardized": 7015,
      "trop": 7016,
      "##acryl": 7017,
      "muscular": 7018,
      "microgramsml": 7019,
      "fibrillation": 7020,
      "correlates": 7021,
      "nutritional": 7022,
      "##uctu": 7023,
      "overc": 7024,
      "vehic": 7025,
      "caudal": 7026,
      "mimic": 7027,
      "laparoscopic": 7028,
      "AQ": 7029,
      "autologous": 7030,
      "identity": 7031,
      "repeti": 7032,
      "##ears": 7033,
      "validity": 7034,
      "malignancy": 7035,
      "¥": 7036,
      "config": 7037,
      "EN": 7038,
      "modeling": 7039,
      "recru": 7040,
      "represented": 7041,
      "##SA": 7042,
      "reinf": 7043,
      "composite": 7044,
      "finger": 7045,
      "DH": 7046,
      "lumbar": 7047,
      "malform": 7048,
      "relaxation": 7049,
      "rehabil": 7050,
      "constants": 7051,
      "challenges": 7052,
      "chromatin": 7053,
      "calculations": 7054,
      "carriers": 7055,
      "##onuclear": 7056,
      "swelling": 7057,
      "postoperatively": 7058,
      "##ystate": 7059,
      "sepsis": 7060,
      "##avirus": 7061,
      "##aments": 7062,
      "conformation": 7063,
      "tex": 7064,
      "##acyl": 7065,
      "##tes": 7066,
      "fluctu": 7067,
      "sought": 7068,
      "hepatitis": 7069,
      "just": 7070,
      "##lam": 7071,
      "hyperp": 7072,
      "histopathological": 7073,
      "##odialysis": 7074,
      "##asp": 7075,
      "FI": 7076,
      "langu": 7077,
      "##aped": 7078,
      "started": 7079,
      "##acycl": 7080,
      "vaccines": 7081,
      "emph": 7082,
      "##roz": 7083,
      "##ffe": 7084,
      "excision": 7085,
      "ultrason": 7086,
      "##illance": 7087,
      "##ologists": 7088,
      "immunod": 7089,
      "emotional": 7090,
      "elong": 7091,
      "rc": 7092,
      "##eted": 7093,
      "GT": 7094,
      "ventral": 7095,
      "placent": 7096,
      "partly": 7097,
      "fist": 7098,
      "ionic": 7099,
      "##mitt": 7100,
      "excessive": 7101,
      "nanopartic": 7102,
      "coinc": 7103,
      "conductance": 7104,
      "##glut": 7105,
      "mach": 7106,
      "irr": 7107,
      "school": 7108,
      "tf": 7109,
      "dendr": 7110,
      "##the": 7111,
      "severely": 7112,
      "anesthetized": 7113,
      "##erin": 7114,
      "records": 7115,
      "perfused": 7116,
      "##queous": 7117,
      "##iffer": 7118,
      "##opl": 7119,
      "trip": 7120,
      "##tress": 7121,
      "##phthal": 7122,
      "wal": 7123,
      "phospholipid": 7124,
      "nursing": 7125,
      "birds": 7126,
      "pelvic": 7127,
      "reading": 7128,
      "HIV": 7129,
      "##inine": 7130,
      "opioid": 7131,
      "polic": 7132,
      "marg": 7133,
      "compliance": 7134,
      "accelerated": 7135,
      "sudden": 7136,
      "##empor": 7137,
      "sevent": 7138,
      "ganglion": 7139,
      "interc": 7140,
      "suffering": 7141,
      "viable": 7142,
      "immature": 7143,
      "gestational": 7144,
      "perox": 7145,
      "angiogenesis": 7146,
      "36": 7147,
      "worldwide": 7148,
      "##embr": 7149,
      "pharmacokinetic": 7150,
      "transfected": 7151,
      "hh": 7152,
      "perce": 7153,
      "occasion": 7154,
      "##cy": 7155,
      "##pi": 7156,
      "##icking": 7157,
      "unl": 7158,
      "mann": 7159,
      "precursors": 7160,
      "endothelium": 7161,
      "phosphorylated": 7162,
      "genotypes": 7163,
      "neverth": 7164,
      "##omonas": 7165,
      "##ectable": 7166,
      "sg": 7167,
      "fertil": 7168,
      "ai": 7169,
      "spontaneously": 7170,
      "extra": 7171,
      "extend": 7172,
      "nevertheless": 7173,
      "##mb": 7174,
      "##olateral": 7175,
      "##uretic": 7176,
      "##vance": 7177,
      "cla": 7178,
      "studying": 7179,
      "isolate": 7180,
      "##estions": 7181,
      "SCV": 7182,
      "##terase": 7183,
      "acyl": 7184,
      "immunization": 7185,
      "practical": 7186,
      "closed": 7187,
      "films": 7188,
      "efforts": 7189,
      "regulator": 7190,
      "biomarkers": 7191,
      "stop": 7192,
      "untreated": 7193,
      "##nea": 7194,
      "##rocyte": 7195,
      "LE": 7196,
      "predicting": 7197,
      "incompl": 7198,
      "opposite": 7199,
      "pacing": 7200,
      "stiff": 7201,
      "oes": 7202,
      "mrnas": 7203,
      "unrelated": 7204,
      "surveillance": 7205,
      "##itic": 7206,
      "chicken": 7207,
      "improves": 7208,
      "##specific": 7209,
      "rearr": 7210,
      "cirrhosis": 7211,
      "bcell": 7212,
      "##CE": 7213,
      "septal": 7214,
      "enrolled": 7215,
      "glial": 7216,
      "##urally": 7217,
      "closure": 7218,
      "singl": 7219,
      "##ese": 7220,
      "antitumor": 7221,
      "sediment": 7222,
      "consensus": 7223,
      "LR": 7224,
      "##deficient": 7225,
      "functionally": 7226,
      "aml": 7227,
      "phenotypic": 7228,
      "##going": 7229,
      "evid": 7230,
      "##DNA": 7231,
      "##ana": 7232,
      "acting": 7233,
      "relevance": 7234,
      "familial": 7235,
      "saturation": 7236,
      "##erents": 7237,
      "steadystate": 7238,
      "AV": 7239,
      "##vice": 7240,
      "fgf": 7241,
      "##ptic": 7242,
      "delt": 7243,
      "hla": 7244,
      "##otoxicity": 7245,
      "electrodes": 7246,
      "leukemia": 7247,
      "##ires": 7248,
      "determinants": 7249,
      "bh": 7250,
      "##nia": 7251,
      "##ophilic": 7252,
      "optimized": 7253,
      "##ded": 7254,
      "##frequency": 7255,
      "subp": 7256,
      "lesser": 7257,
      "electrocardi": 7258,
      "vasopressin": 7259,
      "##etreated": 7260,
      "placental": 7261,
      "redox": 7262,
      "suppressor": 7263,
      "compartment": 7264,
      "homology": 7265,
      "rating": 7266,
      "##orp": 7267,
      "rich": 7268,
      "##titis": 7269,
      "mammary": 7270,
      "nadph": 7271,
      "auditory": 7272,
      "pu": 7273,
      "plasmin": 7274,
      "hospitals": 7275,
      "dexamethasone": 7276,
      "##ani": 7277,
      "hormonal": 7278,
      "nond": 7279,
      "homolog": 7280,
      "pathologic": 7281,
      "comput": 7282,
      "##alling": 7283,
      "interpretation": 7284,
      "##igm": 7285,
      "own": 7286,
      "agreement": 7287,
      "ath": 7288,
      "ster": 7289,
      "guan": 7290,
      "perception": 7291,
      "hapl": 7292,
      "protect": 7293,
      "RD": 7294,
      "fluorescent": 7295,
      "##bet": 7296,
      "tpa": 7297,
      "ef": 7298,
      "representing": 7299,
      "##ocon": 7300,
      "firing": 7301,
      "array": 7302,
      "##atation": 7303,
      "encoded": 7304,
      "disturbances": 7305,
      "hazard": 7306,
      "conscious": 7307,
      "##ronectin": 7308,
      "feasibility": 7309,
      "favorable": 7310,
      "##oderm": 7311,
      "vasoconstric": 7312,
      "##iasis": 7313,
      "burden": 7314,
      "fs": 7315,
      "##bd": 7316,
      "HPC": 7317,
      "##ematic": 7318,
      "calves": 7319,
      "trac": 7320,
      "attempt": 7321,
      "AO": 7322,
      "##ister": 7323,
      "##atonin": 7324,
      "discrimin": 7325,
      "clarify": 7326,
      "comprom": 7327,
      "genetically": 7328,
      "##gamma": 7329,
      "circadian": 7330,
      "questions": 7331,
      "cysteine": 7332,
      "parents": 7333,
      "projection": 7334,
      "declined": 7335,
      "duod": 7336,
      "adherence": 7337,
      "neurodegen": 7338,
      "exact": 7339,
      "dissection": 7340,
      "offers": 7341,
      "accounted": 7342,
      "##acking": 7343,
      "##eded": 7344,
      "astrocytes": 7345,
      "differentiate": 7346,
      "resemb": 7347,
      "##linear": 7348,
      "##hion": 7349,
      "D2": 7350,
      "synapses": 7351,
      "Pr": 7352,
      "motif": 7353,
      "yields": 7354,
      "##osteroid": 7355,
      "je": 7356,
      "excluded": 7357,
      "cros": 7358,
      "allergic": 7359,
      "reflected": 7360,
      "ultim": 7361,
      "veget": 7362,
      "deficit": 7363,
      "fd": 7364,
      "##neur": 7365,
      "processed": 7366,
      "obvious": 7367,
      "purification": 7368,
      "lymphoid": 7369,
      "inputs": 7370,
      "mf": 7371,
      "kinases": 7372,
      "FE": 7373,
      "experimentally": 7374,
      "FS": 7375,
      "##otal": 7376,
      "differentially": 7377,
      "sial": 7378,
      "satisf": 7379,
      "ferment": 7380,
      "intraoperative": 7381,
      "wet": 7382,
      "interpre": 7383,
      "reveals": 7384,
      "timing": 7385,
      "serine": 7386,
      "##vuls": 7387,
      "##oustic": 7388,
      "peaks": 7389,
      "tolerated": 7390,
      "##yrin": 7391,
      "exhibits": 7392,
      "bes": 7393,
      "##obarb": 7394,
      "lethal": 7395,
      "datab": 7396,
      "controversial": 7397,
      "AEP": 7398,
      "##nel": 7399,
      "VC": 7400,
      "hippocampal": 7401,
      "orb": 7402,
      "trich": 7403,
      "conformational": 7404,
      "##wo": 7405,
      "hematopoietic": 7406,
      "bab": 7407,
      "##gd": 7408,
      "graf": 7409,
      "influx": 7410,
      "rehabilitation": 7411,
      "##coa": 7412,
      "##iph": 7413,
      "##recip": 7414,
      "recons": 7415,
      "stric": 7416,
      "ND": 7417,
      "fetuses": 7418,
      "striatum": 7419,
      "desc": 7420,
      "mixtures": 7421,
      "permanent": 7422,
      "##enh": 7423,
      "prolactin": 7424,
      "##enzyme": 7425,
      "canine": 7426,
      "##yptoph": 7427,
      "dyn": 7428,
      "noradrenaline": 7429,
      "assayed": 7430,
      "fashion": 7431,
      "##aldehyde": 7432,
      "##respons": 7433,
      "postsynaptic": 7434,
      "enhances": 7435,
      "fell": 7436,
      "ongoing": 7437,
      "enabl": 7438,
      "mgm": 7439,
      "##amb": 7440,
      "##amental": 7441,
      "auc": 7442,
      "doubleblind": 7443,
      "nal": 7444,
      "forty": 7445,
      "precision": 7446,
      "##glucose": 7447,
      "emerging": 7448,
      "hypot": 7449,
      "methodology": 7450,
      "neurones": 7451,
      "rheum": 7452,
      "##osan": 7453,
      "##mitter": 7454,
      "autoantib": 7455,
      "##pes": 7456,
      "##fe": 7457,
      "##rolif": 7458,
      "##ipine": 7459,
      "##flex": 7460,
      "forming": 7461,
      "gtp": 7462,
      "##ensitivity": 7463,
      "comparisons": 7464,
      "displac": 7465,
      "adaptive": 7466,
      "exon": 7467,
      "requirement": 7468,
      "option": 7469,
      "deb": 7470,
      "##ostatic": 7471,
      "##eses": 7472,
      "ige": 7473,
      "activating": 7474,
      "##ocellular": 7475,
      "##arbox": 7476,
      "hypoxic": 7477,
      "sole": 7478,
      "aqueous": 7479,
      "wheat": 7480,
      "sizes": 7481,
      "stimulating": 7482,
      "##esium": 7483,
      "##four": 7484,
      "##ayers": 7485,
      "radiol": 7486,
      "fibro": 7487,
      "precursor": 7488,
      "##no": 7489,
      "rac": 7490,
      "settings": 7491,
      "vt": 7492,
      "scans": 7493,
      "##issions": 7494,
      "##olymer": 7495,
      "glass": 7496,
      "abnormality": 7497,
      "changing": 7498,
      "circuit": 7499,
      "##lution": 7500,
      "distributions": 7501,
      "reasons": 7502,
      "ineff": 7503,
      "peroxidation": 7504,
      "epidemiological": 7505,
      "citr": 7506,
      "##cholesterol": 7507,
      "##gia": 7508,
      "axon": 7509,
      "stent": 7510,
      "depletion": 7511,
      "amel": 7512,
      "transformed": 7513,
      "january": 7514,
      "bor": 7515,
      "##aceu": 7516,
      "contral": 7517,
      "subjective": 7518,
      "prenatal": 7519,
      "##lot": 7520,
      "preserved": 7521,
      "##erve": 7522,
      "##stage": 7523,
      "DB": 7524,
      "bt": 7525,
      "immunob": 7526,
      "paired": 7527,
      "salmonella": 7528,
      "labelled": 7529,
      "cypa": 7530,
      "ventil": 7531,
      "instability": 7532,
      "element": 7533,
      "drainage": 7534,
      "flap": 7535,
      "encephal": 7536,
      "equally": 7537,
      "##amidal": 7538,
      "testicular": 7539,
      "##Ps": 7540,
      "predictor": 7541,
      "symm": 7542,
      "leukocyte": 7543,
      "CV": 7544,
      "##rex": 7545,
      "importantly": 7546,
      "##ogeneic": 7547,
      "##ofib": 7548,
      "##olone": 7549,
      "intermitt": 7550,
      "pth": 7551,
      "PO": 7552,
      "insights": 7553,
      "histologically": 7554,
      "outside": 7555,
      "##inate": 7556,
      "##level": 7557,
      "highrisk": 7558,
      "topical": 7559,
      "largest": 7560,
      "modulated": 7561,
      "chamber": 7562,
      "pulse": 7563,
      "linkage": 7564,
      "##oag": 7565,
      "language": 7566,
      "combining": 7567,
      "implementation": 7568,
      "##urance": 7569,
      "service": 7570,
      "depolarization": 7571,
      "optimum": 7572,
      "casc": 7573,
      "##essions": 7574,
      "accurately": 7575,
      "ram": 7576,
      "variants": 7577,
      "##met": 7578,
      "anion": 7579,
      "melatonin": 7580,
      "ging": 7581,
      "contamination": 7582,
      "quantify": 7583,
      "dramatically": 7584,
      "clone": 7585,
      "##otropin": 7586,
      "DWI": 7587,
      "corn": 7588,
      "fasc": 7589,
      "anaerobic": 7590,
      "##uits": 7591,
      "DF": 7592,
      "##leted": 7593,
      "intermedi": 7594,
      "mycobacter": 7595,
      "##ka": 7596,
      "##asm": 7597,
      "##ifferenti": 7598,
      "ganglia": 7599,
      "GB": 7600,
      "background": 7601,
      "papill": 7602,
      "discrimination": 7603,
      "ent": 7604,
      "cardiomyopathy": 7605,
      "RS": 7606,
      "modalities": 7607,
      "intense": 7608,
      "##ders": 7609,
      "cumulative": 7610,
      "encountered": 7611,
      "spine": 7612,
      "##mo": 7613,
      "fundamental": 7614,
      "uses": 7615,
      "effector": 7616,
      "preferred": 7617,
      "MH": 7618,
      "##oor": 7619,
      "##odal": 7620,
      "aromatic": 7621,
      "makes": 7622,
      "reactivity": 7623,
      "shear": 7624,
      "south": 7625,
      "bodies": 7626,
      "colony": 7627,
      "GI": 7628,
      "eliminated": 7629,
      "##ectives": 7630,
      "endometrial": 7631,
      "waters": 7632,
      "##emediated": 7633,
      "operating": 7634,
      "amygdala": 7635,
      "tendon": 7636,
      "ia": 7637,
      "vestibular": 7638,
      "exception": 7639,
      "cultiv": 7640,
      "##oming": 7641,
      "##ping": 7642,
      "blocks": 7643,
      "CNS": 7644,
      "##ycardia": 7645,
      "ace": 7646,
      "stronger": 7647,
      "##amines": 7648,
      "protected": 7649,
      "bronchial": 7650,
      "canal": 7651,
      "keratin": 7652,
      "believed": 7653,
      "nerves": 7654,
      "carrying": 7655,
      "elimin": 7656,
      "neuropathy": 7657,
      "##rof": 7658,
      "##ulmonary": 7659,
      "##iton": 7660,
      "cyclase": 7661,
      "normalized": 7662,
      "hbv": 7663,
      "locations": 7664,
      "operated": 7665,
      "##opyr": 7666,
      "bmd": 7667,
      "antiviral": 7668,
      "forces": 7669,
      "LV": 7670,
      "aqu": 7671,
      "nonlinear": 7672,
      "accep": 7673,
      "ea": 7674,
      "prevalent": 7675,
      "promotes": 7676,
      "profound": 7677,
      "histology": 7678,
      "border": 7679,
      "transferred": 7680,
      "HG": 7681,
      "##irc": 7682,
      "##bumin": 7683,
      "LG": 7684,
      "SU": 7685,
      "drop": 7686,
      "##ythmic": 7687,
      "bot": 7688,
      "transduction": 7689,
      "assist": 7690,
      "##ifug": 7691,
      "metastatic": 7692,
      "##oreceptor": 7693,
      "accumulated": 7694,
      "##hr": 7695,
      "##enin": 7696,
      "parasite": 7697,
      "retrospectively": 7698,
      "##iness": 7699,
      "vaginal": 7700,
      "implants": 7701,
      "retention": 7702,
      "mammals": 7703,
      "DD": 7704,
      "placement": 7705,
      "##ques": 7706,
      "aerobic": 7707,
      "##anolol": 7708,
      "dense": 7709,
      "hydr": 7710,
      "##ometer": 7711,
      "electrophoresis": 7712,
      "##plate": 7713,
      "division": 7714,
      "gover": 7715,
      "##ysiological": 7716,
      "##aterally": 7717,
      "horiz": 7718,
      "enhancing": 7719,
      "digital": 7720,
      "##for": 7721,
      "nacetyl": 7722,
      "lith": 7723,
      "categories": 7724,
      "##ws": 7725,
      "uncommon": 7726,
      "slowly": 7727,
      "PCR": 7728,
      "PACE": 7729,
      "unexp": 7730,
      "atm": 7731,
      "titers": 7732,
      "spp": 7733,
      "##rene": 7734,
      "##fraction": 7735,
      "gv": 7736,
      "##omatous": 7737,
      "bs": 7738,
      "prep": 7739,
      "viscer": 7740,
      "tendency": 7741,
      "colorectal": 7742,
      "##omb": 7743,
      "##ozoa": 7744,
      "##ubicin": 7745,
      "ultrastructural": 7746,
      "fungal": 7747,
      "ll": 7748,
      "afferents": 7749,
      "HFA": 7750,
      "tlr": 7751,
      "sometimes": 7752,
      "##ophore": 7753,
      "signalling": 7754,
      "ff": 7755,
      "mos": 7756,
      "effort": 7757,
      "##aning": 7758,
      "##yptophan": 7759,
      "biofil": 7760,
      "bulk": 7761,
      "span": 7762,
      "sap": 7763,
      "thalamic": 7764,
      "##acerb": 7765,
      "##ote": 7766,
      "##orbid": 7767,
      "##uric": 7768,
      "explan": 7769,
      "photo": 7770,
      "rd": 7771,
      "lev": 7772,
      "MG": 7773,
      "##omethyl": 7774,
      "postn": 7775,
      "##after": 7776,
      "rub": 7777,
      "perturb": 7778,
      "##omegal": 7779,
      "##hl": 7780,
      "lowered": 7781,
      "destruction": 7782,
      "##itated": 7783,
      "surpr": 7784,
      "HM": 7785,
      "##rowth": 7786,
      "autops": 7787,
      "glycine": 7788,
      "screened": 7789,
      "vertical": 7790,
      "prefrontal": 7791,
      "##mph": 7792,
      "extensively": 7793,
      "##tinduced": 7794,
      "##revers": 7795,
      "##electric": 7796,
      "##educ": 7797,
      "remod": 7798,
      "architect": 7799,
      "halflife": 7800,
      "##oreactive": 7801,
      "dimensions": 7802,
      "pari": 7803,
      "pregnancies": 7804,
      "preservation": 7805,
      "tobac": 7806,
      "parental": 7807,
      "attached": 7808,
      "##oplastic": 7809,
      "encodes": 7810,
      "rectal": 7811,
      "##alanine": 7812,
      "##ethanol": 7813,
      "exacerb": 7814,
      "defective": 7815,
      "mk": 7816,
      "created": 7817,
      "connections": 7818,
      "IVT": 7819,
      "presumably": 7820,
      "ger": 7821,
      "vectors": 7822,
      "##iration": 7823,
      "staphylococcus": 7824,
      "##elles": 7825,
      "perceived": 7826,
      "tobacco": 7827,
      "brad": 7828,
      "kapp": 7829,
      "schem": 7830,
      "##born": 7831,
      "graph": 7832,
      "qualitative": 7833,
      "immunosupp": 7834,
      "analogues": 7835,
      "tcr": 7836,
      "##ecyl": 7837,
      "postin": 7838,
      "pas": 7839,
      "##osus": 7840,
      "conclusions": 7841,
      "pep": 7842,
      "continuously": 7843,
      "##avir": 7844,
      "dissem": 7845,
      "pgml": 7846,
      "discovered": 7847,
      "##rons": 7848,
      "##ontrol": 7849,
      "pylori": 7850,
      "panel": 7851,
      "resolved": 7852,
      "chemicals": 7853,
      "tac": 7854,
      "subpop": 7855,
      "twel": 7856,
      "inside": 7857,
      "NPs": 7858,
      "fourth": 7859,
      "align": 7860,
      "mediating": 7861,
      "esophag": 7862,
      "emplo": 7863,
      "reporter": 7864,
      "technical": 7865,
      "rupture": 7866,
      "tax": 7867,
      "brains": 7868,
      "usefulness": 7869,
      "corneal": 7870,
      "scales": 7871,
      "##dibular": 7872,
      "equip": 7873,
      "situation": 7874,
      "##isions": 7875,
      "##olate": 7876,
      "##ront": 7877,
      "nak": 7878,
      "vital": 7879,
      "replaced": 7880,
      "##ry": 7881,
      "blind": 7882,
      "visc": 7883,
      "##linked": 7884,
      "reconstit": 7885,
      "splen": 7886,
      "tabl": 7887,
      "peg": 7888,
      "##esize": 7889,
      "standards": 7890,
      "actual": 7891,
      "betaadren": 7892,
      "sor": 7893,
      "##osts": 7894,
      "##obulin": 7895,
      "promoting": 7896,
      "##perform": 7897,
      "organism": 7898,
      "mw": 7899,
      "reinfor": 7900,
      "radial": 7901,
      "balloon": 7902,
      "twelve": 7903,
      "performing": 7904,
      "opening": 7905,
      "concurrent": 7906,
      "##udes": 7907,
      "fibronectin": 7908,
      "nutrient": 7909,
      "striking": 7910,
      "polyc": 7911,
      "biology": 7912,
      "##ora": 7913,
      "##oly": 7914,
      "fine": 7915,
      "oligonucle": 7916,
      "preferentially": 7917,
      "comprised": 7918,
      "S2": 7919,
      "ebv": 7920,
      "##aver": 7921,
      "##gt": 7922,
      "##ples": 7923,
      "essentially": 7924,
      "filter": 7925,
      "df": 7926,
      "pharmacokinetics": 7927,
      "rotation": 7928,
      "mot": 7929,
      "analogue": 7930,
      "recruited": 7931,
      "construct": 7932,
      "multip": 7933,
      "fibrinogen": 7934,
      "vic": 7935,
      "neoplastic": 7936,
      "expos": 7937,
      "phylogenetic": 7938,
      "utilizing": 7939,
      "satisfactory": 7940,
      "powerful": 7941,
      "operations": 7942,
      "##lutinin": 7943,
      "nucleotides": 7944,
      "moderately": 7945,
      "reflux": 7946,
      "indicators": 7947,
      "downregulated": 7948,
      "penic": 7949,
      "distinc": 7950,
      "lipopol": 7951,
      "##iable": 7952,
      "arab": 7953,
      "epiderm": 7954,
      "natur": 7955,
      "quite": 7956,
      "designated": 7957,
      "promoted": 7958,
      "##urnal": 7959,
      "plex": 7960,
      "eggs": 7961,
      "augmented": 7962,
      "##alled": 7963,
      "rev": 7964,
      "stimulates": 7965,
      "##rays": 7966,
      "contralateral": 7967,
      "##aching": 7968,
      "crf": 7969,
      "hypoglyc": 7970,
      "##Rs": 7971,
      "equation": 7972,
      "##openia": 7973,
      "dermat": 7974,
      "##ices": 7975,
      "mediators": 7976,
      "ped": 7977,
      "exert": 7978,
      "contributed": 7979,
      "bearing": 7980,
      "participate": 7981,
      "##atch": 7982,
      "##actor": 7983,
      "elastic": 7984,
      "antif": 7985,
      "shunt": 7986,
      "gross": 7987,
      "propag": 7988,
      "##une": 7989,
      "##omed": 7990,
      "electroly": 7991,
      "##epith": 7992,
      "##ochrom": 7993,
      "prophylaxis": 7994,
      "##fed": 7995,
      "micron": 7996,
      "adp": 7997,
      "##ophila": 7998,
      "neonates": 7999,
      "mobil": 8000,
      "roots": 8001,
      "##Îº": 8002,
      "bias": 8003,
      "phospholipids": 8004,
      "planning": 8005,
      "gyr": 8006,
      "##agic": 8007,
      "##admin": 8008,
      "ft": 8009,
      "nin": 8010,
      "egfr": 8011,
      "outp": 8012,
      "scaven": 8013,
      "GCs": 8014,
      "##rogens": 8015,
      "healthcare": 8016,
      "arc": 8017,
      "hsv": 8018,
      "corticosteroid": 8019,
      "##roliferative": 8020,
      "##lymph": 8021,
      "##atient": 8022,
      "##raphy": 8023,
      "##receptor": 8024,
      "clinicians": 8025,
      "discovery": 8026,
      "reviews": 8027,
      "##coupl": 8028,
      "african": 8029,
      "unable": 8030,
      "contributing": 8031,
      "zer": 8032,
      "microtub": 8033,
      "##vae": 8034,
      "##ethylene": 8035,
      "##gent": 8036,
      "infused": 8037,
      "intermittent": 8038,
      "quick": 8039,
      "teeth": 8040,
      "slower": 8041,
      "obstruction": 8042,
      "histor": 8043,
      "postnatal": 8044,
      "suspension": 8045,
      "spind": 8046,
      "chel": 8047,
      "retri": 8048,
      "spher": 8049,
      "juven": 8050,
      "naturally": 8051,
      "traff": 8052,
      "vide": 8053,
      "accepted": 8054,
      "beam": 8055,
      "lumen": 8056,
      "weekly": 8057,
      "surprising": 8058,
      "sar": 8059,
      "##idi": 8060,
      "static": 8061,
      "##oblasts": 8062,
      "aus": 8063,
      "industr": 8064,
      "stiffness": 8065,
      "##anic": 8066,
      "nodules": 8067,
      "##arct": 8068,
      "sessions": 8069,
      "allogeneic": 8070,
      "quantitatively": 8071,
      "acceptable": 8072,
      "##ware": 8073,
      "stored": 8074,
      "pregnant": 8075,
      "gad": 8076,
      "served": 8077,
      "neuros": 8078,
      "##ophosphate": 8079,
      "##hal": 8080,
      "DI": 8081,
      "##ionine": 8082,
      "progressively": 8083,
      "inhalation": 8084,
      "underg": 8085,
      "##estis": 8086,
      "granule": 8087,
      "##romycin": 8088,
      "nurses": 8089,
      "liposomes": 8090,
      "PMN": 8091,
      "propranolol": 8092,
      "hall": 8093,
      "perin": 8094,
      "##chain": 8095,
      "VPI": 8096,
      "neurom": 8097,
      "diaph": 8098,
      "medications": 8099,
      "vertebr": 8100,
      "ingestion": 8101,
      "##ned": 8102,
      "##gic": 8103,
      "indeed": 8104,
      "nfkappab": 8105,
      "##partate": 8106,
      "##oradi": 8107,
      "decades": 8108,
      "homozygous": 8109,
      "mapk": 8110,
      "width": 8111,
      "additive": 8112,
      "radiological": 8113,
      "magnesium": 8114,
      "girls": 8115,
      "malaria": 8116,
      "anomalies": 8117,
      "intraperitoneal": 8118,
      "agerelated": 8119,
      "##regn": 8120,
      "##inergic": 8121,
      "irrevers": 8122,
      "resc": 8123,
      "decay": 8124,
      "wavel": 8125,
      "phospholipase": 8126,
      "dg": 8127,
      "livers": 8128,
      "preference": 8129,
      "glycogen": 8130,
      "brid": 8131,
      "inoculated": 8132,
      "adrenergic": 8133,
      "homogen": 8134,
      "##imensional": 8135,
      "larvae": 8136,
      "modes": 8137,
      "##ai": 8138,
      "concentrationdependent": 8139,
      "spik": 8140,
      "recombination": 8141,
      "##density": 8142,
      "##icks": 8143,
      "prl": 8144,
      "conversely": 8145,
      "gla": 8146,
      "shortening": 8147,
      "##lings": 8148,
      "assumed": 8149,
      "warr": 8150,
      "microl": 8151,
      "nl": 8152,
      "volunt": 8153,
      "DL": 8154,
      "coval": 8155,
      "sib": 8156,
      "adjustment": 8157,
      "formulations": 8158,
      "japan": 8159,
      "##hp": 8160,
      "dimer": 8161,
      "visible": 8162,
      "##embl": 8163,
      "caffe": 8164,
      "arthritis": 8165,
      "spike": 8166,
      "euk": 8167,
      "##hex": 8168,
      "antip": 8169,
      "proteolytic": 8170,
      "rostral": 8171,
      "challenging": 8172,
      "quant": 8173,
      "##ek": 8174,
      "##ison": 8175,
      "emerged": 8176,
      "rect": 8177,
      "becomes": 8178,
      "library": 8179,
      "converted": 8180,
      "tyr": 8181,
      "glucagon": 8182,
      "hydroxyl": 8183,
      "neoplasms": 8184,
      "wind": 8185,
      "##def": 8186,
      "IT": 8187,
      "person": 8188,
      "##oric": 8189,
      "##acetic": 8190,
      "frontal": 8191,
      "##ogenicity": 8192,
      "descending": 8193,
      "##bean": 8194,
      "novo": 8195,
      "anticancer": 8196,
      "tetra": 8197,
      "##vian": 8198,
      "war": 8199,
      "simp": 8200,
      "screen": 8201,
      "##ocated": 8202,
      "##luent": 8203,
      "meta": 8204,
      "##glycerol": 8205,
      "##icidal": 8206,
      "molar": 8207,
      "##zer": 8208,
      "hemodialysis": 8209,
      "diarrhea": 8210,
      "##usp": 8211,
      "modify": 8212,
      "##embrane": 8213,
      "antigenic": 8214,
      "spermatozoa": 8215,
      "virulence": 8216,
      "##erived": 8217,
      "economic": 8218,
      "inverse": 8219,
      "##ulties": 8220,
      "coex": 8221,
      "charged": 8222,
      "homogeneous": 8223,
      "room": 8224,
      "resources": 8225,
      "harb": 8226,
      "fabric": 8227,
      "B1": 8228,
      "indication": 8229,
      "swit": 8230,
      "exposures": 8231,
      "hydrochlor": 8232,
      "consideration": 8233,
      "endotoxin": 8234,
      "##pin": 8235,
      "inferior": 8236,
      "genotype": 8237,
      "massive": 8238,
      "circular": 8239,
      "crude": 8240,
      "scin": 8241,
      "radioimmun": 8242,
      "glucocorticoid": 8243,
      "##mm": 8244,
      "dosing": 8245,
      "persp": 8246,
      "##abor": 8247,
      "eukary": 8248,
      "##alph": 8249,
      "##orous": 8250,
      "plasminogen": 8251,
      "##ulins": 8252,
      "expect": 8253,
      "##five": 8254,
      "##aly": 8255,
      "blocker": 8256,
      "microsomal": 8257,
      "luminal": 8258,
      "pulses": 8259,
      "argin": 8260,
      "cranial": 8261,
      "gf": 8262,
      "cyclospor": 8263,
      "tag": 8264,
      "##rt": 8265,
      "nodes": 8266,
      "china": 8267,
      "dilution": 8268,
      "vin": 8269,
      "parietal": 8270,
      "limiting": 8271,
      "##astatin": 8272,
      "mother": 8273,
      "neuropath": 8274,
      "activates": 8275,
      "prospectively": 8276,
      "inoculation": 8277,
      "unexpected": 8278,
      "rose": 8279,
      "rice": 8280,
      "##rected": 8281,
      "ligation": 8282,
      "platform": 8283,
      "feasible": 8284,
      "pts": 8285,
      "##ato": 8286,
      "##iciencies": 8287,
      "vulner": 8288,
      "intravenously": 8289,
      "night": 8290,
      "autophag": 8291,
      "difficulties": 8292,
      "##onyl": 8293,
      "##ipar": 8294,
      "microorgan": 8295,
      "##aturated": 8296,
      "born": 8297,
      "##fil": 8298,
      "indometh": 8299,
      "amn": 8300,
      "thresholds": 8301,
      "ee": 8302,
      "OA": 8303,
      "##tives": 8304,
      "pore": 8305,
      "pretreated": 8306,
      "anter": 8307,
      "##inj": 8308,
      "mom": 8309,
      "##affinity": 8310,
      "##organic": 8311,
      "allele": 8312,
      "highdose": 8313,
      "##ordance": 8314,
      "erg": 8315,
      "##otroph": 8316,
      "colocal": 8317,
      "termed": 8318,
      "institution": 8319,
      "ultrasonography": 8320,
      "duc": 8321,
      "polys": 8322,
      "##break": 8323,
      "tric": 8324,
      "##imetry": 8325,
      "hepatocytes": 8326,
      "hydroxylase": 8327,
      "myeloid": 8328,
      "##phasic": 8329,
      "immunocyt": 8330,
      "herpes": 8331,
      "##ilt": 8332,
      "##epatic": 8333,
      "##ecre": 8334,
      "thereafter": 8335,
      "gkg": 8336,
      "##assisted": 8337,
      "entit": 8338,
      "retrie": 8339,
      "potentiation": 8340,
      "##oxif": 8341,
      "PCTs": 8342,
      "transforming": 8343,
      "acoustic": 8344,
      "microsomes": 8345,
      "##ker": 8346,
      "##eting": 8347,
      "aggregates": 8348,
      "skills": 8349,
      "tris": 8350,
      "nicotin": 8351,
      "##forming": 8352,
      "attenuation": 8353,
      "##tri": 8354,
      "modality": 8355,
      "hypothalamic": 8356,
      "##xa": 8357,
      "veins": 8358,
      "akt": 8359,
      "##edded": 8360,
      "##abelled": 8361,
      "nif": 8362,
      "##oate": 8363,
      "VF": 8364,
      "laborator": 8365,
      "arrhythmias": 8366,
      "##ytwo": 8367,
      "highlight": 8368,
      "waves": 8369,
      "arising": 8370,
      "##gene": 8371,
      "nmethyl": 8372,
      "##Îºb": 8373,
      "##opsis": 8374,
      "##ensiti": 8375,
      "applying": 8376,
      "practices": 8377,
      "undergone": 8378,
      "##rozen": 8379,
      "##ares": 8380,
      "guide": 8381,
      "amelior": 8382,
      "##osen": 8383,
      "indomethacin": 8384,
      "scientif": 8385,
      "Âµ": 8386,
      "microgml": 8387,
      "tro": 8388,
      "TNF": 8389,
      "besides": 8390,
      "deox": 8391,
      "isop": 8392,
      "boys": 8393,
      "candidates": 8394,
      "clamp": 8395,
      "gol": 8396,
      "aberrant": 8397,
      "messeng": 8398,
      "##abetic": 8399,
      "proportional": 8400,
      "demographic": 8401,
      "transfusion": 8402,
      "##reatening": 8403,
      "##obenz": 8404,
      "SPK": 8405,
      "neurologic": 8406,
      "##omet": 8407,
      "alt": 8408,
      "scr": 8409,
      "cbf": 8410,
      "##oler": 8411,
      "traumatic": 8412,
      "aldosterone": 8413,
      "##aving": 8414,
      "lf": 8415,
      "sen": 8416,
      "##unk": 8417,
      "triggered": 8418,
      "inherited": 8419,
      "north": 8420,
      "burs": 8421,
      "tnfalpha": 8422,
      "transfection": 8423,
      "sugar": 8424,
      "bulb": 8425,
      "overcome": 8426,
      "coating": 8427,
      "ACh": 8428,
      "##uclear": 8429,
      "##ming": 8430,
      "peroxide": 8431,
      "nitrate": 8432,
      "parathyroid": 8433,
      "walking": 8434,
      "colitis": 8435,
      "##amino": 8436,
      "fig": 8437,
      "jejun": 8438,
      "natri": 8439,
      "filling": 8440,
      "TF": 8441,
      "fos": 8442,
      "ubiquitin": 8443,
      "situations": 8444,
      "##imid": 8445,
      "ovary": 8446,
      "remarkable": 8447,
      "abuse": 8448,
      "copd": 8449,
      "fear": 8450,
      "##je": 8451,
      "strati": 8452,
      "##insulin": 8453,
      "gt": 8454,
      "gst": 8455,
      "persisted": 8456,
      "##traction": 8457,
      "##isch": 8458,
      "disappeared": 8459,
      "dendrites": 8460,
      "##ecs": 8461,
      "prostatic": 8462,
      "proc": 8463,
      "##adequ": 8464,
      "##ban": 8465,
      "##olid": 8466,
      "environments": 8467,
      "##itting": 8468,
      "centrifug": 8469,
      "HL": 8470,
      "sigma": 8471,
      "TL": 8472,
      "bif": 8473,
      "PU": 8474,
      "balbc": 8475,
      "##itors": 8476,
      "incomplete": 8477,
      "hcg": 8478,
      "tracer": 8479,
      "nondi": 8480,
      "endoplasmic": 8481,
      "cytosol": 8482,
      "presynaptic": 8483,
      "##oxidase": 8484,
      "##rogenic": 8485,
      "son": 8486,
      "land": 8487,
      "ranges": 8488,
      "##etamine": 8489,
      "bolus": 8490,
      "perm": 8491,
      "##urgical": 8492,
      "##ci": 8493,
      "sick": 8494,
      "##osidase": 8495,
      "innerv": 8496,
      "subgroups": 8497,
      "survivors": 8498,
      "##ota": 8499,
      "##amid": 8500,
      "alveolar": 8501,
      "modest": 8502,
      "nonsm": 8503,
      "disturbance": 8504,
      "radiograph": 8505,
      "pneumoniae": 8506,
      "sacr": 8507,
      "representative": 8508,
      "##imeric": 8509,
      "reversal": 8510,
      "##opausal": 8511,
      "alkal": 8512,
      "##atched": 8513,
      "histone": 8514,
      "mgday": 8515,
      "atpase": 8516,
      "conserv": 8517,
      "critically": 8518,
      "ureth": 8519,
      "capt": 8520,
      "swe": 8521,
      "outbreak": 8522,
      "##lys": 8523,
      "cure": 8524,
      "##ococci": 8525,
      "horizontal": 8526,
      "pharmaceu": 8527,
      "visceral": 8528,
      "PMNL": 8529,
      "testis": 8530,
      "stay": 8531,
      "sea": 8532,
      "mobile": 8533,
      "cmv": 8534,
      "knockdown": 8535,
      "prevents": 8536,
      "heterozygous": 8537,
      "share": 8538,
      "##absorption": 8539,
      "US": 8540,
      "antin": 8541,
      "conjunction": 8542,
      "ends": 8543,
      "##asts": 8544,
      "abor": 8545,
      "addressed": 8546,
      "occupational": 8547,
      "cochlear": 8548,
      "dysp": 8549,
      "##pine": 8550,
      "bull": 8551,
      "subcl": 8552,
      "##olipid": 8553,
      "fifty": 8554,
      "validation": 8555,
      "voluntary": 8556,
      "tip": 8557,
      "PSD": 8558,
      "mesenchymal": 8559,
      "surfact": 8560,
      "giant": 8561,
      "helpful": 8562,
      "fluids": 8563,
      "synov": 8564,
      "inserted": 8565,
      "##ims": 8566,
      "photosynth": 8567,
      "parkins": 8568,
      "tam": 8569,
      "##ubs": 8570,
      "##ewor": 8571,
      "lysine": 8572,
      "thymus": 8573,
      "epitopes": 8574,
      "outflow": 8575,
      "DC": 8576,
      "bon": 8577,
      "reacted": 8578,
      "shared": 8579,
      "metals": 8580,
      "round": 8581,
      "deterioration": 8582,
      "##cor": 8583,
      "inversely": 8584,
      "AN": 8585,
      "BPM": 8586,
      "distinguished": 8587,
      "running": 8588,
      "##acil": 8589,
      "dismut": 8590,
      "##jug": 8591,
      "elucidated": 8592,
      "personality": 8593,
      "##anted": 8594,
      "discrete": 8595,
      "pestic": 8596,
      "##trus": 8597,
      "##onse": 8598,
      "intram": 8599,
      "inducible": 8600,
      "carboxyl": 8601,
      "averaged": 8602,
      "trends": 8603,
      "austral": 8604,
      "##ritis": 8605,
      "ome": 8606,
      "chosen": 8607,
      "ars": 8608,
      "##year": 8609,
      "otherwise": 8610,
      "accessory": 8611,
      "##acrylamide": 8612,
      "##yel": 8613,
      "inadequ": 8614,
      "too": 8615,
      "##ash": 8616,
      "compet": 8617,
      "##accharides": 8618,
      "fecal": 8619,
      "##WM": 8620,
      "scler": 8621,
      "physiology": 8622,
      "##itudes": 8623,
      "autoantibodies": 8624,
      "pyramidal": 8625,
      "DE": 8626,
      "responsive": 8627,
      "##atell": 8628,
      "##ocyan": 8629,
      "##imethyl": 8630,
      "din": 8631,
      "trace": 8632,
      "OM": 8633,
      "immobilized": 8634,
      "radioactivity": 8635,
      "synergistic": 8636,
      "##unit": 8637,
      "splenic": 8638,
      "somatostatin": 8639,
      "trab": 8640,
      "##oreg": 8641,
      "arise": 8642,
      "choline": 8643,
      "##onit": 8644,
      "oxyt": 8645,
      "heme": 8646,
      "##omerase": 8647,
      "ohd": 8648,
      "##enyl": 8649,
      "unst": 8650,
      "##estim": 8651,
      "reaching": 8652,
      "expressions": 8653,
      "myelin": 8654,
      "##irub": 8655,
      "infrared": 8656,
      "intim": 8657,
      "property": 8658,
      "branches": 8659,
      "bv": 8660,
      "##tium": 8661,
      "meat": 8662,
      "apo": 8663,
      "ascending": 8664,
      "dod": 8665,
      "chi": 8666,
      "ccr": 8667,
      "responding": 8668,
      "supernat": 8669,
      "TI": 8670,
      "##amyl": 8671,
      "radiographic": 8672,
      "##anyl": 8673,
      "expanded": 8674,
      "needle": 8675,
      "##tir": 8676,
      "agar": 8677,
      "cot": 8678,
      "shifts": 8679,
      "paradigm": 8680,
      "##rep": 8681,
      "label": 8682,
      "deposits": 8683,
      "##chemical": 8684,
      "cephal": 8685,
      "immunoblot": 8686,
      "complexity": 8687,
      "frame": 8688,
      "nephropathy": 8689,
      "tnfÎ": 8690,
      "migraine": 8691,
      "GE": 8692,
      "##fam": 8693,
      "##ilon": 8694,
      "ew": 8695,
      "##oglycan": 8696,
      "##growth": 8697,
      "crossre": 8698,
      "anatomy": 8699,
      "instrument": 8700,
      "NB": 8701,
      "##obarbital": 8702,
      "##orubicin": 8703,
      "microar": 8704,
      "automated": 8705,
      "vision": 8706,
      "secretory": 8707,
      "bud": 8708,
      "##sk": 8709,
      "shortterm": 8710,
      "cholec": 8711,
      "##umab": 8712,
      "irradiated": 8713,
      "gait": 8714,
      "conjugated": 8715,
      "autopsy": 8716,
      "##odg": 8717,
      "angina": 8718,
      "zones": 8719,
      "disulf": 8720,
      "lipopolysaccharide": 8721,
      "##body": 8722,
      "hearts": 8723,
      "dw": 8724,
      "cool": 8725,
      "##aminergic": 8726,
      "decade": 8727,
      "##plastic": 8728,
      "driven": 8729,
      "normot": 8730,
      "##aker": 8731,
      "mov": 8732,
      "users": 8733,
      "scientific": 8734,
      "undet": 8735,
      "alkyl": 8736,
      "evidenced": 8737,
      "junctions": 8738,
      "progenitor": 8739,
      "deviation": 8740,
      "wist": 8741,
      "underl": 8742,
      "polymers": 8743,
      "##ypert": 8744,
      "empir": 8745,
      "german": 8746,
      "interpreted": 8747,
      "##adj": 8748,
      "implemented": 8749,
      "foci": 8750,
      "SG": 8751,
      "##zes": 8752,
      "stabilization": 8753,
      "distant": 8754,
      "raw": 8755,
      "periodontal": 8756,
      "carbox": 8757,
      "specimen": 8758,
      "tooth": 8759,
      "##xr": 8760,
      "antidep": 8761,
      "trait": 8762,
      "cin": 8763,
      "separately": 8764,
      "fetus": 8765,
      "##elihood": 8766,
      "##resolution": 8767,
      "innervation": 8768,
      "juvenile": 8769,
      "microvascular": 8770,
      "##ressant": 8771,
      "hamster": 8772,
      "cig": 8773,
      "check": 8774,
      "csa": 8775,
      "hered": 8776,
      "insufficiency": 8777,
      "##ache": 8778,
      "anesthetic": 8779,
      "##ll": 8780,
      "meg": 8781,
      "diagnoses": 8782,
      "densities": 8783,
      "quantum": 8784,
      "rm": 8785,
      "plane": 8786,
      "scar": 8787,
      "caspase": 8788,
      "bath": 8789,
      "##icide": 8790,
      "##regular": 8791,
      "##bf": 8792,
      "##nd": 8793,
      "##eptidase": 8794,
      "lag": 8795,
      "cholinergic": 8796,
      "defense": 8797,
      "##nk": 8798,
      "galact": 8799,
      "##erge": 8800,
      "modulating": 8801,
      "flat": 8802,
      "alkaline": 8803,
      "dramatic": 8804,
      "##utable": 8805,
      "fibre": 8806,
      "mediates": 8807,
      "lymphatic": 8808,
      "##field": 8809,
      "repetitive": 8810,
      "##anned": 8811,
      "comprising": 8812,
      "err": 8813,
      "##antic": 8814,
      "timedependent": 8815,
      "ascorb": 8816,
      "penetration": 8817,
      "GF": 8818,
      "ensure": 8819,
      "reflects": 8820,
      "##yster": 8821,
      "amplified": 8822,
      "gyrus": 8823,
      "medullary": 8824,
      "enable": 8825,
      "trigger": 8826,
      "bonds": 8827,
      "million": 8828,
      "nanoparticles": 8829,
      "lean": 8830,
      "crystals": 8831,
      "lamina": 8832,
      "##induc": 8833,
      "##omod": 8834,
      "determinant": 8835,
      "physiologic": 8836,
      "participation": 8837,
      "##ophosphamide": 8838,
      "formula": 8839,
      "##rectomy": 8840,
      "##ufact": 8841,
      "npy": 8842,
      "CSF": 8843,
      "employing": 8844,
      "participated": 8845,
      "crosslinking": 8846,
      "##ili": 8847,
      "nocic": 8848,
      "staff": 8849,
      "expon": 8850,
      "innate": 8851,
      "ans": 8852,
      "##cg": 8853,
      "burst": 8854,
      "##epithelial": 8855,
      "gives": 8856,
      "oa": 8857,
      "##ada": 8858,
      "##orbent": 8859,
      "ammonia": 8860,
      "##azepam": 8861,
      "urban": 8862,
      "##analysis": 8863,
      "survived": 8864,
      "classical": 8865,
      "voltage": 8866,
      "##clonal": 8867,
      "ICE": 8868,
      "dismutase": 8869,
      "burn": 8870,
      "LF": 8871,
      "ALP": 8872,
      "restoration": 8873,
      "immunized": 8874,
      "managed": 8875,
      "##ius": 8876,
      "session": 8877,
      "##areness": 8878,
      "compatible": 8879,
      "peroxis": 8880,
      "killed": 8881,
      "excitability": 8882,
      "medulla": 8883,
      "irregular": 8884,
      "radioimmuno": 8885,
      "NR": 8886,
      "VR": 8887,
      "obst": 8888,
      "fh": 8889,
      "configuration": 8890,
      "list": 8891,
      "december": 8892,
      "EB": 8893,
      "difficulty": 8894,
      "fragmentation": 8895,
      "##floxacin": 8896,
      "##ocial": 8897,
      "##acterial": 8898,
      "##flur": 8899,
      "van": 8900,
      "contacts": 8901,
      "laboratories": 8902,
      "##oes": 8903,
      "connectivity": 8904,
      "IH": 8905,
      "connected": 8906,
      "concerns": 8907,
      "tracheal": 8908,
      "lamb": 8909,
      "rum": 8910,
      "anatomic": 8911,
      "##ulture": 8912,
      "complain": 8913,
      "beh": 8914,
      "reproducible": 8915,
      "##gp": 8916,
      "fibres": 8917,
      "pik": 8918,
      "vesicle": 8919,
      "##performance": 8920,
      "aspirin": 8921,
      "##ulder": 8922,
      "lib": 8923,
      "##oprecip": 8924,
      "attempts": 8925,
      "##lipid": 8926,
      "##family": 8927,
      "manufact": 8928,
      "##earing": 8929,
      "favour": 8930,
      "trabec": 8931,
      "version": 8932,
      "##ecan": 8933,
      "interneur": 8934,
      "pmol": 8935,
      "fn": 8936,
      "frozen": 8937,
      "catabol": 8938,
      "verified": 8939,
      "subcellular": 8940,
      "sharp": 8941,
      "annual": 8942,
      "ART": 8943,
      "methanol": 8944,
      "glauc": 8945,
      "lid": 8946,
      "physician": 8947,
      "false": 8948,
      "coordination": 8949,
      "forced": 8950,
      "##aved": 8951,
      "capsule": 8952,
      "##clc": 8953,
      "phosphorus": 8954,
      "##dial": 8955,
      "coverage": 8956,
      "##eficiency": 8957,
      "stimulatory": 8958,
      "##roid": 8959,
      "recognize": 8960,
      "##allow": 8961,
      "weakness": 8962,
      "ectopic": 8963,
      "connective": 8964,
      "polyclonal": 8965,
      "adding": 8966,
      "aspect": 8967,
      "neigh": 8968,
      "entity": 8969,
      "##irubin": 8970,
      "precon": 8971,
      "placenta": 8972,
      "cascade": 8973,
      "focusing": 8974,
      "encaps": 8975,
      "nterminal": 8976,
      "haemat": 8977,
      "trem": 8978,
      "null": 8979,
      "conflic": 8980,
      "CO": 8981,
      "accompl": 8982,
      "nanos": 8983,
      "lysosomal": 8984,
      "##elta": 8985,
      "##poses": 8986,
      "hyperg": 8987,
      "corticosterone": 8988,
      "continue": 8989,
      "contrary": 8990,
      "electric": 8991,
      "insufficient": 8992,
      "##fat": 8993,
      "ham": 8994,
      "elimination": 8995,
      "reporting": 8996,
      "description": 8997,
      "bip": 8998,
      "avp": 8999,
      "##emporal": 9000,
      "pmn": 9001,
      "suffered": 9002,
      "##repor": 9003,
      "##sover": 9004,
      "cbl": 9005,
      "brach": 9006,
      "para": 9007,
      "dair": 9008,
      "tryptophan": 9009,
      "likelihood": 9010,
      "##kinin": 9011,
      "##inhib": 9012,
      "silic": 9013,
      "killing": 9014,
      "compartments": 9015,
      "##apor": 9016,
      "CAs": 9017,
      "##timulating": 9018,
      "nonm": 9019,
      "moiety": 9020,
      "##ematched": 9021,
      "luc": 9022,
      "##ogenes": 9023,
      "definitive": 9024,
      "##uation": 9025,
      "microns": 9026,
      "ko": 9027,
      "li": 9028,
      "lavage": 9029,
      "notably": 9030,
      "##ests": 9031,
      "enables": 9032,
      "##onset": 9033,
      "##osphate": 9034,
      "alanine": 9035,
      "oscillations": 9036,
      "##uthern": 9037,
      "##opr": 9038,
      "atrop": 9039,
      "lymphomas": 9040,
      "lysis": 9041,
      "endothelin": 9042,
      "chickens": 9043,
      "rank": 9044,
      "caffeine": 9045,
[...]
